{"version":"1.0","truncation":null,"padding":null,"added_tokens":[{"id":0,"special":true,"content":"[UNK]","single_word":false,"lstrip":false,"rstrip":false,"normalized":false},{"id":1,"special":true,"content":"[CLS]","single_word":false,"lstrip":false,"rstrip":false,"normalized":false},{"id":2,"special":true,"content":"[SEP]","single_word":false,"lstrip":false,"rstrip":false,"normalized":false},{"id":3,"special":true,"content":"[PAD]","single_word":false,"lstrip":false,"rstrip":false,"normalized":false},{"id":4,"special":true,"content":"[MASK]","single_word":false,"lstrip":false,"rstrip":false,"normalized":false}],"normalizer":{"type":"Sequence","normalizers":[{"type":"NFD"},{"type":"Lowercase"},{"type":"StripAccents"}]},"pre_tokenizer":{"type":"Whitespace"},"post_processor":{"type":"TemplateProcessing","single":[{"SpecialToken":{"id":"[CLS]","type_id":0}},{"Sequence":{"id":"A","type_id":0}},{"SpecialToken":{"id":"[SEP]","type_id":0}}],"pair":[{"SpecialToken":{"id":"[CLS]","type_id":0}},{"Sequence":{"id":"A","type_id":0}},{"SpecialToken":{"id":"[SEP]","type_id":0}},{"Sequence":{"id":"B","type_id":1}},{"SpecialToken":{"id":"[SEP]","type_id":1}}],"special_tokens":{"[CLS]":{"id":"[CLS]","ids":[1],"tokens":["[CLS]"]},"[SEP]":{"id":"[SEP]","ids":[2],"tokens":["[SEP]"]}}},"decoder":null,"model":{"type":"WordPiece","unk_token":"[UNK]","continuing_subword_prefix":"##","max_input_chars_per_word":100,"vocab":{"[UNK]":0,"[CLS]":1,"[SEP]":2,"[PAD]":3,"[MASK]":4,"!":5,"\"":6,"#":7,"$":8,"%":9,"&":10,"'":11,"(":12,")":13,"*":14,"+":15,",":16,"-":17,".":18,"/":19,"0":20,"1":21,"2":22,"3":23,"4":24,"5":25,"6":26,"7":27,"8":28,"9":29,":":30,";":31,"<":32,"=":33,">":34,"?":35,"@":36,"[":37,"\\":38,"]":39,"^":40,"_":41,"`":42,"a":43,"b":44,"c":45,"d":46,"e":47,"f":48,"g":49,"h":50,"i":51,"j":52,"k":53,"l":54,"m":55,"n":56,"o":57,"p":58,"q":59,"r":60,"s":61,"t":62,"u":63,"v":64,"w":65,"x":66,"y":67,"z":68,"{":69,"|":70,"}":71,"~":72,"±":73,"¹":74,"×":75,"σ":76,"τ":77,"а":78,"в":79,"е":80,"и":81,"к":82,"л":83,"м":84,"н":85,"о":86,"п":87,"р":88,"с":89,"т":90,"х":91,"ᴴ":92,"ᵢ":93,"ᵣ":94,"–":95,"—":96,"‘":97,"’":98,"‚":99,"“":100,"”":101,"•":102,"…":103,"⁻":104,"₁":105,"₂":106,"ℂ":107,"ℝ":108,"→":109,"∑":110,"−":111,"∞":112,"─":113,"│":114,"└":115,"├":116,"✓":117,"✘":118,"❓":119,"❯":120,"：":121,"🤷":122,"##o":123,"##m":124,"##p":125,"##a":126,"##r":127,"##e":128,"##i":129,"##v":130,"##l":131,"##u":132,"##s":133,"##t":134,"##_":135,"##d":136,"##y":137,"##c":138,"##h":139,"##g":140,"##x":141,"##n":142,"##w":143,"##k":144,"##f":145,"##3":146,"##2":147,"##j":148,"##4":149,"##8":150,"##1":151,"##7":152,"##5":153,"##)":154,"##`":155,"##,":156,"##z":157,"##b":158,"##9":159,"##6":160,"##0":161,"##|":162,"##!":163,"##(":164,"##\"":165,"##}":166,"##q":167,"##=":168,"##&":169,"##\\":170,"##;":171,"##]":172,"##*":173,"##.":174,"##^":175,"##[":176,"##/":177,"##~":178,"##>":179,"##{":180,"##?":181,"##'":182,"##$":183,"##:":184,"###":185,"##-":186,"##+":187,"##<":188,"##@":189,"##%":190,"##—":191,"##‘":192,"##ᵢ":193,"##”":194,"##а":195,"##т":196,"##и":197,"##н":198,"##с":199,"##к":200,"##х":201,"##м":202,"##в":203,"##о":204,"##л":205,"##：":206,"##─":207,"##❓":208,"##’":209,"##¹":210,"##✓":211,"##•":212,"##−":213,"##ᴴ":214,"##р":215,"##е":216,"##ᵣ":217,"##🤷":218,"##“":219,"##…":220,"##×":221,"##or":222,"##en":223,"##er":224,"##at":225,"##on":226,"##in":227,"##st":228,"##ut":229,"##al":230,"in":231,"##es":232,"##et":233,"##ar":234,"##ch":235,"##el":236,"##ed":237,"th":238,"##e_":239,"##an":240,"##ens":241,"##am":242,"##ensor":243,"::":244,"##ti":245,"st":246,"()":247,"##ec":248,"##od":249,"##orch":250,"##put":251,"##yp":252,"##ic":253,"de":254,"sel":255,"##as":256,"##le":257,"self":258,"##it":259,"torch":260,"##lo":261,"tensor":262,"##ra":263,"##ro":264,"##ing":265,"con":266,"##_t":267,"##ur":268,"##est":269,"##un":270,"##iz":271,"##ac":272,"##mp":273,"##re":274,"##ype":275,"the":276,"##ul":277,"##id":278,"##ame":279,"##se":280,"at":281,"##il":282,"):":283,"##_s":284,"def":285,"##ud":286,"##ion":287,"##tion":288,"if":289,"##ol":290,"int":291,"##_d":292,"##im":293,"##ent":294,"##ue":295,"##_c":296,");":297,"for":298,"ret":299,"op":300,"is":301,"const":302,"##ize":303,"##urn":304,"##ex":305,"return":306,"##op":307,"##um":308,"##is":309,"##ad":310,"input":311,"##ig":312,"##_p":313,"to":314,"##ist":315,"test":316,"##ser":317,"re":318,"out":319,"##ect":320,"##ap":321,"##ot":322,"as":323,"##--":324,"##_f":325,"##_n":326,"##ag":327,"##qu":328,"ex":329,"//":330,"##up":331,"##_m":332,"##ate":333,"##ff":334,"##vic":335,"##nd":336,"##ort":337,"##and":338,"##ack":339,"),":340,"##type":341,"##ir":342,"##rad":343,"##ass":344,"mod":345,"))":346,"##_in":347,"##unc":348,"##tr":349,"str":350,"name":351,"##om":352,"ar":353,"std":354,"##cal":355,"cl":356,"##ip":357,"##loat":358,"##ce":359,"##sert":360,"py":361,"##th":362,"##ation":363,"##uda":364,"##arg":365,"aten":366,"##_b":367,"##ith":368,"##em":369,"##ab":370,"##atch":371,"devic":372,"tr":373,"##all":374,"##ub":375,"of":376,"##ver":377,"##out":378,"\",":379,"##tensor":380,"output":381,"##ata":382,"##ool":383,"##int":384,"arg":385,"##);":386,"##pl":387,"non":388,"al":389,"class":390,"assert":391,"##pu":392,"on":393,"##_l":394,"##ode":395,"',":396,"val":397,"##uto":398,"##ator":399,"float":400,"####":401,"##if":402,"and":403,"##cl":404,"##ib":405,"res":406,"not":407,"##_g":408,"##igh":409,"device":410,"ch":411,"##iv":412,"->":413,"##uc":414,"dim":415,"size":416,"auto":417,"ma":418,"get":419,"##ult":420,"lo":421,"sh":422,"##unction":423,"##ule":424,"##end":425,"##ight":426,"imp":427,"##ern":428,"##rap":429,"==":430,"none":431,"##us":432,"par":433,"##rom":434,"we":435,"##eck":436,"exp":437,"un":438,"##ard":439,"##ess":440,"##erator":441,"(\"":442,"##val":443,"scal":444,"##alse":445,"##oid":446,"##ers":447,"true":448,"##10":449,"be":450,"dtype":451,"##ine":452,"it":453,"##),":454,"##----":455,"cuda":456,"type":457,"##ase":458,"el":459,"##ma":460,"ad":461,"false":462,"##orm":463,"##ind":464,"ca":465,"us":466,"##ace":467,"with":468,"##loc":469,"##_r":470,"##test":471,"do":472,"##_w":473,"##age":474,"],":475,"void":476,"import":477,"##_size":478,"##mpl":479,"##ath":480,"('":481,"##ext":482,"##equ":483,"##_st":484,"pro":485,"grad":486,").":487,"or":488,"##raph":489,"add":490,"(),":491,"##cr":492,"##nn":493,"num":494,"##able":495,"from":496,"##ef":497,"##ork":498,"run":499,"##ror":500,"ne":501,"##ly":502,"bool":503,"pr":504,"##64":505,"##ant":506,"``":507,"typ":508,"this":509,"##omp":510,"##ild":511,"bu":512,"##ob":513,"##anti":514,"rand":515,"ind":516,"data":517,"##ari":518,"else":519,"##par":520,"set":521,"thc":522,"##tim":523,"##ment":524,"##ast":525,"caff":526,"##\"\"":527,"value":528,"##rc":529,"##antiz":530,"##ow":531,"##torch":532,"##ward":533,"##clud":534,"##_h":535,"##_out":536,">(":537,"com":538,"stat":539,"();":540,"##ero":541,"##ang":542,"##equal":543,"##ve":544,"qu":545,"nn":546,"function":547,"args":548,"##args":549,"##pp":550,"wh":551,"##00":552,"##eth":553,"##crip":554,"scalar":555,"##e2":556,"##__":557,"##ep":558,"c10":559,"\")":560,"##con":561,"##~~":562,"##cript":563,"module":564,"param":565,"##oun":566,"##ape":567,"##ypes":568,"option":569,"##ke":570,"##port":571,"##ary":572,"en":573,"())":574,"##ector":575,"##ore":576,"##ide":577,"##lob":578,"##==":579,"##sp":580,"check":581,"##_op":582,"##fo":583,"##roup":584,"##ject":585,"##error":586,"work":587,"caffe2":588,"##32":589,"includ":590,"node":591,"######":592,"an":593,"ob":594,"##ernel":595,"assertequal":596,"##ize_":597,"##ault":598,"##ref":599,"list":600,"##da":601,"\"\"\"":602,"##uct":603,"##add":604,"##ict":605,"graph":606,":`":607,"end":608,"model":609,"##ethod":610,"##ull":611,"])":612,"([":613,"##cess":614,"##pr":615,"##set":616,"max":617,"##_tensor":618,"().":619,"##ix":620,"weight":621,"##64_t":622,"that":623,"expect":624,"##ames":625,"##ile":626,")(":627,"ac":628,"operator":629,"##grad":630,"jit":631,"##_type":632,"static":633,"thtensor":634,"pytorch":635,"include":636,"##ay":637,"##thon":638,"all":639,"##ill":640,"##ias":641,"##ename":642,"string":643,"cont":644,"batch":645,"##e_c":646,"##per":647,"##os":648,"##_v":649,"cpu":650,"##ong":651,"##empl":652,"##lock":653,"##//":654,"##_con":655,"##_val":656,"##ty":657,"sup":658,"##abl":659,"##ices":660,"##16":661,"##oint":662,"<<":663,"quantiz":664,"##check":665,"##_mod":666,"##ate_":667,"requ":668,"##_grad":669,"##patch":670,"##kip":671,"build":672,"new":673,"##ispatch":674,"##_name":675,"##mod":676,"np":677,"##ank":678,"')":679,"##evic":680,"conv":681,"##str":682,"comp":683,"attr":684,"vari":685,"src":686,"int64_t":687,"##ument":688,"##input":689,"((":690,"index":691,"result":692,"inputs":693,"##ign":694,"so":695,"##ues":696,"skip":697,"tra":698,"##opy":699,"##ps":700,"##_test":701,"are":702,"##ampl":703,"default":704,"has":705,"back":706,"##eta":707,"##dim":708,"func":709,"##..":710,"##ter":711,"state":712,"python":713,"10":714,"##read":715,"vector":716,"##ss":717,"##ial":718,"));":719,"no":720,">>":721,"##arget":722,"typename":723,"##ange":724,"dist":725,"##amb":726,"call":727,"zero":728,"##ibut":729,"##ension":730,"##oo":731,"requir":732,"##ann":733,"cre":734,"##ory":735,"##--------":736,"##tu":737,"shape":738,"##ust":739,"##lement":740,"##eight":741,"optional":742,"sub":743,"##low":744,"ke":745,"##ke_":746,"##types":747,"##ure":748,"##ambda":749,"[]":750,"##lic":751,"##name":752,"##emplate":753,"##_dim":754,"##s_":755,"##_input":756,"id":757,"expected":758,"());":759,"lib":760,"##uple":761,"len":762,"##pc":763,"##eg":764,"##_data":765,"##bu":766,"cud":767,"##ptr":768,"##ffer":769,"##time":770,"##ach":771,"##gist":772,"##info":773,"script":774,"{}":775,"##mpty":776,"##ther":777,"by":778,"##ated":779,"##2d":780,"net":781,"##fig":782,"##uble":783,"##ord":784,"size_":785,"##_init":786,"gen":787,"@@":788,"inst":789,"kernel":790,"template":791,"names":792,"other":793,"red":794,"##_output":795,"##to":796,"##yn":797,"log":798,"##ount":799,"&&":800,"lambda":801,"**":802,"support":803,"##e_d":804,"se":805,"min":806,"only":807,"##_str":808,"##emory":809,"##_ap":810,"},":811,"##av":812,"##ew":813,"target":814,"can":815,"tensors":816,"##ain":817,"##ise":818,"##vers":819,"##line":820,"##amp":821,"kw":822,"##ck":823,"argument":824,"sp":825,"##er_":826,"##ence":827,"group":828,"##lex":829,"##case":830,"requires":831,"##ask":832,"##pro":833,"##art":834,"er":835,"##chem":836,"##float":837,"##ream":838,"mul":839,"##tual":840,"##tions":841,"stride":842,"##ere":843,"##lag":844,"##_cuda":845,"##ive":846,"##~~~~":847,"##],":848,"##urr":849,"ref":850,"##mat":851,"##izes":852,"mat":853,"!=":854,"long":855,"##back":856,"ra":857,"##annel":858,"_c":859,"##_re":860,"##ance":861,"##ffset":862,"##ld":863,"##ray":864,"method":865,"##mm":866,"##ning":867,"will":868,"##ux":869,"##oul":870,"##ould":871,"##adding":872,"##ined":873,"##ous":874,"struct":875,"comm":876,"##row":877,"cpp":878,"##form":879,"copy":880,"rank":881,">>>":882,"##elu":883,"empty":884,"##gth":885,"##pace":886,"##_to":887,"##inux":888,"modul":889,"stack":890,"##_api":891,"##ak":892,"##ce_":893,"##_ind":894,"##ost":895,"tuple":896,"##tial":897,"##_and":898,"sum":899,"##ernal":900,"regist":901,"sy":902,"##########":903,"##gu":904,"(*":905,"bin":906,"##urrent":907,"rpc":908,"paramet":909,"##space":910,"##ans":911,"##ed_":912,"##ccl":913,"##list":914,"##zero":915,"namespace":916,"##====":917,"##mb":918,"##cep":919,"dec":920,"${":921,"##_i":922,"##ribut":923,"\");":924,"format":925,"##_par":926,"double":927,"##ail":928,"##ations":929,"##ove":930,"##ave":931,"object":932,"='":933,"##_back":934,"##_sh":935,"ap":936,"##pack":937,"use":938,"bias":939,"ext":940,"values":941,"##ared":942,"':":943,"math":944,"randn":945,"block":946,"##output":947,"null":948,"stor":949,"##_ex":950,"##_args":951,"##^^":952,"['":953,"##ber":954,"forward":955,"##ample":956,"app":957,"real":958,"##::":959,"##_point":960,"over":961,"key":962,"};":963,"##chema":964,"t1":965,"##_scal":966,"##ient":967,"##ound":968,"##_lo":969,"fil":970,"process":971,"=(":972,"##ev":973,"##_cpu":974,"##version":975,"##inal":976,"##_pro":977,"##value":978,"##module":979,"quantized":980,"##_id":981,"##_types":982,"##object":983,"rec":984,"tim":985,"##nx":986,"##inear":987,"##_ptr":988,"##_bu":989,"dimension":990,"1e":991,"##act":992,"];":993,"##${":994,"path":995,"yo":996,"++":997,"dispatch":998,"indices":999,"range":1000,"kwargs":1001,"##lags":1002,"##def":1003,"##ump":1004,"##max":1005,"fn":1006,"##size":1007,"##kernel":1008,"backend":1009,"context":1010,"/*":1011,"padding":1012,"ab":1013,"##index":1014,"##of":1015,"endif":1016,"cudnn":1017,"##ose":1018,"requires_grad":1019,"##rit":1020,"t2":1021,"size_t":1022,"any":1023,"##one":1024,"##_as":1025,"##alf":1026,"##que":1027,"outputs":1028,"thctensor":1029,"##alloc":1030,"})":1031,"ht":1032,"##function":1033,"thtensor_":1034,"##old":1035,"##cast":1036,"##tiv":1037,"iter":1038,"##_init__":1039,"workspace":1040,"##ity":1041,"__init__":1042,"dict":1043,"runtime":1044,"']":1045,"distribut":1046,"##_dir":1047,"##_list":1048,"element":1049,"cma":1050,"norm":1051,"##_devic":1052,"pub":1053,"di":1054,"##map":1055,"##le_":1056,"##ean":1057,"should":1058,"##_en":1059,"##ample_":1060,"public":1061,"dtypes":1062,"lay":1063,"error":1064,"per":1065,"##ead":1066,"():":1067,"uint":1068,"start":1069,"##uce":1070,"##_comp":1071,"##inst":1072,"##att":1073,"##quantiz":1074,"##_function":1075,"##res":1076,"]]":1077,"].":1078,"##for":1079,"...":1080,"##ized":1081,"pre":1082,"append":1083,"##oth":1084,"##place":1085,"cs":1086,"when":1087,"##iew":1088,"##cc":1089,"dep":1090,"##e__":1091,"register":1092,"variable":1093,"##edd":1094,"##_with":1095,"##text":1096,"col":1097,"##56":1098,"idx":1099,"##ax":1100,"##param":1101,"device_":1102,"defined":1103,"_test":1104,"gener":1105,"##attr":1106,"##get":1107,"=\"":1108,"using":1109,")),":1110,"##_fn":1111,"##3d":1112,"##hs":1113,"vk":1114,"##_module":1115,"multi":1116,"##impl":1117,"reduc":1118,"load":1119,"##ansp":1120,"pad":1121,"have":1122,"random":1123,"##tigu":1124,"case":1125,"##ative":1126,"need":1127,"##pars":1128,"://":1129,"##oc":1130,"##\")":1131,"##ond":1132,"##_for":1133,"##base":1134,"##tiguous":1135,"##channel":1136,"inline":1137,"binary":1138,"##_lib":1139,"##irst":1140,"autograd":1141,"pack":1142,"print":1143,"##config":1144,"##_def":1145,"csrc":1146,"##_dispatch":1147,"unit":1148,"##**":1149,"thcud":1150,"scale":1151,"##))":1152,"\":":1153,"nod":1154,"##instance":1155,"create":1156,"htt":1157,"##11":1158,"##expr":1159,"##ike":1160,"##essage":1161,"you":1162,"##road":1163,"##age_":1164,"##roadcast":1165,"runtimeerror":1166,"##itial":1167,"##_param":1168,"##irtual":1169,"##ies":1170,"##ph":1171,"##ally":1172,"but":1173,"##->":1174,"virtual":1175,"env":1176,"use_c":1177,"spec":1178,"vec":1179,"..":1180,"({":1181,"optim":1182,"os":1183,"##able_":1184,"current":1185,"##atensor":1186,"number":1187,"comput":1188,"##_un":1189,"##umpy":1190,"##_weight":1191,"20":1192,"##with":1193,"100":1194,"##_value":1195,"memory":1196,"core":1197,"gpu":1198,"up":1199,"init":1200,"testcase":1201,"##server":1202,"##til":1203,"##_int":1204,"sizes":1205,"define":1206,"12":1207,"##ution":1208,"##ises":1209,"##enc":1210,"##load":1211,"war":1212,"onnx":1213,"##sh":1214,"file":1215,"##idd":1216,"##ype_":1217,"make_":1218,"thcudatensor":1219,"dst":1220,"##ied":1221,"rem":1222,"returns":1223,"##rix":1224,"uns":1225,"vers":1226,"##_cast":1227,"##eat":1228,"then":1229,"pyobject":1230,"nccl":1231,"##_all":1232,"des":1233,"##_fp":1234,"##iron":1235,"raise":1236,"install":1237,"char":1238,"##cuda":1239,"##key":1240,"##bug":1241,"##rac":1242,"depend":1243,"##graph":1244,"##elper":1245,"im":1246,"use_":1247,"##rop":1248,"##ilation":1249,"bas":1250,"version":1251,"giv":1252,"array":1253,"##erence":1254,"pass":1255,"linear":1256,"##_th":1257,"dat":1258,"##ell":1259,"##ement":1260,"##devic":1261,"blob":1262,"||":1263,"##_version":1264,">::":1265,"##pool":1266,"https":1267,"code":1268,"step":1269,"used":1270,"does":1271,"unittest":1272,"*/":1273,"##gen":1274,"isinstance":1275,"options":1276,"##_check":1277,"##ook":1278,"##ft":1279,"##ich":1280,"##etype":1281,">&":1282,"var":1283,"##raises":1284,"##jit":1285,"scalar_t":1286,"##pha":1287,"ones":1288,"##idth":1289,"##idden":1290,"tod":1291,"fut":1292,"thread":1293,"##ition":1294,"same":1295,"assertraises":1296,"shared":1297,"constant":1298,"##_arg":1299,"##inputs":1300,"''":1301,"##ync":1302,"given":1303,"obj":1304,"##state":1305,"each":1306,"todo":1307,"##andle":1308,"##_net":1309,"+=":1310,"thp":1311,"##_e":1312,"move":1313,"which":1314,"pl":1315,"##blob":1316,"match":1317,"=[":1318,"##rary":1319,"##iter":1320,"arguments":1321,"sc":1322,"##_a":1323,"alloc":1324,"##operator":1325,"##_non":1326,"item":1327,"##our":1328,"##its":1329,"(!":1330,"first":1331,"##ez":1332,"half":1333,"##fil":1334,"##_build":1335,"train":1336,"##_tr":1337,"find":1338,"see":1339,"export":1340,"##float16":1341,"##use":1342,"[\"":1343,"dock":1344,"##indow":1345,"mode":1346,"strid":1347,"##_o":1348,"sour":1349,"av":1350,"##ive_":1351,"storage":1352,"full":1353,"##1d":1354,"});":1355,"must":1356,"##erial":1357,"##_up":1358,"backward":1359,"##_py":1360,"##eld":1361,"##ll":1362,"##_map":1363,"dir":1364,"time":1365,"##_num":1366,"##lobal":1367,"##date":1368,"##_node":1369,"##erm":1370,"##cpu":1371,"##stream":1372,"##e_name":1373,"##ironment":1374,"##sum":1375,"zeros":1376,"testing":1377,"##izer":1378,"example":1379,"offset":1380,"distributed":1381,"alpha":1382,"excep":1383,"'),":1384,"note":1385,"##omm":1386,"integ":1387,"##ates":1388,"complex":1389,"mean":1390,"##_on":1391,"##der":1392,"##parse":1393,"sm":1394,"##ization":1395,"##ength":1396,"`.":1397,"##mbol":1398,"insert":1399,"##vert":1400,"##red":1401,"##ue_":1402,"##plic":1403,"##ark":1404,"length":1405,"map":1406,"##gin":1407,"one":1408,"##script":1409,"##_dict":1410,"dims":1411,"initial":1412,"gtest":1413,"##----------------":1414,"##tx":1415,"##_linux":1416,"##util":1417,"##_backward":1418,"##ench":1419,"##group":1420,"##qual":1421,"dilation":1422,"##ree":1423,"##_indices":1424,"##ply":1425,"variant":1426,"skipif":1427,"##////":1428,"##sg":1429,"##mul":1430,"##ush":1431,"expr":1432,"]),":1433,"##kl":1434,"eq":1435,"##orld":1436,"local":1437,"##anspose":1438,"##andl":1439,"_s":1440,"ax":1441,"[[":1442,"mask":1443,"##gex":1444,"acc":1445,"##olution":1446,"##ures":1447,"##edding":1448,"##53":1449,"##conv":1450,"##image":1451,"decl":1452,"16":1453,"##refix":1454,"deta":1455,"##e_f":1456,"##_group":1457,"##ield":1458,"relu":1459,"broadcast":1460,"hidden":1461,"##_dims":1462,"point":1463,"--":1464,"##ithub":1465,"##_pool":1466,"##~~~~~~~~":1467,"github":1468,"native":1469,"types":1470,"le":1471,"##used":1472,",),":1473,"##class":1474,"##stor":1475,"##_gpu":1476,"##_complex":1477,"keep":1478,"!)":1479,"##own":1480,"float32":1481,"##quant":1482,"util":1483,"fl":1484,"##_set":1485,"##_shape":1486,"##_env":1487,"bfloat16":1488,"som":1489,"##allel":1490,"elif":1491,"##_index":1492,"numpy":1493,"##ov":1494,"##_info":1495,"##plit":1496,"man":1497,"##uck":1498,"contain":1499,"message":1500,"##string":1501,"parameter":1502,"reduce":1503,"##":1504,"implement":1505,"specif":1506,">=":1507,"##_func":1508,"##mt":1509,"##\",":1510,"##work":1511,"##amed":1512,"##actor":1513,"##rapper":1514,"##_q":1515,"##_method":1516,"sample_":1517,"ivalue":1518,"##12":1519,"##ri":1520,"[](":1521,"zero_point":1522,"##array":1523,"parameters":1524,"##gn":1525,"##_x":1526,"prim":1527,"##ruct":1528,"trans":1529,"##ucket":1530,"(%":1531,"view":1532,"##_assert":1533,"mut":1534,"pos":1535,"##################":1536,"order":1537,"tests":1538,"##_scale":1539,"##ule_":1540,"##econd":1541,"may":1542,"##========":1543,"inf":1544,"##gr":1545,"##emp":1546,"##ynam":1547,"ev":1548,"ndim":1549,"##verage":1550,"##ical":1551,"##element":1552,"count":1553,"cor":1554,"super":1555,"ro":1556,"vma":1557,"##ynamic":1558,"div":1559,"##^^^^":1560,"##net":1561,"*>":1562,"##vec":1563,"##_var":1564,"##256":1565,"##_max":1566,"##_norm":1567,"##_types_and":1568,"kind":1569,"##method":1570,"\"]":1571,"##_dispatcher":1572,"##tool":1573,"##_cl":1574,"trac":1575,"##ink":1576,"##data":1577,"hu":1578,"##_inputs":1579,"beta":1580,"##_batch":1581,"matrix":1582,"##etensor":1583,"##ace_":1584,"hash":1585,"t3":1586,"##air":1587,"oper":1588,"##wise":1589,"##_rank":1590,")))":1591,"push":1592,"job":1593,"##order":1594,"use_c10":1595,"modules":1596,"make":1597,"functions":1598,"r_":1599,"##oin":1600,"mp":1601,"iss":1602,"dev":1603,"##_nonzero":1604,"eps":1605,"sing":1606,"stream":1607,"actual":1608,"##ride":1609,"use_c10_dispatcher":1610,"gradient":1611,"##wn":1612,"##options":1613,"depends":1614,"##_ref":1615,"##ustom":1616,"loss":1617,"##af":1618,"##from":1619,"ign":1620,"inplace":1621,"gc":1622,"##cm":1623,"##_channel":1624,"worker":1625,"scalartype":1626,"rel":1627,"ops":1628,"##attern":1629,"##ision":1630,"is_nonzero":1631,"user":1632,"///":1633,"sign":1634,"caffe_":1635,"writ":1636,")]":1637,"##regex":1638,"where":1639,"##ug":1640,"##ather":1641,"differ":1642,"lu":1643,"cast":1644,"11":1645,"##fore":1646,"nodes":1647,"world":1648,"qconfig":1649,"orig":1650,"##ecut":1651,"emb":1652,"del":1653,"*,":1654,"##_like":1655,"##loss":1656,".,":1657,"##_ro":1658,"schema":1659,"##context":1660,"##etr":1661,"prod":1662,"##xx":1663,"inter":1664,"nullptr":1665,"##_kernel":1666,"##_float":1667,"alias":1668,"()->":1669,"supported":1670,"contiguous":1671,"##ected":1672,"buffer":1673,"warning":1674,"ctx":1675,"spars":1676,"common":1677,"##yt":1678,"##ine_":1679,"und":1680,"##enti":1681,"serial":1682,"channel":1683,"buf":1684,"##mark":1685,"assertraisesregex":1686,"##loo":1687,"##ided":1688,"fail":1689,"##_path":1690,"ver":1691,"##stype":1692,"][":1693,"##amples":1694,"##indows":1695,"##abled":1696,"##_dtype":1697,"allow":1698,"##are":1699,"elements":1700,"##uf":1701,"begin":1702,"##_script":1703,"params":1704,"##_names":1705,"##_fil":1706,"loop":1707,">();":1708,"layer":1709,"##{}":1710,"try":1711,"numel":1712,"info":1713,"##true":1714,"##hold":1715,"##vector":1716,"##dp":1717,"shared_ptr":1718,"##ame_":1719,"compil":1720,"reduction":1721,"##_blob":1722,"co":1723,"type_":1724,"construct":1725,"sequ":1726,"detail":1727,"uni":1728,"kernel_size":1729,"##ron":1730,"##_vari":1731,"##rid":1732,"##_block":1733,"##aries":1734,"join":1735,"row":1736,"read":1737,"thctensor_":1738,".\"":1739,"thnn":1740,"##_res":1741,"##_model":1742,"##queez":1743,"##000":1744,"##ait":1745,"##enchmark":1746,"rhs":1747,"##ys":1748,"split":1749,"##_from":1750,"static_cast":1751,"##_is":1752,"##esc":1753,"##weight":1754,"##_zero":1755,"abs":1756,"\"${":1757,"##_add":1758,"foo":1759,"quantization":1760,"##_device":1761,"##observer":1762,"##las":1763,"text":1764,"integers":1765,"hyp":1766,"final":1767,"##quantized":1768,"variants":1769,"sort":1770,"normal":1771,"prev":1772,"##_mode":1773,"##ping":1774,"convert":1775,"constexpr":1776,"quant":1777,"api":1778,"bre":1779,"supports":1780,"{\"":1781,"##ection":1782,"##igned":1783,"##_idx":1784,"bec":1785,"##ope":1786,"debug":1787,"generator":1788,"##_error":1789,"##rt":1790,"##iff":1791,"##params":1792,"ptr":1793,"##_pr":1794,"##_red":1795,"##vari":1796,"tot":1797,"##process":1798,"##_length":1799,"##norm":1800,"asserttrue":1801,"into":1802,"##_nod":1803,"##er_image":1804,"clone":1805,"grad_output":1806,"resize_":1807,"##_if":1808,"throw":1809,"##_scalar":1810,"##_ops":1811,"dest":1812,"##unk":1813,"int32":1814,"##utils":1815,"##ular":1816,"fill":1817,"byt":1818,"##abel":1819,"trace":1820,"##average":1821,"##eed":1822,"##arch":1823,"##99":1824,"low":1825,"##_channels":1826,"my":1827,"activ":1828,"]+":1829,"drop":1830,"##_log":1831,"##ulk":1832,"##emm":1833,"##_graph":1834,"##imp":1835,"batch_size":1836,"symbol":1837,"](":1838,"equal":1839,"internal":1840,"##idx":1841,"##_form":1842,"dis":1843,"pow":1844,"32":1845,"next":1846,"utils":1847,"##fter":1848,"##ailable":1849,"##_k":1850,"##_default":1851,"##othes":1852,"##emplate_":1853,"##_bin":1854,"##e_dir":1855,"##ents":1856,"keepdim":1857,"##anh":1858,"second":1859,"##mut":1860,"training":1861,"sample_inputs":1862,"don":1863,"##_min":1864,"total":1865,"*)":1866,"##log":1867,"axis":1868,"cmak":1869,"##_thread":1870,"##gine":1871,"intr":1872,"hypothes":1873,"##_sizes":1874,"binary_linux":1875,"conda":1876,"##_count":1877,")`":1878,"v2":1879,"}/":1880,"##e_s":1881,"##_run":1882,"##_do":1883,"expand":1884,"##_state":1885,"rep":1886,"source":1887,"sav":1888,"##wo":1889,"sig":1890,"##3_":1891,"embedding":1892,"##atten":1893,"()),":1894,"world_size":1895,"##path":1896,"##lice":1897,"override":1898,"running":1899,"named":1900,"linux":1901,"##acy":1902,"##file":1903,"`,":1904,"rnn":1905,"##_ext":1906,"mem":1907,"soft":1908,"}\"":1909,"dc":1910,"##ause":1911,"thcstate":1912,"docker_image":1913,"##stm":1914,"##_environment":1915,"##_memory":1916,"create_":1917,"30":1918,"##etch":1919,"##upport":1920,"##node":1921,"##edi":1922,"extra":1923,"parti":1924,"##_stat":1925,"proto":1926,"record":1927,"##ces":1928,"last":1929,"##ulkan":1930,"##_flags":1931,"##_work":1932,"##struct":1933,"##ightly":1934,"##_params":1935,"reference":1936,"root":1937,"sin":1938,"##flags":1939,"because":1940,"}}":1941,"##ved":1942,"global":1943,",)":1944,"_get":1945,"##_format":1946,"##eric":1947,"##_le":1948,"##_template_":1949,"fc":1950,"<=":1951,"setup":1952,"functional":1953,"##_get":1954,"##block":1955,"coll":1956,"##****":1957,"after":1958,"nv":1959,"conv2d":1960,"##cat":1961,"##85":1962,"##_mul":1963,"float16":1964,"pop":1965,"##annot":1966,"some":1967,"uint64_t":1968,"\"],":1969,"##ick":1970,"##umm":1971,"pool":1972,"##usive_":1973,"##_1":1974,"processgroup":1975,"\"$":1976,"found":1977,"config":1978,"ws":1979,"##verse":1980,"here":1981,"build_environment":1982,"##24":1983,"sys":1984,"##ense":1985,"attribut":1986,"##stant":1987,"##flow":1988,"##ox":1989,"##etric":1990,"exception":1991,"wrap":1992,"##_call":1993,"##_update":1994,"##call":1995,"msg":1996,"ir":1997,"##exp":1998,"prot":1999,"##_conv":2000,"weights":2001,"gtest_template_":2002,"##_fp32":2003,"##elp":2004,"##option":2005,"org":2006,"##_eq":2007,"future":2008,"observer":2009,"##_file":2010,"##so":2011,"##agma":2012,"##',":2013,"##ence_":2014,"groups":2015,"##_string":2016,"_jit":2017,"cond":2018,"##ivate":2019,"##cept":2020,"\";":2021,"its":2022,"bucket":2023,"strides":2024,"##_no":2025,"##_av":2026,"##long":2027,"doc":2028,"]:":2029,"##hape":2030,"##num":2031,"##ilt":2032,"##_type_":2033,"##ely":2034,"##_sp":2035,"##oment":2036,"##rect":2037,"##_sub":2038,"##20":2039,"##handle":2040,"##_ac":2041,"temp":2042,"##ran":2043,"torch_api":2044,"15":2045,"rref":2046,"private":2047,"##_process":2048,"##_doc":2049,"##_module_":2050,"##moid":2051,"##wis":2052,"v1":2053,"##py":2054,"cu":2055,"##raries":2056,"transpose":2057,"enum":2058,"##_se":2059,"ann":2060,"##writ":2061,"##utograd":2062,"shap":2063,"rt":2064,"##_tests":2065,"stmt":2066,"##enfor":2067,"opinfo":2068,"det":2069,"##build":2070,"tag":2071,"\"),":2072,"##offset":2073,"th_api":2074,"cur":2075,"##batch":2076,"resize":2077,"loc":2078,"more":2079,"##inter":2080,"before":2081,"library":2082,"##ops":2083,"single":2084,"##oder":2085,"mast":2086,"##ecl":2087,"##ese":2088,"14":2089,">()":2090,"gloo":2091,"##tor":2092,"##...":2093,"##aff":2094,"##lose":2095,"##_config":2096,"##agent":2097,"]))":2098,"##97":2099,"__n":2100,"su":2101,"##ebug":2102,"##_helper":2103,"##_tra":2104,"layout":2105,"##_internal":2106,"##tive":2107,"##etad":2108,"these":2109,"##_al":2110,"wait":2111,"caffe_enfor":2112,"inc":2113,"there":2114,"##valid":2115,"##ages":2116,"instead":2117,"neg":2118,"++)":2119,"##eel":2120,"value_":2121,"##ranch":2122,"##init":2123,"##ress":2124,"##ables":2125,"field":2126,"cal":2127,"cmake_":2128,"##etadata":2129,"##dir":2130,"##usive_ptr":2131,"[:":2132,"weak":2133,"##gradient":2134,"##andler":2135,"##io":2136,"##_key":2137,"output_size":2138,"raw":2139,"old":2140,"##_sel":2141,"astype":2142,"devices":2143,"##do":2144,"##gemm":2145,"##_fut":2146,"##queeze":2147,"##ier":2148,"store":2149,"##ross":2150,"##atial":2151,"atol":2152,"13":2153,"##_2":2154,"##allocation":2155,"lengths":2156,"##')":2157,"sw":2158,"##count":2159,"##ins":2160,"also":2161,"##_exp":2162,"##_includ":2163,"got":2164,"dynamic":2165,"_mm":2166,"optimizer":2167,"##real":2168,"##e_h":2169,"tmp":2170,"impl":2171,"test_c":2172,"##storage":2173,"c10d":2174,"size_average":2175,"t4":2176,"__":2177,"##ines":2178,"##thread":2179,"channels":2180,"pred":2181,"##que_":2182,"##eter":2183,"res2":2184,"##_forward":2185,"##_reduc":2186,"##_torch":2187,"apply":2188,"base":2189,"floating":2190,"##reshold":2191,"contin":2192,"##_real":2193,"##_col":2194,"required":2195,"uint8":2196,"top":2197,"##e_l":2198,"##\".":2199,"##amma":2200,"##_dtypes":2201,"test_":2202,"##_dist":2203,"##ia":2204,"##type_":2205,"##},":2206,"##_rec":2207,"##argin":2208,"##80":2209,"##ting":2210,"##ry":2211,"data_ptr":2212,"two":2213,"##ollow":2214,"##min":2215,"break":2216,"##generator":2217,"commit":2218,"##ummy":2219,"py3":2220,"opt":2221,"()))":2222,"all_types_and":2223,"##_offset":2224,"fb":2225,"master":2226,"##_device_":2227,"hard":2228,"##apack":2229,"##ordered":2230,"##eil":2231,"##gpu":2232,"dtypesif":2233,"##upported":2234,"##als":2235,"##backend":2236,"##ases":2237,"##user":2238,"follow":2239,"##ify":2240,"original":2241,"##guard":2242,"]);":2243,"prefix":2244,"while":2245,"##``":2246,"##anal":2247,"hip":2248,"##ge":2249,"##*/":2250,"##bias":2251,"intlist":2252,"##estcase":2253,"event":2254,"test_s":2255,"##item":2256,"input_size":2257,"##wh":2258,"(&":2259,"##90":2260,"than":2261,"lhs":2262,"##buffer":2263,"dimensions":2264,"gradoutput":2265,"##eatures":2266,"##match":2267,"different":2268,"##ging":2269,"##inalg":2270,"rtol":2271,"##udnn":2272,"()[":2273,"##rag":2274,"repr":2275,"prov":2276,"width":2277,"operators":2278,"##_outputs":2279,"image":2280,"##we":2281,"cach":2282,"dropout":2283,"moment":2284,"##ml":2285,"##calar":2286,"##ysis":2287,"parallel":2288,"transform":2289,"##ency":2290,"prepar":2291,"_d":2292,"##ipe":2293,"##ire":2294,"##_loss":2295,"##lop":2296,"prec":2297,"##ible":2298,"(-":2299,"att":2300,"##////////":2301,"mkl":2302,"cat":2303,"fetch":2304,"ll":2305,"profil":2306,"##_mask":2307,"##aten":2308,"##ugh":2309,"sample":2310,"##err":2311,"many":2312,"##code":2313,"##_values":2314,"high":2315,"ups":2316,"main":2317,"custom":2318,"##_class":2319,"##emb":2320,"obser":2321,"##33":2322,"##obuf":2323,"##ody":2324,"##acon":2325,"##kld":2326,"prob":2327,"##proto":2328,"declar":2329,"##qrt":2330,"##eters":2331,"##ytes":2332,"constructor":2333,"##usion":2334,"##linear":2335,"meth":2336,"##_docstr":2337,"##_copy":2338,"##aset":2339,"unordered":2340,"##operators":2341,"ceil":2342,"pair":2343,"##bind":2344,"sparse":2345,"##gor":2346,"cc":2347,"##uard":2348,"##e_n":2349,"res1":2350,"pars":2351,"##iterator":2352,"was":2353,"##40":2354,"([[":2355,"##ties":2356,"##ired":2357,"##run":2358,"##_zero_point":2359,"##event":2360,"##cho":2361,"##arning":2362,"##rame":2363,"##kldnn":2364,"##ifn":2365,"##ok":2366,"bet":2367,"##_impl":2368,"__m":2369,"##enial":2370,"##e_data":2371,"##ager":2372,"scalar_type":2373,"##_tensors":2374,"copy_":2375,"##affe2":2376,"##point":2377,"ddp":2378,"exist":2379,"chunk":2380,"##_futur":2381,"echo":2382,"asser":2383,"tup":2384,"##col":2385,"##wd":2386,"inv":2387,"##](":2388,"valueerror":2389,"##_true":2390,"##_not":2391,"fix":2392,"##_relu":2393,"continue":2394,"sampl":2395,"unsigned":2396,"pattern":2397,"vs":2398,"##ner":2399,"branch":2400,"##_per":2401,"##_mat":2402,"##_python":2403,"ss":2404,"\".":2405,"##_0":2406,"ignore":2407,"##untu":2408,"int64":2409,"handle":2410,">(),":2411,"storage_":2412,"lr":2413,"##ws":2414,"##ame__":2415,"execut":2416,"##_over":2417,"docker":2418,"'):":2419,"zip":2420,"##int8":2421,"like":2422,"##ules":2423,"proper":2424,"##86":2425,"##toolset":2426,"activation":2427,"##_pre":2428,"lstm":2429,"tensortype":2430,"ifdef":2431,"##testcase":2432,"##ache":2433,"ndimension":2434,"##stat":2435,"``,":2436,"##llu":2437,"'.":2438,"they":2439,"##_quant":2440,"##inf":2441,"num_":2442,"##ectory":2443,"valid":2444,"##17":2445,"##_sour":2446,"__name__":2447,"##kind":2448,"##ility":2449,"##tra":2450,"flags":2451,"##lib":2452,"files":2453,"intrusive_ptr":2454,"hook":2455,"__futur":2456,"__future__":2457,"##anspos":2458,"module_":2459,"##device":2460,"\"):":2461,"25":2462,"dummy":2463,"##19":2464,"##model":2465,"##ian":2466,"uses":2467,"floattensor":2468,"##allocator":2469,"##argument":2470,"small":2471,"doesn":2472,">,":2473,"desc":2474,"##lean":2475,"##gram":2476,"int8":2477,"eig":2478,"callable":2479,"gcc":2480,"inp":2481,"torch_check":2482,"##ified":2483,"##_wrapper":2484,"environment":2485,"##plicit":2486,"randint":2487,"slice":2488,"##wheel":2489,"##elements":2490,"vis":2491,"##oft":2492,"##any":2493,"correct":2494,"##toolset7":2495,"##relu":2496,"generic":2497,"64":2498,"##_lay":2499,"unique_":2500,"packed":2501,"open":2502,"##open":2503,"remove":2504,"reshape":2505,"remot":2506,"both":2507,"roc":2508,"##ete":2509,"##analysis":2510,"##und":2511,"-----------------":2512,"command":2513,"##linux":2514,"##atap":2515,"child":2516,"##_export":2517,"##_pack":2518,"cell":2519,"ass":2520,"##_bas":2521,"send":2522,"##iform":2523,"##_hook":2524,"called":2525,"except":2526,"##umn":2527,"##_library":2528,"##_only":2529,"engine":2530,"since":2531,"bit":2532,"push_back":2533,"##lem":2534,"exit":2535,"without":2536,"##ithm":2537,"catch":2538,"cannot":2539,"git":2540,"label":2541,"now":2542,"##_operator":2543,"benchmark":2544,"typed":2545,"##>>":2546,"cmake":2547,"diag":2548,"##time_":2549,"mayb":2550,"{{":2551,"reg":2552,"specified":2553,"##_threads":2554,"##ater":2555,"getattr":2556,"sequence":2557,"leg":2558,"##etim":2559,"spatial":2560,"##ual":2561,"##fn":2562,"##vec2":2563,"replace":2564,"cmake_c":2565,"*>(":2566,"##nccl":2567,"head":2568,"reset":2569,"##_windows":2570,"add_docstr":2571,"##ays":2572,"##och":2573,"##ffers":2574,"ub":2575,"]],":2576,"feed":2577,"##'.":2578,"##_libraries":2579,"##erence_":2580,"##_pool2d":2581,"symbolic":2582,"##64vec2":2583,"##width":2584,"seed":2585,"once":2586,"update":2587,"##_bias":2588,"##rows":2589,"##quantize":2590,"explicit":2591,"grid":2592,"write":2593,"##comm":2594,"##_target":2595,"verb":2596,"status":2597,"module_name":2598,"##ger":2599,"##ped":2600,"##ermin":2601,"##_backend":2602,"operation":2603,".\");":2604,"##ters":2605,"##rec":2606,"##obser":2607,"unpack":2608,"##arn":2609,"thc_api":2610,"place":2611,"undef":2612,"##_j":2613,"##ract":2614,"##sc":2615,"typing":2616,"how":2617,"task":2618,":`~":2619,"##_src":2620,"##ival":2621,"##_weights":2622,"##e_factor":2623,"##convolution":2624,"line":2625,"}\")":2626,"##e_m":2627,"thptensor":2628,"timeout":2629,"annot":2630,"sizeof":2631,"##sure":2632,"smo":2633,"adap":2634,"scriptmodule":2635,"gather":2636,"##ounter":2637,"```":2638,"partition":2639,"cpucontext":2640,"##_dep":2641,"ignor":2642,"ld":2643,"pick":2644,"##mall":2645,"##andard":2646,"_f":2647,"_p":2648,"remov":2649,"fi":2650,"compute":2651,"them":2652,"##andle_":2653,":`(":2654,"\"(":2655,"compiler":2656,"device_type":2657,"##ating":2658,"kh":2659,"##erate":2660,"resour":2661,"##sing":2662,"uint32":2663,"hidden_size":2664,"##tools":2665,"use_cuda":2666,"##_fp64vec2":2667,"]];":2668,"legacy":2669,"##ear":2670,"##nown":2671,"##_post":2672,"##_new":2673,"##ymbol":2674,"##_padding":2675,"[&":2676,"##92":2677,"clang":2678,"##_spec":2679,"registeroperators":2680,"tanh":2681,"##>(":2682,"##15":2683,"height":2684,"##ng":2685,"##_constant":2686,"##^^^^^^^^":2687,"issues":2688,"thnn_":2689,"##_db":2690,"filename":2691,"cir":2692,"##ration":2693,"##_schema":2694,"protobuf":2695,"``.":2696,"##cul":2697,"##prec":2698,"##34":2699,"flatten":2700,"##ash":2701,"##_debug":2702,"scope":2703,"##vm":2704,"libtorch":2705,"##reduce":2706,"##================":2707,"##_comm":2708,"filter":2709,"nb":2710,"##env":2711,"##pol":2712,"##pag":2713,"##helper":2714,"replic":2715,"##place_":2716,"##able_data":2717,"sorted":2718,"##14":2719,"##_sum":2720,"entr":2721,"##reduc":2722,"arrayref":2723,"##_global":2724,"ple":2725,"vulkan":2726,"##rocm":2727,"##e_dict":2728,"rocm":2729,"##_utils":2730,"threshold":2731,"pres":2732,"ubuntu":2733,"17":2734,"50":2735,"go":2736,"_m":2737,"##eturn":2738,"##ake":2739,"##_equal":2740,"cons":2741,"##stem":2742,"select":2743,"##_dev":2744,"following":2745,"##autograd":2746,"##pper":2747,"upper":2748,"##ative_":2749,"'],":2750,"err":2751,"items":2752,"##values":2753,"##_result":2754,"fp":2755,"##son":2756,"parent":2757,"quantize_":2758,"min_val":2759,")}":2760,"scale_":2761,"bound":2762,"##regist":2763,")).":2764,"linalg":2765,"##dict":2766,"##gorithm":2767,"cls":2768,"hx":2769,"##ubl":2770,"##elist":2771,"##_meta":2772,"skipcuda":2773,"larg":2774,"me":2775,"##ple":2776,"max_val":2777,"##_cu":2778,"skipinfo":2779,"##backward":2780,"##_buffer":2781,"##mit":2782,"##qa":2783,"uint32_t":2784,"free":2785,"off":2786,"##double":2787,"empty_like":2788,"##acontext":2789,"align":2790,"your":2791,"##_prefix":2792,"##vec4":2793,"##schema":2794,"please":2795,"##vel":2796,"##_time":2797,"cudacontext":2798,"##ature":2799,"built":2800,"methods":2801,"##embedding":2802,"noqa":2803,"ts":2804,"##_multi":2805,"_mm256":2806,"=*/":2807,"##wrap":2808,"##ession":2809,"workflow":2810,"##checks":2811,"##~~~~~~~~~~~~~~~~":2812,"##ween":2813,"##_half":2814,"##77":2815,"gradinput":2816,"##ready":2817,"verbose":2818,"##_or":2819,"##fill":2820,"##_shap":2821,"aliasanalysis":2822,"mis":2823,"##_numpy":2824,"##ential":2825,"dispatchkey":2826,"##plac":2827,"sigmoid":2828,"##tc":2829,"aut":2830,"##anges":2831,"windows":2832,"##roid":2833,"##istic":2834,"##make_":2835,"eigen":2836,"rc":2837,"##_pass":2838,"traced":2839,"##_requ":2840,"netdef":2841,"cap":2842,"##_pl":2843,"under":2844,"softmax":2845,"access":2846,"##itional":2847,"keys":2848,"##_3d":2849,"##close":2850,"iterator":2851,"package":2852,",)),":2853,"##_optim":2854,"##atform":2855,"sym":2856,"##box":2857,"##ure_":2858,"pin":2859,"##outputs":2860,"dt":2861,"exec":2862,"arange":2863,"##_strided":2864,"##ides":2865,"##])":2866,"ag":2867,"##copy":2868,"##func":2869,"report":2870,"fbgemm":2871,"##anc":2872,"##_gen":2873,"##_view":2874,"##_root":2875,"arch":2876,"empl":2877,"##result":2878,"typedef":2879,"##_cor":2880,"between":2881,")\"":2882,"results":2883,"warnings":2884,"ms":2885,"##_sc":2886,"##_us":2887,"compl":2888,"##oftmax":2889,"<>":2890,"##ections":2891,"##_fp32vec4":2892,"##etime":2893,")[":2894,"##ansform":2895,"##_real_is":2896,"##over":2897,"##atter":2898,"skip_if":2899,"hypothesis":2900,"04":2901,"body":2902,"##50":2903,"##ether":2904,"createoperator":2905,"parser":2906,"own":2907,"##ease":2908,"##gradinput":2909,"just":2910,"thlong":2911,"cd":2912,"meta":2913,"##bit":2914,"##sequ":2915,"elem":2916,"x1":2917,"failed":2918,"##loor":2919,"##################################":2920,"##_rocm":2921,"##memory":2922,"##_sign":2923,"##criptor":2924,"##_contiguous":2925,"cos":2926,"##_size_":2927,"##umul":2928,"filters":2929,"##ior":2930,"##tuple":2931,"round":2932,"##go":2933,"##ination":2934,"tensorexpr":2935,"##tive_":2936,"'))":2937,"vec256":2938,"##ture":2939,"mac":2940,"##allback":2941,"##variable":2942,"repres":2943,"##uff":2944,"##optim":2945,"circl":2946,"mm":2947,"node_":2948,"##ways":2949,"##pad":2950,".\")":2951,"{}\".":2952,"pip":2953,"bar":2954,"exact":2955,"multiple":2956,"128":2957,"##ite":2958,"clamp":2959,"##imit":2960,"avg":2961,"right":2962,"##export":2963,"##spec":2964,"##_inst":2965,"tags":2966,"boo":2967,"want":2968,"special":2969,"##_mean":2970,")):":2971,"grad_input":2972,"xenial":2973,"##istestcase":2974,"##parse_":2975,"hypothesistestcase":2976,"frac":2977,"unsqueeze":2978,"saved":2979,"cxx":2980,"p_node":2981,"implementation":2982,"##arallel":2983,"##37":2984,"simpl":2985,"enc":2986,"##contiguous":2987,"##_complex_and":2988,"\\\\":2989,"la":2990,"vmap":2991,"perform":2992,"##each":2993,"##zon":2994,"ama":2995,"amazon":2996,"##87":2997,"()));":2998,"##ta":2999,"unary":3000,"##_stride":3001,"##114":3002,"##cre":3003,"down":3004,"tensoroptions":3005,"\"\"\")":3006,"workflows":3007,"##obj":3008,"deprec":3009,"##attribut":3010,"0000":3011,"##_rpc":3012,"##mode":3013,"tol":3014,"##module_":3015,"##db":3016,"mutable_data":3017,"##aws":3018,"amazonaws":3019,"##tig":3020,"##_argument":3021,"##face":3022,"branches":3023,"assum":3024,"available":3025,"dw":3026,"sqrt":3027,"##bool":3028,"##ither":3029,"magma":3030,"llvm":3031,"eval":3032,"permut":3033,"unique_ptr":3034,"ecr":3035,"mutex":3036,",))":3037,"save":3038,"matmul":3039,"gradients":3040,"tool":3041,"##project":3042,"vm":3043,"##_caffe2":3044,"##argcheck":3045,"##_compil":3046,"##tain":3047,"##ome":3048,"warn":3049,"##_last":3050,"##----------":3051,"seq":3052,"momentum":3053,"db":3054,"returned":3055,"scale_factor":3056,"]])":3057,"nonet":3058,"##resp":3059,"##ments":3060,"##endez":3061,"##endezv":3062,"##95":3063,"##e_dim":3064,"instance":3065,"is_s":3066,"##eto":3067,"thargcheck":3068,"##cheme":3069,"##fft":3070,"no_args":3071,"##_load":3072,"containing":3073,"##unch":3074,"##_record":3075,"lock":3076,"##urs":3077,"building":3078,"##_stream":3079,"##nnpack":3080,"summ":3081,"_un":3082,"##roy":3083,"##''":3084,"##format":3085,"stop":3086,"otherwise":3087,"##_lengths":3088,"torchscript":3089,"##tensors":3090,"##ique":3091,"nan":3092,"##_onnx":3093,"bytes":3094,"##_host":3095,"[],":3096,"##_devtoolset7":3097,"medi":3098,"##_many":3099,"post":3100,"##rust":3101,"##chw":3102,"memory_format":3103,"handl":3104,"##84":3105,"##acob":3106,"distribution":3107,"dtypesifcuda":3108,"##_end":3109,"##_help":3110,"transpos":3111,"fre":3112,"op_db":3113,"infer":3114,"tp":3115,"##sub":3116,"avoid":3117,"##eriv":3118,"repeat":3119,"tensor2":3120,"##_3_":3121,"foreach":3122,"uniform":3123,"##_width":3124,"add_":3125,"##queue":3126,"##scalar":3127,"##ilinear":3128,"##_test_":3129,"datetime":3130,"##30":3131,"dk":3132,"##callback":3133,"calcul":3134,"##853":3135,"##_ps":3136,"desired":3137,"##hw":3138,"tensor1":3139,"##ful":3140,"deprecated":3141,"##assign":3142,"##_by":3143,"sz":3144,"##omput":3145,"##very":3146,"##imple":3147,"##ilon":3148,"ceil_mode":3149,"##endezvous":3150,"##store":3151,"examples":3152,"subproject":3153,"##default":3154,"prag":3155,"decor":3156,"jobs":3157,"async":3158,"##current":3159,"east":3160,"invalid":3161,"ci":3162,"##82":3163,"##_len":3164,"either":3165,"##diff":3166,"##oper":3167,"##lear":3168,"mkldnn":3169,"currently":3170,"all_types_and_complex_and":3171,"##36":3172,"what":3173,"##plan":3174,"\"\"":3175,"partial":3176,"checkscript":3177,"axes":3178,"##ts":3179,"##ront":3180,"link":3181,"##rices":3182,"0f":3183,"m1":3184,")->":3185,"whether":3186,"subgraph":3187,"external":3188,"column":3189,"##obile":3190,"##_nightly":3191,"##2_":3192,"##except":3193,"attribute":3194,"unordered_map":3195,"compar":3196,"##oog":3197,"generated":3198,"would":3199,"##********":3200,"mak":3201,"##_nodes":3202,"##rank":3203,"##_ch":3204,"##_binary":3205,"pragma":3206,"blocks":3207,"##etest":3208,"##as_":3209,"##indices":3210,"extend":3211,"##lay":3212,"##gd":3213,"&)":3214,"##tional":3215,"##ake_":3216,"fetchblob":3217,"0x":3218,"##internal":3219,"##_state_":3220,"pe":3221,"##_matrix":3222,"##sel":3223,"##andom":3224,"expect_eq":3225,"allocation":3226,"lower":3227,"cache":3228,"observed":3229,"##_jit":3230,"variables":3231,"needs":3232,"thrust":3233,"always":3234,"##bers":3235,"##rough":3236,"##ativ":3237,"##_co":3238,"swap":3239,"##_updateoutput":3240,"vec_x":3241,"passes":3242,"##_hh":3243,"union":3244,"isn":3245,"scatter":3246,"##oad":3247,"##eq":3248,"such":3249,"assign":3250,"##ataparallel":3251,"_check":3252,"floor":3253,"##once":3254,"thd":3255,"##_conda":3256,"precision":3257,"[-":3258,"##height":3259,"##e_r":3260,"_n":3261,"##xt":3262,"##wrapper":3263,"##5385":3264,"##olve":3265,"'',":3266,"30853":3267,"##5385114":3268,"308535385114":3269,"smoke_":3270,"##_manywheel":3271,"dkr":3272,"40":3273,"##ically":3274,"concat":3275,"dataset":3276,"<<:":3277,"fusion":3278,"##atype":3279,"##state_":3280,"offsets":3281,"##b2":3282,"##raw":3283,"shard":3284,"'])":3285,"##\\.":3286,"system":3287,"produc":3288,"[:,":3289,"feedblob":3290,"##avg":3291,"fx":3292,"##ured":3293,"mpi":3294,"int32_t":3295,"caffe_enforce_":3296,"##_upload":3297,"##storage_":3298,"caffe_enforce":3299,"runtime_":3300,"vol":3301,"]):":3302,"tre":3303,"##_arch":3304,"##functions":3305,"_th":3306,"##rier":3307,"##_files":3308,"##import":3309,"##_variable":3310,"ymm":3311,"overload":3312,"corresp":3313,"shapes":3314,"cdata":3315,"cases":3316,"diff":3317,"x2":3318,"##ception":3319,"condition":3320,"correspond":3321,"##96":3322,"##_false":3323,"##ings":3324,"'''":3325,"##35":3326,"##enorm":3327,"##olut":3328,"appl":3329,"##onal":3330,"##_sync":3331,"##_of":3332,"indextype":3333,"##older":3334,"dy":3335,"require":3336,"epsilon":3337,"##only":3338,"##_sing":3339,"pointer":3340,"##ids":3341,"##imum":3342,"lic":3343,"saf":3344,"date":3345,"slow":3346,"parse":3347,"backends":3348,"##_quantized":3349,"##fix":3350,"totensor":3351,"##comp":3352,"luat":3353,"##eddataparallel":3354,"allocator":3355,"##_ih":3356,"##_msg":3357,"##_kw":3358,"qs":3359,"##rol":3360,"bn":3361,"sure":3362,"##_aff":3363,"qconfig_dict":3364,"flag":3365,"##ention":3366,"deps":3367,"sample_inputs_func":3368,"##_cudnn":3369,"pytorch_linux":3370,"tupl":3371,"mov":3372,"##_value_":3373,"signal":3374,"##olv":3375,"##_variant":3376,"##_options":3377,"upsample_":3378,"##inj":3379,"##meta":3380,"24":3381,"##uccess":3382,"fast":3383,"tensoriterator":3384,"already":3385,"##../":3386,"##_3":3387,"noexcept":3388,"ptrdiff":3389,"##actory":3390,"exprhandle":3391,"##_blocking":3392,"emit":3393,"##_blobs":3394,"##struc":3395,"ptrdiff_t":3396,"every":3397,"release":3398,"##_include_dir":3399,"##other":3400,"+(":3401,"##gacy":3402,"##bin":3403,"##_available":3404,"could":3405,"##_inter":3406,"state_dict":3407,"steps":3408,"##_internal_assert":3409,"longtensor":3410,"##shape":3411,"help":3412,"handle_":3413,"torch_internal_assert":3414,"##interpr":3415,"##_empty":3416,"_small":3417,"provided":3418,"upd":3419,"setting":3420,"matches":3421,"decorator":3422,"is_windows":3423,"##_pad":3424,"##inja":3425,"replac":3426,"##_context":3427,"docs":3428,"##idia":3429,"(${":3430,"/**":3431,"ensure":3432,"##18":3433,")));":3434,"runtime_error":3435,"detach":3436,"##_ep":3437,"##det":3438,"##aml":3439,"direct":3440,"##let":3441,"flat":3442,"lef":3443,"extension":3444,"resize_as_":3445,"operations":3446,"##_wh":3447,"##lap":3448,"##pool2d":3449,"threads":3450,"mark":3451,"dur":3452,"fft":3453,"passed":3454,">`":3455,"img":3456,"exclud":3457,"##_repr":3458,"dh":3459,"##ability":3460,"##usive":3461,"kfloat":3462,"unused":3463,"##evice":3464,"enumerate":3465,"feat":3466,"io":3467,"_jit_pass":3468,"##ners":3469,"##econ":3470,"##_post_process":3471,"fin":3472,"##ynch":3473,"attributes":3474,"visit":3475,"\"\\":3476,"##arrow":3477,"defin":3478,"change":3479,"##_start":3480,"##modules":3481,"##x2":3482,"grads":3483,"plan":3484,"parse_":3485,"th_real_is":3486,"##ish":3487,"addmm":3488,"##ynchron":3489,"mat2":3490,"##parameters":3491,"device_option":3492,"##acobian":3493,"implemented":3494,"##ectiv":3495,"1000":3496,"tensorp":3497,"##andal":3498,"##view":3499,"convolution":3500,"##ences":3501,"preser":3502,"hist":3503,"self_":3504,"##mplement":3505,"##_link":3506,"expon":3507,"##structor":3508,"ur":3509,"times":3510,"bel":3511,"ns":3512,"##_message":3513,"##_inverse":3514,"##_bench":3515,"nvidia":3516,"staticmethod":3517,"fill_":3518,"##_qconfig":3519,"##word":3520,"##er_channel":3521,"##_apply":3522,"nightly":3523,"##olapack":3524,"masked":3525,"##_layers":3526,"dequantize":3527,"##_fill":3528,"profiler":3529,"##_dec":3530,"algorithm":3531,"##128":3532,"##_runtime":3533,")],":3534,"mpreal":3535,"##_dock":3536,":]":3537,"gre":3538,"##itions":3539,"##\"\"\"":3540,"tracer":3541,"##foreach":3542,"##_first":3543,"short":3544,"group_id":3545,"##_regist":3546,"##packed":3547,"gcs":3548,"##erministic":3549,"sym_help":3550,"=$":3551,"py2":3552,"resp":3553,"get_all":3554,"##_acc":3555,"tempor":3556,"##var":3557,"##head":3558,"been":3559,"details":3560,"##ral":3561,"product":3562,"##100":3563,"te":3564,"##_array":3565,"beh":3566,"##expected":3567,"##ifnom":3568,"##udo":3569,"##typ":3570,"##e_type":3571,"window":3572,"##uple_":3573,"##shared":3574,"qscheme":3575,"##initial":3576,"batchnorm":3577,"7m":3578,"simple":3579,"caffe2_api":3580,"matrices":3581,"##handler":3582,"##_bucket":3583,"above":3584,"##pooling":3585,">;":3586,"##transpose":3587,"empty_strided":3588,"##_enabled":3589,"mer":3590,"##no":3591,"##})":3592,"look":3593,"../":3594,"##ickl":3595,"##iles":3596,"cub":3597,"##hwc":3598,"contains":3599,"##ufunc":3600,"##_updategradinput":3601,"##eclass":3602,"uint8_t":3603,"xmm":3604,"##benchmark":3605,"##estr":3606,"sle":3607,"##tis":3608,"added":3609,"destination":3610,"##trace":3611,"tri":3612,"##_features":3613,"classes":3614,"distributeddataparallel":3615,"##devicetype":3616,"##ock":3617,"generate":3618,"##_fp16":3619,"stride_":3620,"align_cor":3621,"represent":3622,"needed":3623,"##ct":3624,"lev":3625,"##_return":3626,"##_stor":3627,"##dims":3628,"+)":3629,"##blas":3630,"##_pattern":3631,"##tests":3632,"27":3633,"##one_":3634,"##26":3635,"rpcagent":3636,"w_":3637,"##stensor":3638,"based":3639,"pyc":3640,"project":3641,"\"))":3642,"cudnn7":3643,"_internal":3644,"batched":3645,"##not":3646,"##13":3647,"testtorch":3648,"serialized":3649,"emplace_":3650,"##ance_":3651,"##_ddp":3652,"##_full":3653,"##_step":3654,"##_proto":3655,"##_trace":3656,"##xy":3657,"##known":3658,"goog":3659,"##omic":3660,"##ched":3661,"unsupported":3662,"##_decl":3663,"op_bench":3664,"guard":3665,"cross":3666,"##intr":3667,"##axis":3668,"generate_":3669,"##_worker":3670,"_small_3d":3671,"_r":3672,"##itive":3673,"assertis":3674,"nul":3675,"##c_":3676,"##hr":3677,"cuda_version":3678,"##_di":3679,"##_base":3680,"make_tensor":3681,"##entiable":3682,"##\\.[":3683,"enable_":3684,"##25":3685,"##_nn":3686,"propag":3687,"##per_tensor":3688,"datap":3689,"checks":3690,"frame":3691,"json":3692,"through":3693,"qual":3694,"deriv":3695,"sim":3696,"##ift":3697,"##forward":3698,"adaptive_":3699,"met":3700,"test_name":3701,"html":3702,"blobs":3703,"]+)":3704,"##std":3705,"##ivot":3706,"callback":3707,"recv":3708,"##md":3709,"##27":3710,"##equant":3711,"caffe2_p":3712,"control":3713,"pin_memory":3714,"platform":3715,"),),":3716,"##fut":3717,"##_strid":3718,"##lopt":3719,"nullopt":3720,"execution":3721,"mi":3722,"separ":3723,"squ":3724,"##_obser":3725,"quantize":3726,"##4_":3727,"##0000":3728,"##e_cuda":3729,"align_corners":3730,"emplace_back":3731,"t5":3732,"##enk":3733,"##empty":3734,"[&](":3735,"sudo":3736,"##ird":3737,"clip":3738,"pol":3739,"__devic":3740,"unique":3741,"__device__":3742,"##alesc":3743,"##processing":3744,"entry":3745,"ow":3746,"##enter":3747,"thcuda":3748,"absolut":3749,"2d":3750,"helper":3751,"starts":3752,"[(":3753,"left":3754,"##igmoid":3755,"\").":3756,"hasattr":3757,"binary_linux_manywheel":3758,"##bn":3759,"lua":3760,"##escriptor":3761,"##formation":3762,"sync":3763,"mapping":3764,"broadcasting":3765,"##abs":3766,"##wise_":3767,":\\":3768,"##down":3769,"run_test":3770,"request":3771,"##_double":3772,"##vd":3773,"register_":3774,"th_tensor":3775,"skipcpu":3776,"specific":3777,"##holder":3778,"below":3779,"lin":3780,"enabled":3781,"]).":3782,"##perties":3783,"##_floating":3784,"thptensor_":3785,"##83":3786,"##aky":3787,"##eref":3788,"##eci":3789,"##_broadcast":3790,"##_static":3791,"smoke_linux":3792,"##*-":3793,"##create":3794,"sampled":3795,"##cell":3796,"compile":3797,"narrow":3798,"##gamma":3799,"##_tuple":3800,"##_pool3d":3801,"skipcudaifnom":3802,"skipcudaifnomagma":3803,"##requ":3804,"their":3805,"declaration":3806,"corresponding":3807,"jenk":3808,"rendezvous":3809,"##rel":3810,"##ateg":3811,"tree":3812,"tracing":3813,"##_node_":3814,"sampleinput":3815,"##_nccl":3816,"threadidx":3817,"ubuntu16":3818,"created":3819,"identi":3820,"predict":3821,"()(":3822,"rema":3823,"being":3824,"m2":3825,"197":3826,"{'":3827,"}),":3828,"##la":3829,"form":3830,"{},":3831,"yet":3832,"noti":3833,"##_init_net":3834,"behav":3835,"equ":3836,"margin":3837,"way":3838,"doubl":3839,"que":3840,"##ious":3841,"host":3842,"##atio":3843,"*(":3844,"256":3845,"might":3846,"##putil":3847,"##angular":3848,"##_async":3849,"remote":3850,"##interpret":3851,"##////////////////":3852,"resource_":3853,"num_layers":3854,"##_vulkan":3855,"]+)*-":3856,"##start":3857,">>(":3858,"optimize":3859,"##ogram":3860,"##rem":3861,"max_value":3862,"network":3863,"macro":3864,"=-":3865,"##_iter":3866,"##factor":3867,"win":3868,"tak":3869,"##ain__":3870,"##_parameters":3871,"##unary":3872,"accumul":3873,"__main__":3874,"##alesced":3875,"19":3876,"##cp":3877,"##67":3878,"##_name_":3879,"quantizer":3880,"skips":3881,"mat1":3882,"padw":3883,"interpol":3884,"ed":3885,"android":3886,"##devices":3887,"]+/":3888,"additional":3889,"jenkins":3890,"yes":3891,"##api":3892,"accreal":3893,"level":3894,"##sed":3895,"##plane":3896,"##nest":3897,"tensorimpl":3898,"specify":3899,"##icy":3900,"at_dispatch":3901,"test_with":3902,"##pos":3903,"variable_":3904,"b1":3905,"##bind11":3906,"metadata":3907,"##_code":3908,"##erno":3909,"resource_class":3910,"##cs":3911,"##).":3912,"##sequence":3913,"standard":3914,"##_div":3915,"process_group":3916,"wrapper":3917,"##_null":3918,"means":3919,"thputil":3920,"##ipy":3921,"##vc":3922,"base_":3923,"integer":3924,"license":3925,"directly":3926,"##_legacy":3927,"##_install":3928,"##gt":3929,"##_expr":3930,"torch_cpu":3931,"##_extension":3932,"##umetric":3933,"imag":3934,"##_devtoolset7_nightly":3935,"##arrayref":3936,"##29":3937,"destroy":3938,"##_base_name":3939,"tools":3940,"()>":3941,"op_info":3942,"##_inf":3943,"##multi":3944,"##ernoull":3945,"##47":3946,"pycfunction":3947,"t6":3948,"calls":3949,"##mmetric":3950,"ge":3951,"##names":3952,"example_":3953,">());":3954,"##ernoulli":3955,"={":3956,"__global":3957,"##threads":3958,"##earest":3959,"intarrayref":3960,"non_blocking":3961,"prun":3962,"##encies":3963,"permute":3964,"##_im":3965,"##_configs":3966,"##gl":3967,"##_pd":3968,"##constant":3969,"poss":3970,"##dep":3971,"is_contiguous":3972,"##_pow":3973,"operatordef":3974,"package_":3975,"aff":3976,"reinterpret":3977,"##riter":3978,"issub":3979,"##arr":3980,"min_value":3981,"##iction":3982,"./":3983,"##_ad":3984,"information":3985,"__global__":3986,"ep":3987,"table":3988,"inner":3989,"##fl":3990,"##jor":3991,"##_bytes":3992,"t7":3993,"##numeric":3994,"##_expand":3995,"cout":3996,"quint8":3997,"reference_":3998,"job_base_name":3999,"##_self":4000,"hack":4001,"}(":4002,"##ky":4003,"##bmm":4004,"##_hip":4005,"endl":4006,"negative":4007,"##_select":4008,"circleci":4009,"##ever":4010,"##dest":4011,"##_functions":4012,"]+(":4013,"##local":4014,"##oles":4015,"##ints":4016,"environ":4017,"exists":4018,"property":4019,"##reference":4020,"##_autograd":4021,"##_workers":4022,"$(":4023,"expect_true":4024,"pickle":4025,"]+(\\.[":4026,"##_kwargs":4027,"clear":4028,"ostream":4029,"##ik":4030,"##odiff":4031,"##_dynamic":4032,"valu":4033,"ser":4034,"##fromschema":4035,"aliasanalysisfromschema":4036,"samples":4037,"##_desc":4038,"##fixture":4039,"##ider":4040,"define_":4041,"float64":4042,"nd":4043,"1024":4044,"##57":4045,"##_execut":4046,"##_prepack":4047,"rows":4048,"##_del":4049,"buffers":4050,"pg":4051,"##ken":4052,"##5_":4053,"undefined":4054,"##_found":4055,"device_guard":4056,"##89":4057,"##\");":4058,"##cd":4059,"##omial":4060,"##_rel":4061,"epoch":4062,"##::<":4063,"padh":4064,"zeros_like":4065,"declarations":4066,"gt":4067,"glob":4068,"name_":4069,"##ten":4070,"##bytes":4071,"##60":4072,"during":4073,"workers":4074,"_tensor":4075,"##sampl":4076,"##59":4077,"##atures":4078,"##_mut":4079,"scales":4080,"##_nv":4081,"stats":4082,"##_transpose":4083,"skipcpuifn":4084,"##_samples":4085,"brew":4086,"diagonal":4087,"##agrad":4088,"reser":4089,"##set_version":4090,"sourc":4091,"##_torch_function":4092,"cum":4093,"##atal":4094,"##_docker":4095,"aver":4096,"cod":4097,"comb":4098,"manylinux":4099,"clo":4100,"##ributed":4101,"division":4102,"##_seed":4103,"blas":4104,"clean":4105,"ninput":4106,"##_groups":4107,"##side":4108,"##1_":4109,"##efiles":4110,"gradcheck":4111,"skipcpuifnolapack":4112,"\"[":4113,"00":4114,"##unn":4115,"=\"$":4116,"datatype":4117,"done":4118,"qx":4119,"delete":4120,"gi":4121,"##tanh":4122,"is_cuda":4123,"sparse_":4124,"##ining":4125,"##_mac":4126,"about":4127,"cmakefiles":4128,"##itch":4129,"apt":4130,"even":4131,"part":4132,"##_rref":4133,"program":4134,"##_export_type":4135,"front":4136,"at_assert":4137,"##eted":4138,"works":4139,"learn":4140,"##olesky":4141,"##econds":4142,"##_observer":4143,"##_cell":4144,"subprocess":4145,"behavior":4146,"_foreach":4147,"squeeze":4148,"##_pos":4149,"typekind":4150,"##oader":4151,"gamma":4152,"tb":4153,"typeerror":4154,"computes":4155,"##_vars":4156,"1970":4157,"a_quant":4158,"##_queue":4159,"third":4160,"##stride":4161,"##_counts":4162,"nll":4163,"##_cpp":4164,"##_shapes":4165,"reinterpret_cast":4166,"##_inplace_":4167,"typeptr":4168,"##_vs":4169,"##most":4170,"##testfixture":4171,"loaded":4172,"23":4173,"##inv":4174,"accept":4175,"collections":4176,"dot":4177,"autofunction":4178,"##target":4179,"##_softmax":4180,"multipl":4181,"directory":4182,"##are_":4183,"output_padding":4184,"address":4185,"<<<":4186,"put":4187,"signature":4188,"01":4189,"x0":4190,"##cud":4191,"##_libs":4192,"##ually":4193,"##eless":4194,"##assert":4195,"google":4196,"sl":4197,"dim32":4198,"iterable":4199,"perf":4200,"##integ":4201,"models":4202,"devel":4203,"\"},":4204,"mess":4205,"##_mem":4206,"##writer":4207,"##mix":4208,"input_data":4209,"near":4210,"##batched":4211,"nelement":4212,"##co":4213,"##_shared":4214,"etc":4215,"()`":4216,"##_flag":4217,"thpvari":4218,"assertion":4219,"##nod":4220,"t8":4221,"conv3d":4222,"fus":4223,"##dist":4224,"show":4225,"tensorpipe":4226,"nchw":4227,"dimensional":4228,"_jit_internal":4229,"cname":4230,"nest":4231,"##abletype":4232,"common_utils":4233,"##round":4234,"caffe2_pb2":4235,"##reate_":4236,"usage":4237,"compilation":4238,"deep":4239,"##aces":4240,"http":4241,"compute_":4242,"member":4243,"features":4244,"##------":4245,"dist_init":4246,"nvcc":4247,"##by":4248,"objects":4249,"layers":4250,"_init":4251,"##acity":4252,"##_gather":4253,"##catter":4254,"attention":4255,"##_neg":4256,"()).":4257,"submodule":4258,"unordered_set":4259,"anal":4260,"factor":4261,"##fc":4262,"##_mapping":4263,"queue":4264,"txt":4265,"use_cuda_docker":4266,"encoder":4267,"use_cuda_docker_runtime":4268,"22":4269,"_float":4270,"##});":4271,"##zy":4272,"====":4273,"##location":4274,"rs":4275,"##_linear":4276,"##_world":4277,"download":4278,"keyword":4279,"previous":4280,"##mixin":4281,"##nearest":4282,"##external":4283,"depth":4284,"compiled":4285,"##ecess":4286,"##uble_":4287,"python_module":4288,"url":4289,"##level":4290,"rpcagenttestfixture":4291,"##_guard":4292,"add_input":4293,"dispatcher":4294,"##stats":4295,"take":4296,"26":4297,"##_pytorch":4298,"##engths":4299,"##broadcast":4300,"##engine":4301,"pybind11":4302,"##_prob":4303,"raw_message":4304,"maybe_":4305,"atomic":4306,"is_available":4307,"##_oper":4308,"logging":4309,"##_strided_":4310,"##_per_channel":4311,"zero_":4312,"extract":4313,"2020":4314,"##python":4315,"sleef":4316,"sug":4317,"vsx":4318,"t9":4319,"##aged":4320,"##_bag":4321,"add_argument":4322,"##_reduce_":4323,"volumetric":4324,"_make_":4325,"b0":4326,"pull":4327,"opts":4328,"##future":4329,"am":4330,"sequential":4331,"switch":4332,"##\";":4333,"##ibility":4334,"someclass":4335,"##...)":4336,"recurs":4337,"##_logging":4338,"##_sequ":4339,"out_t":4340,">())":4341,"batchsize":4342,"##iterals":4343,"distributedtest":4344,"verify":4345,"\"-":4346,"__get":4347,"bind":4348,"operator_export_type":4349,"as_strided_":4350,"##_srcs":4351,"thlongtensor":4352,"medium":4353,"columns":4354,"location":4355,"our":4356,"##atest":4357,"instanti":4358,"##onnx":4359,"##ndef":4360,"processes":4361,"##report":4362,"input_channels":4363,"28":4364,"input_":4365,"compat":4366,"##till":4367,"fork":4368,"##_vec":4369,"gpus":4370,"##ropy":4371,"##transform":4372,"##_head":4373,"calling":4374,"##44":4375,"##roll":4376,"##_table":4377,"##_states":4378,"conv1":4379,"test_case":4380,"##ren":4381,"##app":4382,"_add":4383,"nnq":4384,"##_const":4385,"decl_type":4386,"learning":4387,"runs":4388,"##\"\"\"\"":4389,"dst_rank":4390,"##anged":4391,"extern":4392,"##_num_threads":4393,"##_num_test_":4394,"constructor_args":4395,"##_num_test_elements":4396,"={}":4397,"still":4398,"...>":4399,"initialize":4400,"##_batch_size":4401,"activation_post_process":4402,"did":4403,"##ands":4404,"##parset":4405,"---------------------------":4406,"most":4407,"tensor_cpu":4408,"pt":4409,"##_constructor":4410,"compare":4411,"yield":4412,"##_event":4413,"##gather":4414,"strip":4415,"graphmodule":4416,"repo":4417,"op_name":4418,"floats":4419,"omp":4420,"unic":4421,"autom":4422,".)":4423,"ph":4424,"##plits":4425,"##andalone_":4426,"##81":4427,"bash":4428,"##_level":4429,"processgroupnccl":4430,"=${":4431,"##ted":4432,"##new":4433,"##byt":4434,"is_complex":4435,"operatorbase":4436,"##_logging_data":4437,"dx":4438,"ninja":4439,"adj":4440,"numbers":4441,"script_method":4442,"##_profil":4443,"consider":4444,"tgt":4445,"return_indices":4446,"within":4447,"##ectories":4448,"##_gcc":4449,"##modul":4450,"basic":4451,"gr":4452,"##39":4453,"##equantiz":4454,".\"\"\"":4455,"allreduce":4456,"namedtuple":4457,"y1":4458,"##_math":4459,"assert_true":4460,"unknown":4461,"##_defaults":4462,"##quantize_":4463,"again":4464,"##man":4465,"toint":4466,"tolist":4467,"t10":4468,"reducer":4469,"pivot":4470,"()]":4471,"sem":4472,"##factories":4473,"1d":4474,"##ole":4475,"##_diff":4476,"##umith":4477,"soumith":4478,"quantize_per_tensor":4479,"mismatch":4480,"##torch_function":4481,"...,":4482,"##_timeout":4483,"applies":4484,"##y_wrapper":4485,"##66":4486,"##qr":4487,"##_home":4488,"handle_torch_function":4489,"##numerics":4490,".*":4491,"cy":4492,"##ultin":4493,"##cket":4494,"##layer":4495,"synchron":4496,"##vision":4497,"##e_path":4498,"outer":4499,"make_shared":4500,"##_convolution":4501,"`(":4502,"##qconfig":4503,"logical":4504,"computation":4505,"shape_":4506,"thpvariable_":4507,"##fr":4508,"##utdown":4509,"ifndef":4510,"loopnest":4511,"byte":4512,"##_lambda":4513,"registered":4514,"load_arg":4515,"##metadata":4516,"##awn":4517,"##last":4518,"##55":4519,"##ural":4520,"##ote_":4521,"creates":4522,"##lowp":4523,"eff":4524,"##ough":4525,"##ges":4526,"\"));":4527,"normalized":4528,"launch":4529,"##olve_":4530,"tcp":4531,"##_modul":4532,"##_args__":4533,"miopen":4534,"device_ids":4535,"multiprocessing":4536,"##_avg":4537,"##_2d":4538,"##loop":4539,"##mport":4540,"##crib":4541,"batch_first":4542,"logger":4543,"##iltin":4544,"hards":4545,"##rink":4546,"consum":4547,"##ily":4548,"runnet":4549,"([\"":4550,"iteration":4551,"kcpu":4552,"well":4553,"##_lt":4554,"##inference":4555,"bernoulli":4556,"rp":4557,"in0":4558,"##access":4559,"##_sy":4560,"assert_eq":4561,"checkpoint":4562,"interpr":4563,"sampled_from":4564,"dens":4565,"##_at":4566,"##fused":4567,"##egin":4568,"##ropout":4569,"##mplemented":4570,"qr":4571,"pret":4572,"initialized":4573,"##cale":4574,"##ips":4575,"indic":4576,"expression":4577,"##ysical":4578,"_nn":4579,"##unpack":4580,"commun":4581,"##elem":4582,"##e_index":4583,"##_custom":4584,"nnpack":4585,"maxpool":4586,"running_mean":4587,"512":4588,"##_u":4589,"##stack":4590,"##_dequant":4591,"##ubs":4592,"ord":4593,"batch_sizes":4594,"libraries":4595,":,":4596,"##yle":4597,"##)),":4598,"arr":4599,"##_hat":4600,"lists":4601,"convtranspose":4602,"copyfrom":4603,"equival":4604,"_float_types":4605,"##false":4606,"skipifrocm":4607,"dtypesifcpu":4608,"##single":4609,"##unit":4610,"##_fre":4611,"##_directory":4612,"*=":4613,"_set":4614,"##ication":4615,"##_sparse":4616,"t11":4617,"##_differ":4618,"18":4619,"##_symbol":4620,"##iti":4621,"##convert":4622,"##rpc":4623,"##_1d":4624,"decoder":4625,"##_party":4626,"fp16":4627,"allclose":4628,"has_torch_function":4629,"##_decay":4630,"##irection":4631,"set_":4632,"however":4633,"y2":4634,"assertfalse":4635,"##spect":4636,"##allocations":4637,"large":4638,"boolean":4639,"parse_args":4640,"##mem":4641,"##istent":4642,"get_default":4643,"\"])":4644,"box":4645,"##acc":4646,"{};":4647,"##ragment":4648,"##_read":4649,"parametr":4650,"##common":4651,"##_scope":4652,"variable_list":4653,"lapack":4654,"losses":4655,"yaml":4656,"##next":4657,"block_size":4658,"fuser":4659,"f40":4660,"##dat":4661,"##hap":4662,"refl":4663,"b2":4664,"tensorfactories":4665,"##_reduce":4666,"_i":4667,"atan":4668,"##_has":4669,"cmake_cxx":4670,"gm":4671,"tensorcpu":4672,"(**":4673,"##_libtorch":4674,"nnz":4675,"x_":4676,"vec_xl":4677,"enable":4678,"##_rem":4679,"t12":4680,"##builder":4681,"##_tag":4682,"indexing":4683,"targets":4684,"dependencies":4685,"incre":4686,"##ivalue":4687,"##ultinomial":4688,"devicetype":4689,"computed":4690,"##_prod":4691,"int8_t":4692,"##ice":4693,"##uses":4694,":`\\":4695,"_run":4696,"fallback":4697,"filecheck":4698,"worker_name":4699,"rm":4700,"##rong":4701,"##_ratio":4702,"##onical":4703,"numeric":4704,"##e_count":4705,"##erical":4706,"##force":4707,"leaky":4708,"assume":4709,"##_affine_":4710,"##chedul":4711,"##_ver":4712,"input_record":4713,"loops":4714,"running_var":4715,"##optional":4716,"qparams":4717,"##1p":4718,"grad_fn":4719,"recurrent":4720,"profiling":4721,"third_party":4722,"##_attr":4723,"##ending":4724,"unicod":4725,"oss":4726,"##field":4727,"topk":4728,"manywheel":4729,"mpar":4730,"##_gradient":4731,"##_unary":4732,"##_signatures":4733,"mpark":4734,"\"{":4735,"##frame":4736,"tensorlist":4737,"concr":4738,"##idirection":4739,"gets":4740,"##tually":4741,"##weights":4742,"exponent":4743,"##me":4744,"bug":4745,"##_reference_":4746,"##_requir":4747,"barrier":4748,"##bag":4749,"those":4750,"dequant":4751,"tostring":4752,"{}'.":4753,"strided":4754,"manual":4755,"##_source":4756,"possible":4757,"df":4758,"testtorchdevicetype":4759,"s3":4760,"assertexpected":4761,"##>>>(":4762,"jacobian":4763,"##trac":4764,"optimization":4765,"qy":4766,"##uts":4767,"##_warning":4768,"t13":4769,"print_function":4770,"_l":4771,"_is":4772,"retain":4773,"conv2":4774,"save_":4775,"##write":4776,"constantfill":4777,"factory":4778,"##message":4779,"##e_b":4780,"getsingle":4781,"##_allclose":4782,"##p16":4783,"##_ndim":4784,"##inder":4785,"structured":4786,"##ecessary":4787,"getsingleargument":4788,"cop":4789,"##descriptor":4790,"##_dense":4791,"exc":4792,"##ickler":4793,"nhwc":4794,"##ery":4795,"##ective":4796,"test_cuda":4797,"##_unique":4798,"allocate":4799,"21":4800,"instruc":4801,"##_match":4802,"runond":4803,">(\"":4804,"##idirectional":4805,"limit":4806,"##_trac":4807,"reduce_":4808,"cublas":4809,"unicode_l":4810,"he":4811,"##cpy":4812,"##leans":4813,"reduceop":4814,"summary":4815,"rest":4816,"strict":4817,"##_reduction":4818,"fused":4819,"##7_":4820,"unl":4821,"kernels":4822,"##_config_dict":4823,"counter":4824,"lt":4825,"let":4826,"seg":4827,"via":4828,"kn":4829,"tk":4830,"##og":4831,"input2":4832,"t14":4833,"th_tensor_apply":4834,"c2":4835,"gradweight":4836,"conv1d":4837,"attrs":4838,"refer":4839,"##lambda":4840,"actually":4841,"##_blocks":4842,"##_errors":4843,"##_sample_":4844,"...)":4845,"equivalent":4846,"##_sparse_":4847,"##_contig":4848,"{})":4849,"##eddict":4850,"##_optimized":4851,"##pair":4852,"##entropy":4853,"##_optional":4854,"fixed":4855,"##_package":4856,"native_":4857,"qint8":4858,"inverse":4859,"##_intr":4860,"##_pool1d":4861,"hacky_wrapper":4862,"##_y":4863,"##orted":4864,"mu":4865,"##math":4866,"num_inputs":4867,"search":4868,"hardtanh":4869,"##_job":4870,"ignored":4871,"scripted":4872,"##evant":4873,"##shap":4874,"##_batches":4875,"##_floating_point":4876,"ded":4877,"diction":4878,"pref":4879,"##70":4880,"##_fl":4881,"implic":4882,"##_standard":4883,"##criter":4884,"/*.":4885,"##_for_legacy":4886,"##leton":4887,"hacky_wrapper_for_legacy":4888,"hacky_wrapper_for_legacy_signatures":4889,"##stestcase":4890,"out_channels":4891,"jit_assert":4892,"metal":4893,"in0_t":4894,"##aget":4895,"serialize":4896,"##record":4897,"##tib":4898,"cuda9":4899,"streams":4900,"44":4901,"65":4902,"##ased":4903,"assertionerror":4904,"##ute":4905,"##utodiff":4906,"##_and_complex":4907,"cmake_current":4908,"booleans":4909,"dl":4910,"myp":4911,"##stit":4912,"across":4913,"onnxif":4914,"##_varargs":4915,"##parsetensor":4916,"##hook":4917,"mk":4918,"rng":4919,"too":4920,"##tivation":4921,"memoryformat":4922,"##riterion":4923,"in_channels":4924,"inspect":4925,"##ilar":4926,"sparsel":4927,"implicit":4928,"##1b":4929,"assert_allclose":4930,"##nnlowp":4931,"t15":4932,"quant_max":4933,"seconds":4934,"qualified":4935,"(...)":4936,"##win":4937,"getenv":4938,"##_loop":4939,"divis":4940,"disable":4941,"decorators":4942,"finish":4943,"ih":4944,"##elf":4945,"blockdim":4946,"ast":4947,"##indextensor":4948,"issue":4949,"##vis":4950,"29":4951,"##_xenial":4952,"##_ranks":4953,"##_overlap":4954,"interpolate":4955,"nearest":4956,"unicode_literals":4957,"##22":4958,"usr":4959,"##_modules":4960,"##_vsx":4961,"dump":4962,"gu":4963,"h_":4964,"##ors":4965,"is_floating_point":4966,"to_string":4967,"##_va":4968,"builder":4969,"msvc":4970,"##_fail":4971,"##_long":4972,"##ibatch":4973,"##_process_group":4974,"##_shape_":4975,"dense":4976,"##dev":4977,"##atency":4978,"sampler":4979,"\"%":4980,"center":4981,"sgd":4982,"t16":4983,"##olint":4984,"track":4985,"f401":4986,"##host":4987,"##_margin":4988,"##_depth":4989,"occ":4990,"##perty":4991,"##mapping":4992,"errors":4993,"##ored":4994,"takes":4995,"minibatch":4996,"constants":4997,"##wish":4998,"q_zero_point":4999,"##_metadata":5000,"##_ld":5001,"##attributes":5002,"##fold":5003,"substr":5004,"container":5005,"##boxed":5006,"&,":5007,"'\\":5008,"mps":5009,"##_axis":5010,"pyt":5011,"##thing":5012,"chron":5013,"\"/":5014,"aw":5015,"nolint":5016,"##ores":5017,"in_dims":5018,"##ison":5019,"##_unused":5020,"chrono":5021,"##rf":5022,"##len":5023,"##_store":5024,"existing":5025,"slic":5026,"##_prev":5027,"creat":5028,"quant_min":5029,"##biased":5030,"rv":5031,"##khr":5032,"stdout":5033,"##lying":5034,"##axes":5035,"31":5036,"x86":5037,"}{":5038,"##led":5039,"##49":5040,"##_range":5041,"nntestcase":5042,"correctly":5043,"##initialized":5044,"##ek":5045,"##chunk":5046,"##print":5047,"install_dir":5048,"scipy":5049,"relevant":5050,"document":5051,"due":5052,"##lot":5053,"##unique":5054,"##_clang":5055,"}.":5056,"##ce_dir":5057,"##imits":5058,"##_hidden":5059,"tensorproto":5060,"##_inplace":5061,"##valu":5062,"_all":5063,"patch":5064,"ta":5065,"##21":5066,"users":5067,"##_item":5068,"##icon":5069,"along":5070,"ide":5071,"context_":5072,"upload":5073,"##_reference":5074,"##matrix":5075,"least":5076,"positive":5077,"##opengl":5078,"missing":5079,"learnable":5080,"q_scale":5081,"##yb":5082,"##gre":5083,"outputwidth":5084,"content":5085,"dirname":5086,"v3":5087,"##ret":5088,"##icated":5089,"##ason":5090,"##asstype":5091,"##uplic":5092,"unbiased":5093,"paramgenerator":5094,"points":5095,"interface":5096,"square":5097,"bl":5098,"##mask":5099,"##_det":5100,"cholesky":5101,"ends":5102,"itertools":5103,"##_storage":5104,"##};":5105,"sets":5106,"t17":5107,"source_":5108,"meth_varargs":5109,"tid":5110,"##ness":5111,"##ards":5112,"##optimizer":5113,"weight_decay":5114,"##ities":5115,"tensor_list":5116,"probs":5117,"[&]":5118,"02":5119,"##cols":5120,"##destruct":5121,"_b":5122,"##!!":5123,"input1":5124,"has_value":5125,"position":5126,"##grid":5127,"##methods":5128,"ddp_logging_data":5129,"automat":5130,"initializer":5131,"pickle_":5132,"feature":5133,"##_macos":5134,"dictionary":5135,"getmut":5136,"##_grads":5137,"describ":5138,"type_as":5139,"##_classes":5140,"sugared":5141,"##_typ":5142,"impl_":5143,"##static":5144,".],":5145,"inside":5146,"elu":5147,"##_functor":5148,"annotation":5149,"histogram":5150,")\",":5151,"##range":5152,"##angle":5153,"param_init_net":5154,"##_import":5155,"underlying":5156,"close":5157,"gg":5158,"jittestcase":5159,"##_to_gpu":5160,"##_local":5161,"__va":5162,"##qparams":5163,"gcc7":5164,"##criterion":5165,"\"\")":5166,"mobile":5167,"rb":5168,"##rs":5169,"t18":5170,"##izations":5171,"maximum":5172,"compress":5173,"codegen":5174,"maybe":5175,"hav":5176,"hold":5177,"##45":5178,"inl":5179,"defaults":5180,"functools":5181,"##_py3":5182,"caffe_enforce_eq":5183,"temporary":5184,"'{}":5185,"output_channels":5186,"include_dir":5187,"##weighted":5188,"cx":5189,"##ee":5190,"##her":5191,"int16":5192,"##ambd":5193,"requires_grad_":5194,"at_dispatch_all":5195,"side":5196,"##_named":5197,"cudastream":5198,"__va_args__":5199,"_build":5200,"cdouble":5201,"##_handle":5202,"expect_false":5203,"allows":5204,"mt":5205,"nom":5206,"##ately":5207,"##stub":5208,"##izing":5209,"##createinfo":5210,"lda":5211,"svd":5212,"vc":5213,"##tical":5214,"##_mobile":5215,">{":5216,"events":5217,"producer":5218,"respon":5219,"##depth":5220,"##iconda":5221,"bidirectional":5222,"nativ":5223,"##iteral":5224,"----------------------------":5225,"noutput":5226,"pot":5227,"##_ir":5228,"##\\\\":5229,"##_pg":5230,"addr":5231,"batch_norm":5232,"##_include_":5233,"##ange_":5234,"((),":5235,"timed":5236,"##_number":5237,"removed":5238,"##binary":5239,"contr":5240,"##exec":5241,"substit":5242,"appro":5243,"processgroupg":5244,"##_sec":5245,"chain":5246,"unroll":5247,"batch2":5248,"##riend":5249,"3d":5250,"success":5251,"in1":5252,"##exception":5253,"##_stack":5254,"data_type":5255,"rpc_backend":5256,"ordereddict":5257,"ds":5258,"##events":5259,"rece":5260,"binary_linux_conda":5261,"happ":5262,"##sign":5263,"test_numpy":5264,"unsaf":5265,"##after":5266,"transposed":5267,"##ully":5268,"mach":5269,"num_threads":5270,"##e_coo":5271,"##_vk":5272,"startswith":5273,"##usiv":5274,"##_unpack":5275,"map_":5276,"##workspace":5277,"functionschema":5278,"deterministic":5279,"##interface":5280,"library_state":5281,"##runtime":5282,"replica":5283,"##_multigpu":5284,"##ci":5285,"##_nan":5286,"##_height":5287,"listtype":5288,"t19":5289,"iterations":5290,"##self":5291,"ri":5292,"##_fold":5293,"changes":5294,"singleton":5295,"##^^^^^^^^^^^^^^^^":5296,"adaptive_avg":5297,"##icient":5298,"()):":5299,"##_parallel":5300,"overrid":5301,"##register":5302,"##orrect":5303,"##obil":5304,"another":5305,"##shrink":5306,"##_epoch":5307,"thputils_":5308,"##play":5309,"from_numpy":5310,"scripts":5311,"kwarg":5312,"empty_meta":5313,"devtoolset7":5314,"##_special":5315,"##bb":5316,"##apply":5317,"thcstate_":5318,"##_with_indices":5319,"##generic":5320,"serialization":5321,"##_print":5322,"##_hooks":5323,"explicitly":5324,"vec_xst":5325,"-----------":5326,"cv":5327,"thcunn":5328,"erf":5329,"##_integ":5330,"interpreter":5331,"##amem":5332,"decltype":5333,"package_type":5334,"##ilated":5335,"##eptr":5336,"futur":5337,"##opt":5338,"typemeta":5339,"guts":5340,"conj":5341,"](#":5342,"##_stats":5343,"##...,":5344,"intrusive_ptr_target":5345,"fake_":5346,"wrong":5347,"##apsed":5348,"stderr":5349,"##plus":5350,"##_functional":5351,"bytetensor":5352,"_observer":5353,"strateg":5354,"batch1":5355,"rpc_sync":5356,"hidden_t":5357,"##_batched":5358,"##supported":5359,"thstensor":5360,"##olver":5361,"subt":5362,"##proces":5363,"##_proj":5364,"t20":5365,"definition":5366,"thfloat":5367,"##tif":5368,"operator_def":5369,"paths":5370,"delta":5371,"__m256":5372,"assignment":5373,"less":5374,"sparsetensor":5375,"##prefix":5376,"##48":5377,"##inct":5378,"dim3":5379,"##parser":5380,"##_gradgrad":5381,"canonical":5382,"floating_and_complex":5383,"settings":5384,"necessary":5385,"##s__":5386,"##uss":5387,"##_opt":5388,"##_report":5389,"##observers":5390,"big":5391,"l1":5392,"input_tensor":5393,"testopengl":5394,"reason":5395,"##omain":5396,"##efunction":5397,"##usty":5398,"rais":5399,"suff":5400,"builtin":5401,"server":5402,"make_intr":5403,"skipcudaif":5404,"median":5405,"replacement":5406,"make_intrusive":5407,"bad":5408,"friend":5409,"##address":5410,"action":5411,"method_name":5412,"init_net":5413,"##_threshold":5414,"weak_script":5415,"##_single_":5416,"rank_to_gpu":5417,"transl":5418,"collect":5419,"determ":5420,"children":5421,"triangular":5422,"notimplemented":5423,"at_dispatch_all_types_and":5424,"##cmul":5425,"##extension":5426,"##cription":5427,"miniconda":5428,"##_normal":5429,"value_t":5430,"'``":5431,"anch":5432,"runondevice":5433,"cp":5434,"##arrier":5435,"testcommon":5436,"##_bound":5437,"[])":5438,"##df":5439,"##seg":5440,"states":5441,"nnc_":5442,"##_orig":5443,"derived":5444,"cmd":5445,"templ":5446,"ranks":5447,"useful":5448,"##pool3d":5449,"pointwise":5450,"##nodes":5451,"know":5452,"##_cud":5453,"argv":5454,"##_la":5455,"until":5456,"run_tests":5457,"##gradientop":5458,"pytorch_linux_xenial":5459,"owning":5460,"fmod":5461,"iscontiguous":5462,"test_m":5463,"bins":5464,"rpctest":5465,"cfloat":5466,"scc":5467,"regex":5468,"##_next":5469,"ident":5470,"mul_":5471,"##_defin":5472,"##uffle":5473,"absolute_":5474,"kt":5475,"##fail":5476,"protected":5477,"capacity":5478,"##****************":5479,">*":5480,"##ernorm":5481,"channels_last":5482,"##select":5483,"binary_linux_manywheel_3_":5484,"##_constructor_args":5485,"'{":5486,"42":5487,"vals":5488,"checkout":5489,"##ediate":5490,"consumer":5491,"runnetonce":5492,"prom":5493,"dimname":5494,"blockidx":5495,"sources":5496,"tempfile":5497,"thcstate_get":5498,"##_it":5499,"##elta":5500,"##_methods":5501,"##_stateless":5502,"remote_":5503,"pb":5504,"##hip":5505,"##ions":5506,"##added":5507,"t21":5508,"##_prec":5509,"floating_types_and":5510,"##weak":5511,"deepcopy":5512,"224":5513,"__r":5514,"bs":5515,"lines":5516,"tindex":5517,"##ore_":5518,"##erp":5519,"##_split":5520,"##typeof":5521,"complet":5522,"##_declar":5523,"develop":5524,"60":5525,"##mv":5526,"##mq":5527,"##88":5528,"##ersgd":5529,"##boxed_":5530,"##_observed":5531,"pi":5532,"qnnpack":5533,"style":5534,"##epro":5535,"checking":5536,"subscript":5537,"doubletensor":5538,"sourcer":5539,"c_str":5540,"eager":5541,"ii":5542,"##label":5543,"##8_":5544,"##ifier":5545,"norm_type":5546,"query":5547,"createn":5548,"sigma":5549,"peek":5550,"greater":5551,"##cular":5552,"intern":5553,"transformer":5554,"##e_names":5555,"thcudacheck":5556,"opset_version":5557,"##_generic":5558,"exclude":5559,"##construct":5560,"compos":5561,"##channels":5562,"##_x_gpu":5563,"##_lt_x_gpu":5564,"concret":5565,"conn":5566,"##istency":5567,"scalars":5568,"executor":5569,"#################################":5570,"__fil":5571,"##_z":5572,"differentiable":5573,"##_nvcc":5574,"frontend":5575,"##destructed":5576,"__file__":5577,"'/":5578,"s1":5579,"v4":5580,"##((":5581,"##ine__":5582,"##tition":5583,"##oped":5584,"test_f":5585,"t22":5586,"obj2":5587,"matched":5588,"_conv":5589,"curr":5590,"unboxed_":5591,"cudaevent":5592,"##mean":5593,"output_":5594,"##keys":5595,"##cheduler":5596,"nnc_aten":5597,"latest":5598,"port":5599,"##_pair":5600,"##_limit":5601,"embedding_bag":5602,"##_module_tests":5603,"##_desc_":5604,"absolute_import":5605,"##datap":5606,"##<<":5607,"##_bit":5608,"trunc":5609,"nonzero":5610,"tuple_":5611,"replication":5612,"exactly":5613,"##cdiv":5614,"##usiveptr":5615,"__host":5616,"##_solve":5617,"createblob":5618,"curand":5619,"attemp":5620,"##_state_dict":5621,"preserv":5622,"##ufuncs":5623,"similar":5624,"issubtypeof":5625,"__host__":5626,"gemm":5627,"share":5628,"decay":5629,"pooling":5630,"upsample_nearest":5631,"average":5632,"{\\":5633,"acos":5634,"##_leaf":5635,"placeholder":5636,"##_margin_loss":5637,"documentation":5638,"##_label":5639,"##inite":5640,"accumulate":5641,"term":5642,"##parameter":5643,"manager":5644,"value_type":5645,"##e_range":5646,"##right":5647,"shutdown":5648,"##ixel":5649,"##e_custom":5650,"##_property":5651,"##quant_pattern":5652,"##gress":5653,"r__data":5654,"##ancenorm":5655,"broadcastinglist":5656,"register_quant_pattern":5657,"gru":5658,"t_data":5659,"static_assert":5660,"##ate_s":5661,"prepare_":5662,"##tible":5663,"(;":5664,"##ememory":5665,"##force_":5666,"##_eval":5667,"##_source_dir":5668,"##_common":5669,"int_repr":5670,"##_cache":5671,"adv":5672,"``'":5673,"##_hash":5674,"variabletype":5675,"defaultbackend":5676,"t23":5677,"##classes":5678,"_pair":5679,"remainder":5680,"eas":5681,"##_assign":5682,"##--------------------------------":5683,"provide":5684,"##_perf":5685,"skip_if_lt_x_gpu":5686,"cumsum":5687,"__dict":5688,"class_":5689,"##_stmt":5690,"max_pool2d":5691,"##_distributed":5692,"##_packed":5693,"substitute":5694,"_tr":5695,"max_norm":5696,"statement":5697,"timest":5698,"++;":5699,"unboxed_only":5700,"\"'":5701,"bmm":5702,"~~~~~~~~~~~~~~~~~":5703,"##23":5704,"##adagrad":5705,"##referencechecks":5706,"ninputplane":5707,"33":5708,"##tot":5709,"##async":5710,"input_blob":5711,"assertreferencechecks":5712,"resnet":5713,"getcurrent":5714,"vkdevices":5715,"##plication":5716,"##_status":5717,"storage_offset":5718,"vkdevicesize":5719,"_num":5720,"fold":5721,"##icro":5722,"multiproces":5723,"exact_dtype":5724,"##_symmetric":5725,"mypy":5726,"36":5727,"##vmap":5728,"##_factor":5729,"##ipro":5730,"new_module_tests":5731,"##shift":5732,"sparsec":5733,"__dict__":5734,"multiprocesstestcase":5735,"dp":5736,"##-+":5737,"algo":5738,"runoperator":5739,"##e_comp":5740,"_comp":5741,"cmake_args":5742,"merg":5743,"##_requires":5744,"onnxifi":5745,"80":5746,"##e_t":5747,"##idual":5748,"##_sample":5749,"##_lr":5750,"dims_":5751,"sha":5752,"cuda_stream":5753,"##_rand":5754,"pytuple_":5755,"##_launch":5756,"##iprocal":5757,"later":5758,"##vl":5759,"##quantization":5760,"##_bin_op":5761,"tensortypeid":5762,"fully":5763,"##edim":5764,"setattr":5765,"']:":5766,"init_method":5767,"))).":5768,"reader":5769,"##ragmentation":5770,"notimplementederror":5771,")*":5772,"tan":5773,"##ned":5774,"##atort":5775,"##oduc":5776,"testquantized":5777,"ra_":5778,"${{":5779,"descriptor":5780,"_msc":5781,"eigenvector":5782,"op_type":5783,"##illis":5784,"##_exit":5785,"##arginloss":5786,"##_layer":5787,"skipcudaifrocm":5788,"reverse":5789,"##--------------":5790,"##e_fx":5791,"mpfr":5792,"##_coalesced":5793,"bilinear":5794,"ell":5795,"##files":5796,"##_depend":5797,"sugaredvalue":5798,"archive":5799,"inferred":5800,"runoperatoronce":5801,"##non":5802,"()>>>(":5803,"classtype":5804,"##contig":5805,"log_softmax":5806,"properties":5807,"##ufuncinfo":5808,"_msc_ver":5809,"cflags":5810,"dus":5811,"rate":5812,"zmq":5813,"exper":5814,"cudaget":5815,"=('":5816,"##registry":5817,"stride_w":5818,"05":5819,"wise":5820,"cuda10":5821,"ens":5822,"datal":5823,"fullname":5824,")``":5825,"##e_schema":5826,"956":5827,"##m_rocm":5828,"client":5829,"vmaallocation":5830,"*>&":5831,"chunks":5832,"------------------":5833,"##_singular":5834,"imm":5835,"##_none":5836,"unfold":5837,"dst_worker":5838,"+=(":5839,"rpc_async":5840,"ignore_index":5841,"##_product":5842,"##enabled":5843,"selected":5844,"##_scatter":5845,"##ott":5846,"outputheight":5847,"##_enum":5848,"packages":5849,"allowed":5850,"semanti":5851,"den":5852,")...":5853,"([],":5854,"hooks":5855,"header":5856,"##_loadu":5857,"gates":5858,"##eated":5859,"therror":5860,"##_inv":5861,"socket":5862,"cpp_constructor_args":5863,"##_android":5864,"padding_mode":5865,"upsample":5866,"##pre":5867,"t24":5868,"##gener":5869,"complex64":5870,"isnan":5871,"75":5872,"##_tol":5873,"##_bool":5874,"##e_from":5875,"##================================":5876,"##anced":5877,"example_outputs":5878,"anchor":5879,"mon":5880,"##ranges":5881,"##ended":5882,"##profil":5883,"##cmd":5884,"##_64":5885,"##hash":5886,"traits":5887,"optimized":5888,"disabled":5889,"th_real_is_double":5890,"_types":5891,"`)":5892,"were":5893,"##_dis":5894,"##imin":5895,"loader":5896,"affine":5897,"##manager":5898,"##_object":5899,"##ategor":5900,"nni":5901,"_grad":5902,"##.*/":5903,"##_cap":5904,"##_cflags":5905,"make_unique":5906,"skipifn":5907,"disc":5908,"fractional":5909,"##attribute":5910,"handles":5911,"##_intrusive_ptr":5912,"thcstate_getcurrent":5913,"37":5914,"##oard":5915,"##cnn":5916,"##_initial":5917,"adds":5918,"data_":5919,"##grind":5920,"attn":5921,"unaryufuncinfo":5922,"desired_cuda":5923,"enable_if":5924,"description":5925,"partitions":5926,"_pre":5927,"##_compile_":5928,"##_sequence":5929,"##elines":5930,"stre":5931,"##_scale_":5932,"56":5933,"w_scale":5934,"num_workers":5935,"##_handler":5936,"##_cons":5937,"configur":5938,"##_world_size":5939,"##ipsis":5940,"multinomial":5941,"##pattern":5942,"##rref":5943,"##les":5944,"at_error":5945,"##th_errors":5946,"##addbmm":5947,"##scalar_t":5948,"map_location":5949,"asin":5950,"##emod":5951,"##annotation":5952,"resources":5953,"emplace":5954,"##compl":5955,"##4d":5956,"##ecount":5957,"dead":5958,"##batchnorm":5959,"libtorch_variant":5960,"##doublevector":5961,"divisor":5962,"&>":5963,"000":5964,"##mup":5965,"##rained":5966,"testunary":5967,"add_output":5968,"##zero_point":5969,"##_exception":5970,"10000":5971,"testunaryufuncs":5972,"fd":5973,"ios":5974,"##_iterator":5975,"##6_":5976,"##_ne":5977,"##_vals":5978,"##_int8":5979,"allocated":5980,"##_zeros":5981,"binary_linux_build":5982,"##_sample_weights":5983,"cnn":5984,"##_tuple_":5985,"shar":5986,"add_arg":5987,"trace_":5988,"##maxobserver":5989,"##_variables":5990,"##attention":5991,"invo":5992,"averaged":5993,"##f32":5994,"##eno":5995,"tensorinfo":5996,"t25":5997,"test_with_rocm":5998,"analy":5999,"automatically":6000,"##e_custom_config_dict":6001,"35":6002,"folder":6003,"lambd":6004,"pthread":6005,"##atile":6006,"tensorb":6007,"to_dense":6008,"call_function":6009,"minimum":6010,"##er_id":6011,"(*,":6012,"dispatch_key":6013,"})`":6014,"obj1":6015,"##expand":6016,">()[":6017,"##gradients":6018,"##_basic":6019,"##_platform":6020,"evalu":6021,"##inct_singular":6022,")>":6023,"##free":6024,"##_spars":6025,"##addr":6026,"##perm":6027,"logs":6028,"##_backward_out":6029,"##e_coo_tensor":6030,"sourcerange":6031,"_g":6032,"finput":6033,"##erance":6034,"()``":6035,"aliasdb":6036,"ok":6037,"##size_":6038,"##ate_c":6039,"##rowwise":6040,"reduce_range":6041,"fp32":6042,"s2":6043,"trig":6044,"stride_h":6045,"wasdestructed":6046,"remove_":6047,"nllloss":6048,"##torchmixin":6049,"_testtorchmixin":6050,"create_graph":6051,"dtype_":6052,"##amd":6053,"##ase_":6054,"self_data":6055,"##_solve_":6056,"input_names":6057,"assertdevice":6058,"##_trace_":6059,"mkdir":6060,"assertdevicechecks":6061,"lead":6062,"##kg":6063,"testnn":6064,"cuda11":6065,"param_groups":6066,"sever":6067,"deserial":6068,"applied":6069,"dataloader":6070,"pipe":6071,"##46":6072,"with_cuda":6073,"stringstream":6074,"register_buffer":6075,"general":6076,"best":6077,"qa":6078,"dim_out":6079,"adding":6080,"suballoc":6081,"##_parameter":6082,"##riev":6083,"normalization":6084,"transpose_":6085,"]->":6086,"##gate":6087,"cho":6088,"graph_":6089,"multilabel":6090,"complex128":6091,"initialization":6092,"##e_name_":6093,"reports":6094,"compilationunit":6095,"lang":6096,"##lass":6097,"##_support":6098,"##space_":6099,"##e_cast":6100,"log1p":6101,"##encoder":6102,"##aconda":6103,"##registration":6104,"##sampler":6105,"bri":6106,"fan":6107,"iw":6108,"test_reference_":6109,"require_":6110,"timer":6111,"filepath":6112,"supports_out":6113,"adaptive_max":6114,"##eig":6115,"##_template":6116,"##_std":6117,"including":6118,"strings":6119,"##_concat":6120,"_create_":6121,"inference":6122,"##_distinct_singular":6123,"bytesio":6124,"##_register":6125,"known":6126,"##rate":6127,"##fre":6128,"conversion":6129,"##entry":6130,"is_test":6131,"prepare":6132,"is_same":6133,"##_executable":6134,"_tensorbase":6135,"##bgemm":6136,"##_mkldnn":6137,"use_bias":6138,"accscalar_t":6139,")])":6140,"##_subdir":6141,"patterns":6142,"thlongstorage":6143,"strequal":6144,"gil":6145,"rf":6146,"##tobuf":6147,"##fusion":6148,"##28":6149,"##edge":6150,"##execut":6151,"prior":6152,"cudamem":6153,"t26":6154,"\"$(":6155,"reserve":6156,"##ode_":6157,"changed":6158,"##contain":6159,"wrapped":6160,"brief":6161,"glog":6162,"##eff":6163,"##_obj":6164,"##76":6165,"##enum":6166,"##e_def":6167,"##_forward_ad":6168,"##embeddings":6169,"##functor":6170,"owner":6171,"##_mem_overlap":6172,"qconv":6173,"##_ma":6174,"##press":6175,"##available":6176,"insertobservers":6177,"rnnbase":6178,"th_real_is_float":6179,"reflection":6180,"##ie":6181,"##e_comm":6182,"src1":6183,"##_activation":6184,"##_affine":6185,"=$(":6186,"34":6187,"##desc":6188,"##chain":6189,"force_":6190,"##ismatch":6191,"clon":6192,"options_":6193,"cuh":6194,"incorrect":6195,"##_link_libraries":6196,"against":6197,"hpp":6198,"##entr":6199,"##ixed":6200,"power":6201,"hi":6202,"##temp":6203,"##x4":6204,"##_field":6205,"layernorm":6206,"ncclcomm":6207,"##_autodiff":6208,"thfloatvector":6209,"200":6210,"lerp":6211,"))),":6212,"##_lhs":6213,"##_conv2d":6214,"##_cols":6215,"contribut":6216,"_empty":6217,"##':":6218,"##ances":6219,"##ized_":6220,"dim1":6221,"cuda_float":6222,"##buffers":6223,"copyright":6224,"installed":6225,"##reduction":6226,"cmake_cxx_flags":6227,"b_":6228,"no_grad":6229,"({\"":6230,"##_double_":6231,"##table":6232,"##char":6233,"torch_cuda":6234,"neural":6235,"##_valid":6236,"functor":6237,"##s_i":6238,"registration":6239,"embed":6240,"builtins":6241,"leaky_relu":6242,"##_affine_quantized":6243,"experim":6244,"__repr":6245,"cwrap":6246,"pur":6247,"##mpi":6248,"##_dat":6249,"numerical":6250,"##keep":6251,"perm":6252,"##_define_":6253,"futures":6254,"##_transform":6255,"ready":6256,"##_offsets":6257,"##mostequal":6258,"segment":6259,"semantics":6260,"__repr__":6261,"##gradparameters":6262,"##physical":6263,"count_include_":6264,"##_access":6265,"correctness":6266,"mpscnn":6267,"ba":6268,"y0":6269,"##_el":6270,"##dot":6271,"##half":6272,"##79":6273,"##_body":6274,"python_version":6275,"vec2":6276,"amount":6277,"pfn":6278,"##.*":6279,"##_comput":6280,"##e_copy":6281,"members":6282,"lazy":6283,"performance":6284,"##_consistency":6285,"thgenerator":6286,"call_module":6287,"##_memory_format":6288,"lua_state":6289,")},":6290,"##ineto":6291,"##izers":6292,"##_slow":6293,"##ffff":6294,"##_rng":6295,"spawn":6296,"t27":6297,"##generate":6298,"sample_input":6299,"##rtc":6300,"separate":6301,"relevant_args":6302,"several":6303,"section":6304,"##_lstm":6305,"logic":6306,"versions":6307,"summed":6308,"controls":6309,"count_include_pad":6310,"){":6311,"cb":6312,"##fd":6313,"##engin":6314,"randperm":6315,"processed":6316,"random_full":6317,"dcmake_":6318,"_loss":6319,"mf":6320,"##symbol":6321,"##allow":6322,"##_limits":6323,"##mak":6324,"abc":6325,"##ove_":6326,"makes":6327,"##rank_matrix":6328,"dataptr":6329,"##ware":6330,"##orrow":6331,"##eph":6332,"model_helper":6333,"##_signature":6334,"##state__":6335,"dig":6336,"inplace_":6337,"torch_sel":6338,"get_device":6339,"never":6340,"##bindings":6341,"##_sources":6342,"torch_selectiv":6343,"fuse":6344,"oh":6345,"deviceoption":6346,"##_rnn":6347,"proxy":6348,"addinput":6349,"}));":6350,"adaptive":6351,"##_request":6352,"##met":6353,"##izeto":6354,"is_":6355,"erase":6356,"allocations":6357,"embedding_dim":6358,"##insic":6359,"+=(\"":6360,"##_distinct_singular_value":6361,"random_fullrank_matrix":6362,"random_fullrank_matrix_distinct_singular_value":6363,"90":6364,"##nt":6365,"##e_size":6366,"view_as":6367,"visual":6368,"noutputplane":6369,"##ental":6370,"##_hist":6371,"better":6372,"present":6373,"##_differentiable":6374,"__set":6375,"tail":6376,"w1":6377,"##_one":6378,"##fy":6379,"ints":6380,"##############":6381,"##install":6382,"cols":6383,"suffix":6384,"(`":6385,"xla":6386,"##_warn":6387,"padt":6388,"dependency":6389,"255":6390,"##uffix":6391,"rsqrt":6392,"</":6393,"}`":6394,"\"\"\".":6395,"##oss":6396,"##timeout":6397,"bounds":6398,"nested":6399,"4d":6400,"criterion":6401,"##iod":6402,"abst":6403,"55":6404,"_export":6405,"m_p":6406,"##bf":6407,"##stmt":6408,"##aclass":6409,"testn":6410,"##_bind":6411,"batches":6412,"##_builtin":6413,"##qualstring":6414,"##queeze_":6415,"##implement":6416,")''":6417,"domain":6418,"##fuser":6419,"##_insert":6420,"working":6421,"##equantize":6422,")/":6423,">);":6424,"127":6425,"##mutex":6426,"last_epoch":6427,"`:":6428,"ey":6429,"interm":6430,"##adap":6431,"test_variant":6432,"addcmul":6433,"includes":6434,"t28":6435,"calle":6436,"invok":6437,"##_cu100":6438,"##override":6439,"compatible":6440,"test_variant_consistency":6441,"micro":6442,"##pass":6443,"##ugin":6444,"##x3":6445,"##zer":6446,"##etemplate":6447,"shell":6448,"src2":6449,"logits":6450,"image_":6451,"##e_helper":6452,"complete":6453,"templates":6454,"thcstate_getcurrentstream":6455,"is_leaf":6456,"modify":6457,"##command":6458,"##ikely":6459,"##wap":6460,"thdoublevector":6461,"act":6462,"target_link_libraries":6463,")`.":6464,"compare_":6465,"_prepar":6466,"45":6467,"fwd":6468,"x_q":6469,"##rames":6470,"##ites":6471,"indent":6472,"##_buffers":6473,"depending":6474,"scalar_type_":6475,"observ":6476,"represents":6477,"a_dequant":6478,"millis":6479,"##gb":6480,"##e_cpu":6481,"')),":6482,"##buf":6483,"##_transpos":6484,"manually":6485,"contained":6486,"writer":6487,"regular":6488,"##policy":6489,"planes":6490,"nativefunction":6491,"##31":6492,"##_sampl":6493,"(((":6494,"##ed_args":6495,"very":6496,"##recated":6497,"skip_if_no":6498,"finally":6499,"##integer":6500,"##_elements":6501,"##book":6502,"##bilinear":6503,"thus":6504,"elimin":6505,"gradbias":6506,"caffe2_py":6507,"##buff":6508,"cosh":6509,"]}":6510,"xs":6511,"##9_":6512,"##_cxx":6513,"suppress":6514,"index_t":6515,"##_cls":6516,"prepare_custom_config_dict":6517,"##e_mean":6518,"n1":6519,"##udio":6520,"##_device_map":6521,"##library":6522,"identity":6523,"predictor":6524,"##flatten":6525,"##_major":6526,"pfn_vk":6527,"gl":6528,"ic":6529,"##uch":6530,"##nected":6531,"##94":6532,"##reate":6533,"graph_debug":6534,"##aching":6535,"##encv":6536,"getmutable":6537,"##task":6538,"##74":6539,"##algorithm":6540,"seen":6541,"##_filter":6542,"hardswish":6543,"sccache":6544,"##_order":6545,"##_entropy":6546,"##andcast":6547,"reciprocal":6548,"fc1":6549,"##_keys":6550,"timedelta":6551,"baddbmm":6552,"nr":6553,"##ique_":6554,"torchvision":6555,"strong":6556,"##535":6557,"\\\"":6558,"}'":6559,"##ism":6560,"adam":6561,"##_rate":6562,"&&...":6563,"mini":6564,"appear":6565,"##qualified":6566,"copied":6567,"ip":6568,"t0":6569,"##dk":6570,"##warning":6571,"##bef":6572,"##enet":6573,"##step":6574,"writing":6575,"numeric_limits":6576,"ideep":6577,"draw":6578,"##core":6579,"##fak":6580,"##ingle":6581,"retry":6582,"assert_autodiff":6583,"major":6584,"roi":6585,"deleg":6586,"failure":6587,"sequences":6588,"supports_forward_ad":6589,"expand_as":6590,"__m128":6591,"execute":6592,"&)::<":6593,"assert_autodiffed":6594,"bwd":6595,"cus":6596,"pixel":6597,"##_c10":6598,"##aging":6599,"assertgradient":6600,"##odevic":6601,"##cratch":6602,"##astic":6603,"t29":6604,"##_storeu":6605,"eigenvectors":6606,"assertgradientchecks":6607,"_dim":6608,"fa":6609,"##ed_inputs":6610,"forget":6611,"##_byt":6612,"output_tensor":6613,"add_op":6614,"ra__":6615,"random_":6616,"##_jacobian":6617,"propagate":6618,"combined":6619,"##_bn":6620,"output_data":6621,"num_batches":6622,"submodules":6623,"stored":6624,"##_pret":6625,"#################################################################":6626,"__g":6627,"around":6628,"fatal":6629,"mag":6630,"input_t":6631,"##_random":6632,"resulting":6633,"decode":6634,"passing":6635,"##_func_num_test_elements":6636,"##_epi":6637,"slices":6638,"vsx_func_num_test_elements":6639,"timestep":6640,"duplic":6641,"li":6642,"##dispatch":6643,"torch_type":6644,"test_shape":6645,"true_":6646,"anaconda":6647,"##_struct":6648,"key_type":6649,"triu":6650,"_re":6651,"__hip":6652,"##bas":6653,"##69":6654,"conv_transpose":6655,"_cuda":6656,"starting":6657,"##attr__":6658,"binary_linux_test":6659,"tuples":6660,"updated":6661,"---------------":6662,"solve":6663,"##cel":6664,"##fier":6665,"tobool":6666,"##functional":6667,"vma_null":6668,"sparse_dim":6669,"powersgd":6670,"expanded":6671,"executable":6672,"macos":6673,"masked_fill":6674,"splits":6675,"##lices":6676,"##enames":6677,"##url":6678,"##_dropout":6679,"skipped":6680,"flake":6681,"probab":6682,"properly":6683,"subtree":6684,"abstract":6685,"[=":6686,"il":6687,"q_per_channel":6688,"##_lu":6689,"##_vector":6690,"{}),":6691,"\"]),":6692,"setuptools":6693,"axes_i":6694,"strategies":6695,"handler":6696,"return_inverse":6697,"overflow":6698,"integral":6699,"extensions":6700,"codetemplate":6701,"sample_inputs_":6702,"nkernel":6703,"won":6704,"##ataset":6705,"##inity":6706,"builds":6707,"written":6708,"##estring":6709,"vsx_perf":6710,"vsx_perf_num_test_elements":6711,"##bits":6712,"##_perm":6713,"##_wrap":6714,"set_type":6715,"thc_real_is":6716,"##strides":6717,"index_select":6718,"##ermiti":6719,"vma_assert":6720,"flattened":6721,"absolute":6722,"ellipsis":6723,"##ermitian":6724,"mid":6725,"output_names":6726,"##ed_sequence":6727,"##_enforce":6728,"errorreport":6729,"images":6730,"wraps":6731,"##_override":6732,"magma_int":6733,"closure":6734,"bat":6735,"gra":6736,"##x1":6737,"##int32":6738,"profile":6739,"extra_args":6740,"labels":6741,"annotations":6742,"\"{}":6743,"(\\":6744,"/=":6745,"h0":6746,"}\\":6747,"##52":6748,"##update":6749,"nonlinear":6750,"assert_array":6751,"##_here":6752,"=\"${":6753,"##_gpus":6754,"##items":6755,"smooth":6756,"##_generator":6757,"foreach_tensor":6758,"desired_python":6759,"pretrained":6760,"=%":6761,"]::<":6762,"dnnlowp":6763,"fname":6764,"schem":6765,"##_aten":6766,"##dynamic":6767,"##atype_":6768,"##_small":6769,"##_begin":6770,"device_count":6771,"prelu":6772,"allreduc":6773,"##ongtensor":6774,"vec1":6775,"t30":6776,"layer_norm":6777,"]()":6778,"_dist":6779,"##econv":6780,"##ephole":6781,"constra":6782,"##maxpooling":6783,"packedsequence":6784,"[&]()":6785,"##_warnings":6786,"'-":6787,"39":6788,"ps":6789,"##rod":6790,"##ubuntu":6791,"}))":6792,"vmaallocator":6793,"sinh":6794,"isnone":6795,"precisionoverride":6796,"thputils":6797,"mfself":6798,")+":6799,"zer":6800,"##_use":6801,"##04":6802,"##_inc":6803,"##iple":6804,"numinputs":6805,"structure":6806,"##device_":6807,"axis_i":6808,"fields":6809,"observers":6810,"smaller":6811,"linspace":6812,"response":6813,"##algo":6814,"model_ddp":6815,"instancenorm":6816,"decomp":6817,"pred_net":6818,"provides":6819,"##_use_":6820,"include_directories":6821,"_build_tensor":6822,"__torch":6823,"##onent":6824,"##_skip":6825,"cudnn_convolution":6826,"agent":6827,"##_test_util":6828,"##atives":6829,"lookup":6830,"fro":6831,"fals":6832,"##_ws":6833,"##cudastream":6834,"##blocks":6835,"##ickle":6836,"##infer":6837,"##_ldflags":6838,"test_inplace_":6839,"as_strided":6840,"##agetype":6841,"##extra":6842,"##abletensor":6843,"matching":6844,"##_arguments":6845,"processgroupgloo":6846,"magma_int_t":6847,"##ha":6848,"##ni":6849,"test_tensor":6850,"enti":6851,"##properties":6852,"period":6853,"reduced":6854,"##_recv":6855,"##_require":6856,"get_all_dtypes":6857,"guar":6858,"tau":6859,"##usiveptrtest":6860,"&>(":6861,":])":6862,"xz":6863,"##_omp":6864,"##_cross":6865,"addcdiv":6866,"num_samples":6867,"c10_api":6868,">>::":6869,"##_token":6870,"recomm":6871,"rnncell":6872,"dynamic_cast":6873,"exponential":6874,"kth":6875,"##inl":6876,"##ested":6877,"##_port":6878,"trusty":6879,"dim_in":6880,"graph_module":6881,"').":6882,"##filter":6883,"##_node_names":6884,"disable_":6885,"##_traced":6886,".]":6887,"##putensor":6888,"nondet":6889,"getter":6890,"}},":6891,"cached":6892,")\";":6893,"rpc_backend_options":6894,"_empty_affine_quantized":6895,"##eased":6896,"##insert":6897,"in_pl":6898,"##child":6899,"inputwidth":6900,"nn_module":6901,"(['":6902,"store_":6903,"##_then":6904,"seek":6905,"##operation":6906,"framework":6907,"##tern":6908,"##38":6909,"stable":6910,"##ypoint":6911,"##_dens":6912,"##ader":6913,"addmv":6914,"why":6915,"modelhelper":6916,"##_rep":6917,"fn_name":6918,"version_info":6919,"t31":6920,"related":6921,"capt":6922,"merge":6923,"##ottom":6924,"##marginloss":6925,"##rnn":6926,"##elike":6927,"##_inl":6928,"##emax":6929,"importer":6930,"addition":6931,"caffe2_cpu":6932,"##umprod":6933,"##cc__":6934,"add_docstr_all":6935,"vmad":6936,"unless":6937,"machine":6938,"guarant":6939,"\"\",":6940,"57":6941,"home":6942,"slot":6943,"tv":6944,"##debug":6945,"##-----+":6946,"nnapi":6947,"contents":6948,"##_cont":6949,"pad_t":6950,"##_clamp":6951,"distributions":6952,"##sampling":6953,"(#":6954,"w_q":6955,"{:":6956,"##full":6957,"thpp":6958,"()}":6959,"##tensorimpl":6960,"assertnot":6961,"cause":6962,"creating":6963,"method_tests":6964,"defined_if":6965,"##item__":6966,"##_multipl":6967,"circle_":6968,"luat_get":6969,"\\/":6970,"xml":6971,"##uv":6972,"##dd":6973,"formul":6974,"##epend":6975,"normalize":6976,"calib":6977,"messages":6978,"x86_64":6979,"eye":6980,"<::":6981,"##utor":6982,"reshap":6983,"kernel_h":6984,"##_scales":6985,"memo":6986,"foreach_bin_op":6987,"__constant":6988,"line_":6989,"()\",":6990,"##_counter":6991,"tril":6992,"##ible_":6993,"addbmm":6994,"func_t":6995,"net_def":6996,"sparse_coo_tensor":6997,"##_file_":6998,"gcc5":6999,"safe":7000,"##////////////////////////////////":7001,"mangle":7002,"##nu":7003,"##ba":7004,">(&":7005,"##_src_dir":7006,"recursiv":7007,"trigger":7008,"turn":7009,"##wait":7010,"##_rnd":7011,"##s_a":7012,"##_buf":7013,"export_params":7014,"##_algo":7015,"entries":7016,"nll_loss":7017,"milliseconds":7018,"n2":7019,"##fp16":7020,"kernel_w":7021,"binary_op":7022,"##_numel":7023,"##owner":7024,"##owned":7025,"annotated":7026,"calculate_":7027,"=====":7028,"__l":7029,"g2":7030,"pid":7031,"sn":7032,"torch_library":7033,"##ceed":7034,"thcudatensor_data":7035,"=['":7036,"leaf":7037,"##_avx":7038,"test_cases":7039,"([[[":7040,"reference_fn":7041,"instruction":7042,"##herit":7043,"##_pretty":7044,"\\/.*/":7045,"padded":7046,"conver":7047,"force":7048,"shift":7049,"##mayb":7050,"##_stub":7051,"settype":7052,"##const":7053,"##ayload":7054,"*/,":7055,"differenti":7056,"bufs":7057,"repos":7058,"test_util":7059,"##callbacks":7060,"update_":7061,"##_profiling":7062,"##implemented":7063,"luat_getfield":7064,"vide":7065,"##ially":7066,"##_feat":7067,"newwith":7068,"result_":7069,"symmetric":7070,"problem":7071,"vmab":7072,"##../../":7073,"communication":7074,"rather":7075,"##_fusion":7076,"##_benchmark":7077,"##ived":7078,"index_":7079,"##_variable_":7080,"debugname":7081,"buckets":7082,"uniform_":7083,"predict_net":7084,"specifying":7085,"cudamemcpy":7086,"luat_getfieldcheck":7087,"5000":7088,"_modules":7089,"##xim":7090,"##inplace":7091,"##itect":7092,"to_here":7093,"##_vol":7094,"##_implement":7095,"##ocation":7096,"##_throw":7097,"multiplier":7098,"metric":7099,"qparam":7100,"rh":7101,"##_other":7102,"##inline":7103,"##stest":7104,"sizeaverage":7105,"grad_out":7106,"##_handle_":7107,"creation":7108,"##propag":7109,"abi":7110,"preprocess":7111,"vkresult":7112,"itemsize":7113,"##network":7114,"##edium":7115,"##_class__":7116,"fixme":7117,"encod":7118,"tcpstore":7119,"manual_seed":7120,"test_variant_consistency_jit":7121,"srop":7122,"##_agent":7123,"##kw":7124,"##edict":7125,"deb":7126,"##_linalg":7127,"error_msg":7128,"transport":7129,"having":7130,"flake8":7131,"__constants__":7132,".')":7133,"47":7134,"_load":7135,"##nll":7136,"##54":7137,"##arily":7138,"##itest":7139,"##_latency":7140,"space":7141,"##quantized_":7142,"multiply":7143,"singular":7144,"traceback":7145,"##_external":7146,"batchnorm2d":7147,"##_freq":7148,"cmake_current_source_dir":7149,"'(":7150,"_backend":7151,"ear":7152,"##)(":7153,"defines":7154,"set_name":7155,"##_short":7156,"flip":7157,"buf_data":7158,"mymodule":7159,"num_embeddings":7160,"catch_require":7161,"symbolicvariable":7162,"_medium":7163,"##_root_dir":7164,"policy":7165,"t32":7166,"##length":7167,"##alias":7168,"##_supported":7169,"##tivemax":7170,"exported":7171,"catchall":7172,"quantize_linear":7173,"comparison":7174,"flow":7175,"rule":7176,"##_4":7177,"##eline":7178,"##_dump":7179,"##ote":7180,"##_bfloat16":7181,"##_option":7182,"embeddingbag":7183,"recordfunction":7184,"is_sparse":7185,"##ilo":7186,"##_mkl":7187,"##abi":7188,"=[\"":7189,"quantizationtestcase":7190,"converted":7191,"itself":7192,"##_subgraph":7193,"replaceall":7194,"poly":7195,"##utorial":7196,"_functions":7197,"few":7198,"##pickler":7199,"things":7200,"##e_tensor":7201,"out_features":7202,"build_ext":7203,"buf_dims":7204,"buf_dtypes":7205,"buf_ranks":7206,"##nextline":7207,"nonlinearity":7208,"bufs_num":7209,"_size":7210,"}:":7211,"##*.":7212,"##imal":7213,"run_cuda":7214,"thcnumerics":7215,"scalarconvert":7216,"expects":7217,"]]]":7218,"color":7219,"##_observers":7220,"ggi":7221,"##_double_backward":7222,"_utils":7223,"xav":7224,"##_raw":7225,"##_success":7226,"),))":7227,"maxpool2d":7228,"##oscalar":7229,"##_fns":7230,"##ondet":7231,"testsparse":7232,"tmp_dir":7233,"aliasanalysiskind":7234,"tolerance":7235,"nolintnextline":7236,"d1":7237,"input_fn":7238,"##_fft":7239,"##omment":7240,"imported":7241,"travis":7242,"##_properties":7243,"software":7244,"##_04":7245,"##byte":7246,"##datapipe":7247,"fig":7248,"r_scale":7249,"##_free":7250,"##irect":7251,"##_larg":7252,"subset":7253,"##ave_":7254,"##_devices":7255,"r_zero_point":7256,"##_devtoolset7_nightly_build":7257,"_make_tensor":7258,"instantiate_":7259,"hardsigmoid":7260,"owninggraph":7261,"##andcastle":7262,"99":7263,"word":7264,"##edges":7265,"##tensortype":7266,"progress":7267,"outputs_with":7268,"dst_bin":7269,"active_":7270,"_unimplemented":7271,"##_accgradparameters":7272,"#############################################################################":7273,"'--":7274,"_default":7275,"face":7276,"##date_":7277,"modified":7278,"##_outs":7279,"conv3":7280,"##ached":7281,"##_pointer":7282,"particular":7283,"calculate":7284,"edge":7285,"##_requires_grad":7286,"'\"":7287,"---":7288,"cer":7289,"##2f":7290,"##qat":7291,"thgenerate":7292,"##_standalone_":7293,"checked":7294,"weighted":7295,"##worker":7296,"##request":7297,"synchronize":7298,"happen":7299,"_sh":7300,"u00":7301,"##counter":7302,"##_win":7303,"state_":7304,"vectorized":7305,"file_name":7306,"make_arg":7307,"##quantd":7308,"##variant":7309,"##_module_mapping":7310,"ccache":7311,"tupletype":7312,"\"})":7313,"ctypes":7314,"##_arr":7315,"##dec":7316,"to_expand":7317,"##times":7318,"operator_schema":7319,"quantized_graph":7320,"'].":7321,"loading":7322,"fails":7323,"##_mutex":7324,"={},":7325,"embed_dim":7326,")',":7327,"49":7328,"__class__":7329,"ks":7330,"##nv":7331,"##name_":7332,"##_pol":7333,"))))":7334,"arbit":7335,"padding_idx":7336,"counts":7337,"##_runner":7338,"largest":7339,"##_buckets":7340,"##_libtorch_2":7341,"replacealluses":7342,".\",":7343,"ctc":7344,"wd":7345,"three":7346,"##ignor":7347,"log_prob":7348,"file_":7349,"operand":7350,"assumes":7351,"dst_worker_name":7352,"##_ar":7353,"destruct":7354,"exe":7355,"important":7356,"check_batched":7357,"##e_dist":7358,"##verse_":7359,"##_regex":7360,"noderef":7361,"hardshrink":7362,"headers":7363,"##lasterror":7364,"test_reference_numerics":7365,"facebook":7366,"(:":7367,"termin":7368,"##ms":7369,"##sizes":7370,"torch_src_dir":7371,"test_script":7372,"almostequal":7373,"single_":7374,"macros":7375,"win32":7376,"_variable":7377,"i0":7378,"p2":7379,"tw":7380,"##m1":7381,"##ividual":7382,"cuda_nvcc":7383,"grad_weight":7384,"]));":7385,"##_uniform":7386,"larger":7387,"sroperator":7388,"##fallback":7389,"##acing":7390,"##_cmake_":7391,"##_fallback":7392,"##tensordescriptor":7393,"dim0":7394,"##errors":7395,"delet":7396,"weak_intrusive_ptr":7397,"##e_mask":7398,"##_extensions":7399,"increment":7400,"__torch__":7401,"##_cross_entropy":7402,"dag":7403,"lgamma":7404,"tname":7405,"##_rows":7406,"##_khr":7407,"extra_ldflags":7408,"##_source_":7409,"##_compiler":7410,"##ataloader":7411,"parametrization":7412,"pickle_module":7413,"##olog":7414,"##$(":7415,"##_des":7416,"input_dims":7417,"getsize":7418,"##cons":7419,"newcontiguous":7420,"onlycpu":7421,"##_strides":7422,"vkapi":7423,"##\"\"\"\"\"\"\"\"":7424,"kwarg_only":7425,"##segment":7426,"cudagetlasterror":7427,"test_fn":7428,"##_rhs":7429,"##builtin":7430,"printf":7431,"t33":7432,"##etry":7433,"resizeas":7434,"##_device_types":7435,"##analy":7436,"tensorpipeagent":7437,"##executor":7438,"h1":7439,"mock":7440,"scratch":7441,"ww":7442,"##handl":7443,"##ales":7444,"##ific":7445,"elapsed":7446,"actions":7447,"vars":7448,"find_package":7449,"##_add_":7450,"volatile":7451,"##_remote_":7452,"standalone_":7453,"##_nelement":7454,"caller":7455,"split_size":7456,"performs":7457,"##ategorical":7458,"torch_selective_schema":7459,"`).":7460,"w_h":7461,"##iffer":7462,"non_differentiable":7463,"##clusive":7464,"##ache_":7465,"##_gener":7466,"described":7467,"pytuple_get":7468,"u001b":7469,"alex":7470,"fak":7471,"mv":7472,"##value_":7473,"##_opset_version":7474,"##_to_check":7475,"##ed_kernel":7476,"detail_":7477,"pooled":7478,"##_cu90":7479,"instructions":7480,"test_inplace_grad":7481,"cand":7482,"d_":7483,"ist":7484,"pers":7485,"pallocation":7486,"##_serial":7487,"##udata":7488,"is_tensor":7489,"##ification":7490,"get_world_size":7491,"##spaces":7492,"overlap":7493,"collective":7494,"hxw":7495,"preserve":7496,"_add_docstr":7497,"determine":7498,"configuration":7499,"invoke":7500,"\"});":7501,"w_quant":7502,"##nightly":7503,"##udf":7504,"unexpected":7505,"##_parent":7506,"##resh":7507,"implementations":7508,"allow_inf":7509,".\";":7510,"##_distribut":7511,"##column":7512,"nbytes":7513,"miniconda3":7514,"##qualified_name":7515,"replacealluseswith":7516,"kint":7517,"lan":7518,"qmax":7519,"##padding":7520,"##65":7521,"##arwin":7522,"::=":7523,"##_writ":7524,"##_handl":7525,"##blobs":7526,"##_build_defaults":7527,"avg_pool2d":7528,"##importer":7529,"##achingallocator":7530,"fo":7531,"rrelu":7532,"##pip":7533,"##top":7534,"##zip":7535,"##idelines":7536,"##pri":7537,"dist_autograd":7538,"size_type":7539,"able":7540,"pad_l":7541,"backwards":7542,"makeargument":7543,"difference":7544,"treeref":7545,".\\":7546,"ng":7547,"##ide_":7548,"token":7549,"##_folder":7550,"operands":7551,"##_module_class":7552,"executed":7553,"annotate":7554,"sorted_indices":7555,"formals":7556,";);":7557,"cost":7558,"istensor":7559,"sil":7560,"v10":7561,"##uage":7562,"##_row":7563,"##bucket":7564,"##or__":7565,"##_ctx":7566,"asan":7567,"stdv":7568,"trip":7569,"##_h_":7570,"##_cuda_arch":7571,"uplo":7572,"trying":7573,"sampling":7574,"##_padding_mask":7575,"##_executor":7576,"##cope":7577,"##zp":7578,"##_suffix":7579,"##oolop":7580,"}).":7581,"2019":7582,"##ource":7583,"##erializer":7584,"##_paths":7585,"intrinsic":7586,"prefetch":7587,"pytorch_linux_xenial_cuda":7588,"##_precision":7589,"r1":7590,"sse":7591,"##pt":7592,"##ians":7593,"##tre":7594,"##07":7595,"##_fx":7596,"gettensor":7597,"parts":7598,"statistic":7599,"weight_ih":7600,"thpvariable":7601,"interf":7602,"skip_if_rocm":7603,"po":7604,"sized":7605,"##_allocation":7606,"##ga":7607,"subclass":7608,"thcudal":7609,"##iddens":7610,"##logdet":7611,"##_named_tensor":7612,"getcurrentcudastream":7613,"kthvalue":7614,"da":7615,"ls":7616,"per_channel":7617,"rot":7618,"ranges":7619,"##flag":7620,"##8e":7621,"##edicated":7622,"##_sse":7623,"##_wait":7624,"operatorexport":7625,"defaultdict":7626,"##ordin":7627,"##floattypes":7628,"warp":7629,"aliases":7630,"##integral":7631,"##e_name_to":7632,"operatorexporttypes":7633,"03":7634,"cblas":7635,"##mock":7636,"##hing":7637,"##nuc":7638,"##ims":7639,"inputheight":7640,"##otest":7641,"pytest":7642,"deviceguard":7643,"get_":7644,"enough":7645,"##ording":7646,"init_process_group":7647,"plac":7648,"##sumexp":7649,"##arraymap":7650,"##pointer":7651,"feature_":7652,"##econtext":7653,"##_registration":7654,"tensorboard":7655,"##putensorid":7656,"assertnotequal":7657,"i1":7658,"literal":7659,"osize":7660,"##_case":7661,"assert_equal":7662,"comment":7663,"##per_channel":7664,"##lower":7665,"according":7666,"dont":7667,"##_expected":7668,"##_when":7669,"##_accumul":7670,"dedent":7671,"##e_casts":7672,"alexnet":7673,"\"}":7674,"]`":7675,"d0":7676,"hermitian":7677,"session":7678,"##_axes":7679,"thcr":7680,"##_tmp":7681,"tried":7682,"argc":7683,"##e_case":7684,"_cpu":7685,"storageoffset":7686,"t34":7687,"##normal":7688,"adjust":7689,"thgeneratefloattypes":7690,"kl":7691,"xc":7692,"standal":7693,"##iled":7694,"##_sig":7695,"graph_for":7696,"##_reg":7697,"per_sample_weights":7698,"warmup":7699,"##doubl":7700,"##_command":7701,"##_jobs":7702,"_triple":7703,"t_":7704,"x_scale":7705,"##_f32":7706,"##_inline":7707,"caffe_cuda":7708,"scalar_tensor":7709,"operatorhandle":7710,"convrelu":7711,"specifies":7712,"ddp_model":7713,"##status":7714,"packed_params":7715,":\\\\":7716,"hub":7717,"pkl":7718,"r2":7719,"renorm":7720,"v11":7721,"w_zero_point":7722,"w_ih":7723,"##ont":7724,"inherit":7725,"thindextensor":7726,"##ecopy":7727,"typeid":7728,"2017":7729,"scop":7730,"_fl":7731,"completed":7732,"elem_type":7733,"##released":7734,"appropri":7735,"caffe_cuda_num_threads":7736,"w_hh":7737,"##p32":7738,"##lines":7739,"##cipy":7740,"thstorage_":7741,"##opies":7742,"##apitest":7743,"resiz":7744,"whole":7745,"##ostic":7746,"cudnn8":7747,"device_id":7748,"##gine_":7749,"auton":7750,"_thnn":7751,"##ussian":7752,"59":7753,"_parameters":7754,"hy":7755,"lab":7756,"##_top":7757,"##ently":7758,"##_pred":7759,"##ething":7760,"##16_04":7761,"generates":7762,"##_scripting":7763,"##999":7764,"##_caller":7765,"clang5":7766,"seq_lengths":7767,"##subgraph":7768,"\"\");":7769,"pretty":7770,"at_dispatch_all_types_and_complex":7771,"##ubuntu16_04":7772,"active_if":7773,"arbitrary":7774,"07":7775,"53":7776,"sec":7777,"##pec":7778,"inttensor":7779,"caffe":7780,"##_lib_dir":7781,"zero_points":7782,"##codegen":7783,"concaten":7784,"##_specialized":7785,"'}":7786,"48":7787,"]``":7788,"es":7789,"##mdb":7790,"##7m":7791,"##qparam":7792,"##><":7793,"##udget":7794,"nothing":7795,"cppcore":7796,"##guidelines":7797,"##oxes":7798,"##lope":7799,"prob_dist":7800,"hypothesis_test_util":7801,"peephole":7802,"##_cudnn7":7803,"pivots":7804,"##_dependency":7805,"candid":7806,"cppcoreguidelines":7807,"qat":7808,"##otion":7809,"##lots":7810,"##_sq":7811,"##imag":7812,"##_close":7813,"##_create_":7814,"##aps":7815,"##_fuser":7816,"##cale_factor":7817,"weight_hh":7818,"*/)":7819,"insertconstant":7820,"##_callback":7821,"##e_hook":7822,"##_results":7823,"serializedtestcase":7824,"()>’":7825,"##targetaddress":7826,"floating_and_complex_types":7827,"processednode":7828,"##li":7829,"##nist":7830,"##ulate":7831,"##uction":7832,"caffe2_linux":7833,"##printer":7834,"##s_and":7835,"]]:":7836,"vk_false":7837,"thpstorage_":7838,"remaining":7839,"##_generic_file":7840,",%":7841,"pwd":7842,"##fus":7843,"##bc":7844,"in_c":7845,"##els":7846,"stubs":7847,"##typeptr":7848,"relu6":7849,"prevent":7850,"probability":7851,"safe_casts":7852,"##_include_dirs":7853,"doubles":7854,"adaptive_avg_pool2d":7855,"safe_casts_outputs":7856,"300":7857,"^^^^^^^^^^^^^^^^^":7858,"_output":7859,"aws":7860,"cr":7861,"qlinear":7862,"vlog":7863,"y_scale":7864,"##kit":7865,"in_features":7866,"is_scripting":7867,"arg_name":7868,"argparse":7869,"##_contain":7870,"libc":7871,"registr":7872,"##2019":7873,"##e_last":7874,"##undled":7875,"ldb":7876,"cleanup":7877,"}{\\":7878,"www":7879,">)":7880,"_st":7881,"_assert":7882,"cumprod":7883,"tutorial":7884,"x_unique":7885,"y_standard":7886,"##ecomm":7887,"##asz":7888,"##_de":7889,"##_ctor":7890,"allgather":7891,"log2":7892,"registry":7893,"negative_":7894,"##ectively":7895,"##most_equal":7896,"##_operand":7897,"##_gcc7":7898,"##_folding":7899,"resourcesreleased":7900,"language":7901,"[=](":7902,"b_hh":7903,"v12":7904,"##light":7905,"##tf":7906,"##110":7907,"##oncpu":7908,"in2":7909,"##oll":7910,"test_b":7911,"##_cpu_only":7912,"binary_cross_entropy":7913,"filestore":7914,"memcpy":7915,"##_operator_functor":7916,"going":7917,"##_symbolic":7918,"atan2":7919,"##greater":7920,"##entrant":7921,"##_keep":7922,"num_s":7923,"src_data":7924,"func_name":7925,"##_propag":7926,"varhandle":7927,"ones_like":7928,"equal_nan":7929,"##quantizehandler":7930,"min_vals":7931,"##_host_device":7932,"slowtest":7933,"invoked":7934,"##_standalone_module":7935,")\")":7936,":$":7937,"##_amd":7938,"##rep":7939,"##exit":7940,"##adow":7941,"test_all":7942,"#####":7943,"##tojit":7944,"##_partition":7945,"current_device":7946,"sample_inputs_linalg":7947,"##_optimizer":7948,"mutex_":7949,"pointertojit":7950,"preserved":7951,"analysis":7952,"caffe2_py2":7953,"pointertojittargetaddress":7954,"b_ih":7955,"ges":7956,"return_value_":7957,"arg_op":7958,"prof":7959,"##ssum":7960,"make_tuple":7961,"insertquantd":7962,"detected":7963,"top_env":7964,"resource":7965,"##_registry":7966,"##benchmarkbase":7967,"quantizehandler":7968,"_observerbase":7969,"##engines":7970,"outputs_with_grads":7971,"##alesce":7972,"return_value_policy":7973,"06":7974,"fall":7975,"payload":7976,"y_optimized":7977,"==(":7978,"fromqualstring":7979,"variance":7980,"libs":7981,"log10":7982,"register_operator_functor":7983,"t35":7984,"##embed":7985,"num_rows":7986,"##ancy":7987,"simplify":7988,"##packedparams":7989,"\"[]":7990,"65535":7991,"t_co":7992,"##8bit":7993,"##alpha":7994,"studio":7995,"max_un":7996,"script_module":7997,"context_id":7998,"per_tensor":7999,"##oci":8000,"rois":8001,"wrap_functional":8002,"prepared":8003,"##_wrapper_load":8004,"assumed":8005,"##_diag":8006,"propagate_":8007,"constraints":8008,"catchallkernel":8009,"thcudalongtensor":8010,"`'":8011,"geq":8012,"ny":8013,"qmin":8014,"##_10":8015,"##orig":8016,"##stand":8017,"##gradcheck":8018,"##_vis":8019,"skipping":8020,"##_to_all":8021,"##objectptr":8022,"thpobjectptr":8023,"##_clone":8024,"##_batchnorm":8025,"quant_type":8026,"##traits":8027,"vulkan_symbol":8028,"visitor":8029,"##estrict":8030,"finished":8031,"##obile_":8032,"vulkan_symbol_wrapper_load":8033,"_aten":8034,"|=":8035,"##lr":8036,"##se_":8037,"##iss":8038,"proc":8039,"listconstruct":8040,"skiptest":8041,"cudad":8042,"irange":8043,"eigenvalues":8044,"freez":8045,"repeats":8046,"__call":8047,"v5":8048,"##mac":8049,"##alg":8050,"thstorage":8051,"tensor_name":8052,"intel":8053,"inttype":8054,"##opinfo":8055,"tensorshape":8056,"##_look":8057,"something":8058,"mutable":8059,"deleter":8060,"coverage":8061,"##modelhelper":8062,"simply":8063,"references":8064,"experimental":8065,"_generator":8066,"d2":8067,"wno":8068,"##_abs":8069,"##div":8070,"##yaml":8071,"##_push":8072,"##_frame":8073,"whose":8074,"##_test_name":8075,"##e_devic":8076,"##_shards":8077,"device_index":8078,"##_unique_":8079,"beginning":8080,"##_script_module":8081,"upsampl":8082,"scale_grad":8083,"_new":8084,"##bytetensor":8085,"_make_tensor_helper":8086,"__call__":8087,"syn":8088,"}\",":8089,"##nostic":8090,"##front":8091,"##enn":8092,"##_sz":8093,"##_gt":8094,"chang":8095,"onlycuda":8096,"modulelist":8097,"##_compar":8098,"insertnode":8099,"worker1":8100,"##number":8101,"##_declarations":8102,"##atortest":8103,"xavier":8104,"assertgreater":8105,"##obs":8106,"combin":8107,"graph_dump":8108,"indexed":8109,"debugging":8110,"grad_outputs":8111,"##!!!!":8112,"mr":8113,"##ert":8114,"shutil":8115,"importerror":8116,"##_as_bucket":8117,"supports_inplace_":8118,")})":8119,"gcs_cpu_only":8120,"temporal":8121,"scale_grad_by":8122,"##_as_bucket_view":8123,"supports_inplace_autograd":8124,"%\"":8125,"43":8126,"96":8127,"\\'":8128,"##_err":8129,"##global":8130,"##5d":8131,"is_quantized":8132,"##_fast":8133,"##typeindex":8134,"output_ratio":8135,"##eget":8136,"##wood":8137,"openmp":8138,"replaced":8139,"adaptiveavg":8140,"formula":8141,"figure":8142,"scale_grad_by_freq":8143,"##lapack":8144,"##urac":8145,"##43":8146,"##*,":8147,"##erwood":8148,"##action":8149,"##_fake_":8150,"##acklist":8151,"sherwood":8152,"from_schema":8153,"##_out_cuda":8154,"modellayer":8155,"all_gather":8156,"##_v3":8157,"##_engine":8158,"##_uns":8159,"##_scripts":8160,"##_avx2":8161,"##_overhead":8162,"external_input":8163,"moving":8164,"smoke_linux_test":8165,"tidy":8166,"_values":8167,"jav":8168,"vtensor":8169,"##1llu":8170,"self_name":8171,"##_squ":8172,">({":8173,"pytorch_windows":8174,"##e_dispatch":8175,"direction":8176,"##_almost_equal":8177,"master_port":8178,"tbl":8179,"##_module_name":8180,"composed":8181,"fractional_max":8182,"enable_if_t":8183,"r_dtype":8184,"##a0":8185,"int_tensor":8186,"##ubic":8187,"scaled":8188,"instances":8189,"_test_all":8190,"binary_windows":8191,"sizes_":8192,"storageorder":8193,"globals":8194,"rocm3":8195,"sleep":8196,"##_steps":8197,"at_dispatch_floating":8198,"compatibility":8199,"convtranspose2d":8200,"vmablock":8201,"bits":8202,"utf":8203,"##93":8204,"input_shape":8205,"##_moment":8206,"argmax":8207,"##_window":8208,"anything":8209,"##_py3_":8210,"utility":8211,"softplus":8212,"associ":8213,"pruning":8214,"##_module__":8215,"##dataset":8216,"c_":8217,"qc":8218,"##uous":8219,"##tos":8220,"##orary":8221,"testgradients":8222,"##_fun":8223,"getc":8224,"(\"\"\"":8225,"statements":8226,"pointers":8227,"##~~~~~~~~~~~~":8228,"serializeto":8229,"numel_":8230,"constructed":8231,"thnn_cud":8232,"binary_linux_upload":8233,"repeated":8234,"entrypoint":8235,"##aszke":8236,"serializetostring":8237,"_v":8238,"_packed":8239,"fur":8240,"fmt":8241,"oc":8242,"t_out":8243,"##_time_":8244,"##1st":8245,"##_per_":8246,"output_schema":8247,"getblob":8248,"cuda_home":8249,"individual":8250,"logit":8251,"random_symmetric":8252,"arrays":8253,"_single":8254,"##_pooling":8255,"##riangular":8256,"\"].":8257,"t36":8258,"parsed":8259,"packed_weight":8260,"calculated":8261,"##win32":8262,"thstensor_":8263,"denom":8264,"##_overhead_threshold":8265,"further":8266,"51":8267,"x3":8268,"##ls":8269,"##bs":8270,"##bound":8271,"##_slice":8272,"##umb":8273,"testc":8274,"grad_self":8275,"set_default":8276,"element_size":8277,"produce":8278,"##_idxs":8279,"good":8280,"##_chunk":8281,"epsilon_":8282,"##_constexpr":8283,"##weightedsum":8284,"pointwise0":8285,"##_definitions":8286,"##uchy":8287,"_in":8288,"__module__":8289,"lint":8290,"nam":8291,"rd":8292,"ins":8293,"##tid":8294,"##_bs":8295,"uninitialized":8296,"npos":8297,"cudnnconvolution":8298,"lu_data":8299,"##_overrid":8300,"##exporter":8301,"licens":8302,"signal_ndim":8303,"faster":8304,"everything":8305,"tensorpip":8306,"##_omp_overhead_threshold":8307,"##uracy":8308,"w0":8309,"x00":8310,"##_used":8311,"##73":8312,"##orun":8313,"##e_op":8314,"##_dtype_":8315,"elseif":8316,"logspace":8317,"scores":8318,"flush":8319,"##abledataset":8320,"hipify":8321,"##_deps":8322,"sparselengths":8323,"occurr":8324,"2e":8325,"_data":8326,"clock":8327,"hel":8328,"sides":8329,"##vt":8330,"##uite":8331,"##2nd":8332,"##insum":8333,"thvector":8334,"conc":8335,"##_cre":8336,"##_main":8337,"shuffle":8338,"nngraph":8339,"c10_host_device":8340,"caffe2_specialized":8341,"##prod":8342,">>&":8343,"detect":8344,"handling":8345,"async_op":8346,"separator":8347,"attn_mask":8348,"##eigen":8349,"callee":8350,":\"":8351,"tens":8352,"##a1":8353,"##eal":8354,"##cache":8355,"##/*":8356,"##ictions":8357,"tensor3":8358,"##evicetype":8359,"kernel_":8360,"##_unit":8361,"##_ones":8362,"_six":8363,"dcheck":8364,"##eak":8365,"##leg":8366,"return_counts":8367,"maint":8368,"##102":8369,"##_mode_":8370,"##_ids":8371,"div_":8372,"recording":8373,"test_scipy":8374,"xmm0":8375,"##_profiler":8376,"testopenglconv":8377,"##_lookup":8378,"a_cpu":8379,"ln":8380,"##less":8381,"##_ast":8382,"##none":8383,"##fx":8384,"##:,":8385,"##ite_":8386,"##ilities":8387,"return_type":8388,"test_add":8389,"##_nhwc":8390,"##trs":8391,"asserts":8392,"##connected":8393,"jitfuture":8394,"libnccl":8395,"##e_device":8396,"(*(":8397,"...]":8398,"##eldb":8399,"##_scalar_type":8400,"moved":8401,"representation":8402,"datapipe":8403,"##_reader":8404,"certain":8405,"statistics":8406,"67":8407,"]=":8408,"__cuda_arch":8409,"tie":8410,"v16":8411,"x_i":8412,"##seconds":8413,"##_com":8414,"as_tensor":8415,"##iven":8416,"add_subdir":8417,"##ablemock":8418,"valuearray":8419,"param_name":8420,"avx2":8421,"_mm_loadu":8422,"tupled_inputs":8423,"th_tensor_dim":8424,"native_functions":8425,"##_flat":8426,"##m_rocm3_":8427,"require_backend":8428,"add_subdirectory":8429,"\"--":8430,"}^":8431,"##rection":8432,"theref":8433,"##odes":8434,"##isson":8435,"c10_define_":8436,"contextlib":8437,"paddings":8438,"unitriangular":8439,"##withtype":8440,"throws":8441,"activations":8442,"display":8443,"##_seq":8444,"##errref":8445,"tasks":8446,"max_vals":8447,"##_gcc5_":8448,"##completed":8449,"therefore":8450,"br":8451,"##msg":8452,"##asing":8453,"returning":8454,"replace_":8455,"(\"${":8456,"##_hard":8457,"##cont":8458,"new_tensor":8459,"##etain":8460,"seem":8461,"col_offset":8462,"##_logits":8463,"namedvalue":8464,"lstmcell":8465,"##placement":8466,"##pad2d":8467,"floating_and_complex_types_and":8468,"intermediate":8469,"##kwargs":8470,")\\":8471,"*':":8472,"ct":8473,"darwin":8474,"##atible":8475,"##ypro":8476,"dem":8477,"toff":8478,"out_dims":8479,"),)),":8480,"##calcul":8481,"##efragmentation":8482,"##cond":8483,"##ed_encoder":8484,"##river":8485,"origin":8486,"##_kernel_launch":8487,"insertobservershelper":8488,"maintain":8489,"_h":8490,"sched":8491,"wi":8492,"##f8":8493,"##_ge":8494,"('.":8495,"##nnp":8496,"binaries":8497,"indices_":8498,"use_n":8499,"ndims":8500,"##_train":8501,"##_alpha":8502,"field_blobs":8503,"##_layout":8504,"##tifact":8505,"gates_t":8506,"baz":8507,"_medium_2d":8508,"38":8509,"i2":8510,"omit":8511,"rad":8512,"v7":8513,"##random":8514,"##kens":8515,"stft":8516,"##roke":8517,"##_pivot":8518,"{});":8519,"##matmul":8520,"values_to":8521,"blocking":8522,"threadpool":8523,"##_after":8524,"conditions":8525,"suite":8526,"ymm0":8527,"_convnd":8528,"##_datatype_":8529,"##-----+-----+":8530,"_cpu_types":8531,"nyi":8532,"_forward":8533,"##around":8534,"##iler":8535,"##_deta":8536,"output_zero_point":8537,"##floating":8538,"computing":8539,"use_g":8540,"##engthssum":8541,"observerbase":8542,"postnightly":8543,"grep":8544,"replication_pad":8545,"_prepare_":8546,"decompos":8547,"thcrandom":8548,"_indices":8549,"solution":8550,"y3":8551,"##pend":8552,"##aim":8553,"##58":8554,"##olved":8555,"##ometric":8556,"output_scale":8557,"included":8558,"src_":8559,"skipcud":8560,"##_forall":8561,"unsorted":8562,"threading":8563,"vma_call":8564,"##variabletype":8565,"##_overload":8566,"autodiff":8567,"seq_len":8568,"representing":8569,"derivative":8570,"valuetensor":8571,"much":8572,"##profiling":8573,"standalone":8574,"_valid":8575,"cputensorid":8576,"##_elem":8577,"stroke":8578,"##loy":8579,"##serial":8580,"rebuild":8581,"views":8582,"supports_named_tensor":8583,"drop_last":8584,"errno":8585,"capture":8586,"probably":8587,"54":8588,"nc":8589,"##poolop":8590,"##e6":8591,"##spars":8592,"##*`":8593,"##inement":8594,"##icubic":8595,"##_task":8596,"##andcuda":8597,"onlyoncpu":8598,"##_cuda_operator":8599,"##_lists":8600,"pads":8601,"##e_lr":8602,"##openmp":8603,"##etimes":8604,"unpacked":8605,"ignores":8606,"##_release":8607,"copies":8608,"onlyoncpuandcuda":8609,"##rans":8610,"##soft":8611,"##activ":8612,"##_invalid":8613,"classmethod":8614,"##testbase":8615,"##ideep":8616,"init_":8617,"blob_name":8618,"''.":8619,"positional":8620,"rele":8621,"##_block_size":8622,"fbgemm_linear":8623,"recursive":8624,"__getitem__":8625,"heap":8626,"successful":8627,"binary_linux_conda_3":8628,"thputils_unpack":8629,"/${":8630,"_reduction":8631,"bottom":8632,"dorun":8633,"xxx":8634,"##null":8635,"##invalid":8636,"##e_module":8637,"##ile_":8638,"testopinfo":8639,"##_native_":8640,"output_device":8641,"##2d_backward":8642,"##_directions":8643,"init_rpc":8644,"_size_":8645,"t37":8646,"fc2":8647,"##scnn":8648,"##_constant_folding":8649,"##~~~~~~~~~~~~~~~~~~~~~~~~~~~~~~~~":8650,"handled":8651,"##ocket":8652,"lineno":8653,"merged":8654,"discuss":8655,"##ataloaderiter":8656,"registrar":8657,"70":8658,"btr":8659,"kcuda":8660,"##itiv":8661,"##onents":8662,"tog":8663,"##uballocation":8664,"##_gloo":8665,"##efp16":8666,"wheel":8667,"\")->":8668,"check_env":8669,"##reader":8670,"suballocations":8671,"_cudnn":8672,"##_asan":8673,"]]))":8674,"##_running":8675,"permutation":8676,"##_storage_":8677,"advanced":8678,"_log":8679,"_apply":8680,"c0":8681,"c_type":8682,"dll":8683,"hiddens":8684,"##del":8685,"##ystem":8686,"##2col":8687,"##`,":8688,"##optype":8689,"##end_recv":8690,"##101":8691,"max_pool3d":8692,"##prop":8693,"load_tests":8694,"thcudatensor_nelement":8695,"##_nets":8696,"##_qat":8697,"relative":8698,"##escope":8699,"prune":8700,"skipifnolapack":8701,"periodic":8702,"##ximation":8703,"41":8704,"fake":8705,"##_url":8706,"##esult":8707,"contig":8708,"##_fused":8709,"dim2":8710,"cuda_half":8711,"adagrad":8712,"num_outputs":8713,"datachannel":8714,"ang":8715,"refcount":8716,"quantizedcpu":8717,"##allocate":8718,"##elementtype":8719,"qconfig_map":8720,"##_seg":8721,"suit":8722,"ci_scripts":8723,"observed_node_names":8724,"produces":8725,"efficient":8726,"qualified_name":8727,"##_pairs":8728,"##rames_up":8729,"observed_node_names_set":8730,"66":8731,":'":8732,"gnu":8733,"lwork":8734,"##slice":8735,"##72":8736,"##zen":8737,"##iling":8738,"##_bits":8739,"aligned":8740,"apaszke":8741,"csr":8742,"##_scalars":8743,"validate":8744,"##scoped":8745,"##frameindex":8746,"##_declaration":8747,":=":8748,"qengine":8749,"tar":8750,"y_dims":8751,"##0_":8752,"##_summ":8753,"test_out":8754,"##ffi":8755,"arm":8756,"##vals":8757,"num_directions":8758,"``)":8759,"##aster":8760,"nnc":8761,"##egate":8762,"copying":8763,"common_args":8764,"total_weight":8765,"##_matmul":8766,",)).":8767,"qualifiedname":8768,"##_pivots":8769,"\\(":8770,"]\\":8771,"fault":8772,"likely":8773,"tt":8774,"tile":8775,"##san":8776,"##atable":8777,"##ecode":8778,"##iding":8779,"opencv":8780,"testtensor":8781,"##emessage":8782,"##inttensor":8783,"##_war":8784,"prop":8785,"end_handle_":8786,"result_type":8787,"distutils":8788,"##_dim_size":8789,"##versed":8790,"##pool1d":8791,"trainer":8792,"##'):":8793,"##_coll":8794,"##convolutionmm":8795,"&)>":8796,"##complex":8797,"smoke_linux_manywheel":8798,"communic":8799,"##rpctest":8800,"##_ndimension":8801,"endswith":8802,"int16_t":8803,"##cii":8804,"createnode":8805,"lanes":8806,"end_handle_th_errors":8807,"[...,":8808,"klong":8809,"y_zero_point":8810,"##simpl":8811,"##ged":8812,"##91":8813,"##_dest":8814,"##_pin":8815,"deviceoptional":8816,"('\\":8817,"##_convert":8818,"2021":8819,"use_m":8820,"''')":8821,"collectiv":8822,"##pytorch":8823,"curl":8824,"##e_handler":8825,"##_plan":8826,"pinned":8827,"exclude_":8828,">>();":8829,"_init_global":8830,"inlined":8831,"##_proj_weight":8832,"reposit":8833,"poisson":8834,"6m":8835,"crop":8836,"mom":8837,"x_exp":8838,"##cle":8839,"##repr":8840,"##_man":8841,"##_hcc__":8842,"kernelfunction":8843,"binary_macos":8844,"##_builder":8845,"accuracy":8846,")`,":8847,"cufft":8848,"thlongstorage_":8849,"##_char":8850,"##destroy":8851,"messagetype":8852,"effect":8853,"digamma":8854,"scalar_type_to":8855,"x_dims":8856,"##_element":8857,"##folder":8858,"##811":8859,"##enccl":8860,"th_math":8861,"##_deriv":8862,"to_mkldnn":8863,"##ists":8864,"outside":8865,"gradgradcheck":8866,"vectors":8867,"##_output_dim":8868,"##ostream":8869,"contextmanager":8870,"r_quant":8871,"configs":8872,"strides_":8873,"##undancy":8874,"spatialbn":8875,"_mm256_set":8876,"##optimize":8877,"vmadefragmentation":8878,"th_math_name":8879,":-":8880,"_onnx":8881,"cut":8882,"pc":8883,"r_size":8884,"##mov":8885,"##larg":8886,"really":8887,"##trilinear":8888,"tran":8889,"usv":8890,"##e_dynamic":8891,"abs_":8892,"register_cpu":8893,"123":8894,"blob_out":8895,"local_rank":8896,"requirements":8897,"__getattr__":8898,"bernoulli_":8899,"initializer_list":8900,"##_platform_hcc__":8901,"##_sampler":8902,"##fullconvolution":8903,"calculate_qparams":8904,"appropriate":8905,"associated":8906,"_init_global_test":8907,"png":8908,"~/":8909,"##factory":8910,"##42":8911,"##ematch":8912,"usually":8913,"conven":8914,"target_":8915,"stores":8916,"weak_module":8917,"goto":8918,"##_masked":8919,"ldflags":8920,"##embedding_bag":8921,"##_related":8922,"leakyrelu":8923,"th_tensor_apply2":8924,"check_env_flag":8925,"_parse_":8926,"ai":8927,"pickl":8928,"##_edges":8929,"##gers":8930,"though":8931,"##ecv":8932,"##legacy":8933,"check_not":8934,"index_fill":8935,"default_qconfig":8936,"lib64":8937,"longer":8938,"time_":8939,")](":8940,"##_future":8941,"##matcher":8942,"##_operators":8943,"##sequence_":8944,"cross_product":8945,"##require":8946,"##_devtoolset7_nightly_test":8947,"##_power":8948,"multiplied":8949,"thvector_":8950,"_max":8951,"_fft":8952,"_rem":8953,"est":8954,"##iqu":8955,"##_user":8956,"##dummy":8957,"##51":8958,"##06":8959,"()],":8960,"##use_":8961,"max_batch_size":8962,"##_tensor_type":8963,"step_model":8964,"(!(":8965,"maps":8966,"dilationh":8967,"##expect":8968,"master_":8969,"tmpdir":8970,"res2val":8971,"tensorexprkernel":8972,"##_instance_":8973,"binary_linux_manywheel_3":8974,"ndk":8975,"didn":8976,"expressions":8977,"analytical":8978,"\"//":8979,"_weighted":8980,"x_data":8981,"x_cpu":8982,"##rup":8983,"at_check":8984,"##_ss":8985,"##_ms":8986,"outputsize":8987,"##clusive_":8988,"assertequals":8989,"([-":8990,"##e_dtype":8991,"prepack":8992,"vkget":8993,"thcudatensor_size":8994,"dilationw":8995,"locally":8996,"vma_debug":8997,"beta1":8998,"normal_":8999,"create_blob":9000,"collate_":9001,"cell_t":9002,"meas":9003,"duration":9004,"##_docker_image":9005,"}),),":9006,"##_cpp_module":9007,"##gaussian":9008,"flo":9009,"m_h":9010,"pw":9011,"))]":9012,"dim_size":9013,"('''":9014,"numoutputs":9015,"thcindextensor":9016,"obtain":9017,"model_name":9018,"npy":9019,"expected_output":9020,"##rowth":9021,"recomput":9022,"onesided":9023,"thpmodule_":9024,"##_extra":9025,"##build_type":9026,"##tings":9027,"flags_caffe2":9028,"unpackret":9029,"tracedmodule":9030,"##assignment":9031,"##_expanded":9032,"happens":9033,"monit":9034,"##ependent":9035,"unpackretriev":9036,"h_t":9037,"lst":9038,"##onv":9039,"##itelist":9040,"expm1":9041,"##efrom":9042,"scripted_":9043,"ref_out":9044,">>>(":9045,"##defined":9046,"compiling":9047,"_find":9048,"##_debug_info":9049,"packageimporter":9050,"treated":9051,"masked_select":9052,"masked_scatter":9053,"__hip_platform_hcc__":9054,"##ondeterministic":9055,"87":9056,"give":9057,"rfft":9058,"sat":9059,"thing":9060,"##search":9061,"constr":9062,"tested":9063,"test_params":9064,"ch_axis":9065,"doing":9066,"batch_shape":9067,"<<(":9068,"##_to_pretty":9069,"({})":9070,"##_int32":9071,"plugin":9072,"exceptions":9073,"t38":9074,"##entially":9075,"type_id":9076,"##_noargs":9077,"##affine":9078,"profiled":9079,"##_imag":9080,"##_sequence_":9081,"received":9082,"##_py3_6":9083,"##_to_pretty_string":9084,"dbuild":9085,"y_":9086,"##tag":9087,"##image_":9088,"##_cat":9089,"testq":9090,"test_q":9091,"output_n":9092,"argmin":9093,"run_lambda":9094,"##partition":9095,"operatorname":9096,"instance_":9097,"##sgd":9098,"cover":9099,"create_node":9100,"__new":9101,"diagnostic":9102,"##hooks":9103,"video":9104,"##nllcriterion":9105,"register_cpu_operator":9106,"7z":9107,"x64":9108,"##slope":9109,"##4f":9110,"destructor":9111,"torch_out":9112,"##_term":9113,"input_sizes":9114,"test_torch":9115,"##int64":9116,"##cls":9117,"##test_helper":9118,"##oose":9119,"##_appro":9120,"loads":9121,"##\"):":9122,"vec_mul":9123,"thcudatensor_new":9124,"thpfunction":9125,"uniqu":9126,"##_runs":9127,"##errorm":9128,"cosine":9129,"##_node_list":9130,"normalized_shape":9131,"implicitly":9132,"##_definition":9133,"##x4_t":9134,"entire":9135,"46":9136,"mad":9137,"##dilated":9138,"##98":9139,"##[]":9140,"##etic":9141,"##_so":9142,"out_tensor":9143,"pyarray":9144,"##_bl":9145,"addop":9146,"optionally":9147,"enforce_":9148,"])))":9149,"##strument":9150,"##_to_graph":9151,"todouble":9152,"halftensor":9153,"##_spatial":9154,"incomp":9155,"##_scores":9156,"##_integral":9157,"cloned":9158,"><":9159,"_rc":9160,"care":9161,"pkg":9162,"##sq":9163,"##cip":9164,"torch_fn":9165,"torchbenchmarkbase":9166,"##root":9167,"modes":9168,"triv":9169,"altern":9170,"deviceindex":9171,"indexer":9172,"{}.":9173,"namescope":9174,"=(),":9175,"##_logical":9176,"record_function":9177,"functionality":9178,"##_no_half":9179,"##e_not":9180,"replicate":9181,"ossci":9182,"prefer":9183,"maybeowned":9184,"internally":9185,"pytuple_get_item":9186,"schedule":9187,"112":9188,":\",":9189,"=\"\"":9190,"##fin":9191,"##3e":9192,"self_size":9193,"##iters":9194,"##sequal":9195,"input_lengths":9196,"##ends":9197,"caffe2_gpu":9198,"nodekind":9199,"##_cond":9200,"python3":9201,"##protobuf":9202,"rpcexec":9203,"applic":9204,"##_update_":9205,"##groups":9206,"##_funcs":9207,"##ularity":9208,"determin":9209,")});":9210,"binary_linux_manywheel_2":9211,"example_inputs":9212,"'{}'":9213,"fake_quantize_":9214,"raised":9215,"assert_array_equal":9216,"recursively":9217,"__line__":9218,"_vf":9219,"repository":9220,"rpcexecmode":9221,"63":9222,"y_q":9223,"##oalesced":9224,"##iet":9225,"##leep":9226,"##unboxed":9227,"##_slic":9228,"do_test":9229,"thcp":9230,"##prun":9231,"indextensor":9232,"##_map_":9233,"##rie":9234,"mutate":9235,"finalize":9236,"##9999":9237,"##_track":9238,"handle_th_errors":9239,"##words":9240,"raise_":9241,"createnet":9242,"##m_rocm4":9243,"index_put":9244,"placement":9245,"negative_slope":9246,"synt":9247,"cross_product_configs":9248,".'":9249,"borrow":9250,"##ae":9251,"##!/":9252,"##inary":9253,"##chan":9254,"),)":9255,"pyerr":9256,"##_blas":9257,"iters":9258,"cuda100":9259,"orth":9260,"data1":9261,"all_weights":9262,"erfc":9263,"##_unsupported":9264,"##fromstring":9265,"equality":9266,"get_all_device_types":9267,"unpackretrievetensor":9268,"_model":9269,"owidth":9270,"ren":9271,"##41":9272,"isize":9273,"##orth":9274,"aten_op":9275,"aten_name":9276,"class_name":9277,"assertin":9278,"==================":9279,"randgaussian":9280,"spect":9281,"=(\"":9282,"pad_r":9283,"##_this":9284,"findschema":9285,"sometimes":9286,"meth_noargs":9287,"pairs":9288,"##_not_null":9289,"dispatchkeyset":9290,"reserved":9291,"##_headers":9292,"rb_":9293,"##_labels":9294,"__setstate__":9295,"_weightedloss":9296,"_convert":9297,"cunn":9298,"scheduler":9299,"##vulkan":9300,"##sparse":9301,"##_events":9302,"##he":9303,"##imm":9304,"##_cmd":9305,"##_grid":9306,"max_size":9307,"cudnn_version":9308,"floating_types":9309,"##3333":9310,"scale_bias":9311,"##_binary_op":9312,"simd":9313,"ndarray":9314,"factory_kwargs":9315,"override_":9316,"##_device_maps":9317,"##_cudnn7_py3":9318,"__cuda_arch__":9319,"unsorted_indices":9320,"dorunwithtype":9321,"'|":9322,"tf32":9323,"##ves":9324,"thbytetensor":9325,"cpuinfo":9326,"pythonargs":9327,"stepsize":9328,"broadcasted":9329,"##stringstream":9330,"##queezed":9331,"descending":9332,"unique_lock":9333,"_mm256_loadu":9334,"marked":9335,"##_declare_":9336,"fuse_":9337,"##oredundancy":9338,"compression":9339,"sparsecuda":9340,"logsoftmax":9341,"##odevice":9342,"pretrained_blobs":9343,"##packedparamsbase":9344,"##umbel":9345,"5e":9346,":],":9347,"r0":9348,"sr":9349,"##pose":9350,"##xiv":9351,"##be":9352,"the_":9353,"tensor_data":9354,"testjit":9355,"test_nn":9356,"##_nd":9357,"arxiv":9358,"output_width":9359,"##_line":9360,"##spatial":9361,"caffe2_cuda":9362,"max_pool1d":9363,"build_caffe2":9364,"inputs_":9365,"callmethod":9366,"blocksize":9367,"uint16":9368,"##axed":9369,"vulkanapitest":9370,"ownerrref":9371,"##acobians":9372,"histc":9373,"summarywriter":9374,"cudastream_t":9375,"_weight":9376,"__len":9377,"qint32":9378,"ten":9379,"##ton":9380,"##odense":9381,"##_c2":9382,"##_clock":9383,"##omes":9384,"do_constant_folding":9385,"##expression":9386,"##shm":9387,"ordered":9388,"##e_sour":9389,"##_deprecated":9390,"##_signal":9391,"##special":9392,"##scalartype":9393,"4096":9394,"##_wheel":9395,"##_histogram":9396,"xavierfill":9397,"##oredundancyoptimizer":9398,"dnn":9399,"v6":9400,"##gest":9401,"##kineto":9402,"theta":9403,"ifft":9404,"num_reduc":9405,"indext":9406,"());},":9407,"make_weak":9408,"gives":9409,"gtest_":9410,"sequence_":9411,"*)(":9412,"##_submodule":9413,"commit_docker_image":9414,"##gpus":9415,"vmas":9416,"requests":9417,"\"[](":9418,"_barrier":9419,"##rscheduler":9420,"pthreadpool":9421,"##registrationtest":9422,"gil_sc":9423,"##_dependency_libs":9424,"einsum":9425,"mtype":9426,"sv":9427,"##sr":9428,"##same":9429,"##hint":9430,"##fe":9431,"##qn":9432,"##_can":9433,"##_mt":9434,"##tril":9435,"elt":9436,"add_scalar":9437,"inputsize":9438,"##er_of":9439,"apis":9440,"##_examples":9441,"flaky":9442,"##_round":9443,"introduc":9444,"upsample_bilinear":9445,"generate_pt":9446,"cnnmodelhelper":9447,"##_gcc5_4":9448,"##rieve":9449,"61":9450,"__clang":9451,"_calcul":9452,"dil":9453,"v8":9454,"{(":9455,"}[":9456,"##_tool":9457,"cuda_arch":9458,"##erov":9459,"decre":9460,"##_exec":9461,"##channelmin":9462,"beta2":9463,"##idxs":9464,"##_workspace":9465,"fixture":9466,"validate_":9467,"commands":9468,"lock_guard":9469,"<(":9470,"_agent":9471,"cmp":9472,"criter":9473,"md":9474,"##slic":9475,"##wises":9476,"##esian":9477,"##_temp":9478,"##uniform":9479,"output_mask":9480,"getnum":9481,"statically":9482,"compared":9483,"functype":9484,"cudac":9485,"bias_ih":9486,"##_prop":9487,"make_variable":9488,"find_unused":9489,"test_jit":9490,"##_device_type":9491,"smallvector":9492,"resetworkspace":9493,"_mm256_storeu":9494,"packageexporter":9495,"##funcoptions":9496,"_jit_pass_onnx":9497,"_lrscheduler":9498,"##<<<":9499,"##_dense_":9500,"standalone_module_":9501,"##channelminmaxobserver":9502,"_gen":9503,"cstd":9504,"hop":9505,"hand":9506,"##return":9507,"##sd":9508,"##cu":9509,"##cod":9510,"torch_install":9511,"##_tanh":9512,"test_python":9513,"build_expr":9514,"##artesian":9515,"(*)(":9516,"##_index_":9517,"t39":9518,"##_resize":9519,"dynamic_axes":9520,"freed":9521,"##operf":9522,"##ategory":9523,"valued":9524,"developer":9525,"nesterov":9526,"considered":9527,"sparsecpu":9528,"##emodule":9529,"##size_t":9530,"__gnuc":9531,"grain":9532,"tutorials":9533,"incompatible":9534,";;":9535,"_torch":9536,"cov":9537,"dq":9538,"dra":9539,"gain":9540,"nthreads":9541,"##aram":9542,"##ed_input":9543,"##urse":9544,"pyyaml":9545,"chown":9546,"##_weak":9547,"('-":9548,"##obol":9549,"acqu":9550,"raises":9551,"##queues":9552,"use_integral":9553,"backward_dtypes":9554,"##logger":9555,"follows":9556,"symbolic_trace":9557,"boundaries":9558,"elems":9559,"observed_graph":9560,"standardfloat":9561,"##_avg_sq":9562,"mpark_dispatch":9563,"##e_branch":9564,"##_flatten":9565,"combinations":9566,"java":9567,"criteria":9568,"97":9569,"f2":9570,"fgradinput":9571,"pp":9572,"pblock":9573,"v9":9574,"##off":9575,"##_alloc":9576,"##card":9577,"##leave":9578,"##_sigmoid":9579,"##_mismatch":9580,"often":9581,"cuda8":9582,"enforce":9583,"checktrace":9584,"obs":9585,"##_tensor_metadata":9586,"##_dirs":9587,"##amedtensor":9588,"##entifier":9589,"##_namespace":9590,"floattensorbase":9591,"visibility":9592,"##_comm_hook":9593,")\");":9594,"_unused":9595,"##flict":9596,"##_differenti":9597,"##shift__":9598,"collate_fn":9599,"_writ":9600,"bra":9601,"ix":9602,"sent":9603,"##1e":9604,"##9llu":9605,"##erbase":9606,"##esh":9607,"##losure":9608,"test_module":9609,"mode_":9610,"arg1":9611,"getvalue":9612,"get_attr":9613,"##essages":9614,"set_property":9615,"encode":9616,"operatorregistrationtest":9617,"convbn":9618,"speed":9619,"requires_nccl":9620,"register_cuda_operator":9621,"reduces":9622,"make_pair":9623,"##_aver":9624,"##workers":9625,"primitive":9626,"bufhandle":9627,"##_prim":9628,"##offsets":9629,"exitcode":9630,"##autogradtest":9631,"uniform_scalar":9632,"##_change":9633,"shards":9634,"overloads":9635,"##_interval":9636,"looks":9637,"atomicadd":9638,"ipiv":9639,"##analytical":9640,"__len__":9641,"*.":9642,"_register":9643,"l2":9644,"##seq":9645,"reuse":9646,"outputs_":9647,"(\".":9648,"numb":9649,"worker_id":9650,"error_meta":9651,"vkcmd":9652,"var1":9653,"thnnstate":9654,"locations":9655,"##19c":9656,"cell_type":9657,"compares":9658,"slow_conv":9659,"##structible":9660,"assertisinstance":9661,"##_devtoolset7_nightly_upload":9662,"qy_hat":9663,"fatal_error":9664,"##ubuntu16_04_build":9665,"/\"":9666,"5d":9667,"95":9668,"hh":9669,"pnext":9670,"##autodiff":9671,"##sour":9672,"##_er":9673,"##_abi":9674,"##f7":9675,"##join":9676,"##_cal":9677,"input_type":9678,"##_pe":9679,"test_d":9680,"##_boxes":9681,"choose":9682,"workaround":9683,"listen":9684,"##addmm":9685,"##ointer":9686,"build_root":9687,"default_pg":9688,"expected_tensor":9689,"multim":9690,"bias_hh":9691,"##_proxy":9692,"cudnn_enabled":9693,"use_cudnn":9694,"##with_caller":9695,"##file_":9696,"saving":9697,"##_alt":9698,"res2ind":9699,"##_matrices":9700,")};":9701,"architect":9702,"##suballoc":9703,"safet":9704,"##olving":9705,"processgroupglo":9706,"##_neon":9707,"##_rng_state":9708,"gettensorinfo":9709,"sherwood_v3":9710,"made":9711,"num_reduce_dim":9712,"vmasuballocation":9713,"sherwood_v3_table":9714,"!\");":9715,"-------":9716,"__ld":9717,"_mayb":9718,"hence":9719,"mixed":9720,"vi":9721,"wall":9722,"##lengths":9723,"##_pres":9724,"tooptional":9725,"test_list":9726,"##_l1":9727,"add_relu":9728,"data2":9729,"data_col":9730,"new_data":9731,"##er_version":9732,"moduledict":9733,"elementwis":9734,"register_parameter":9735,"##exprs":9736,"##devicepro":9737,"normalize_":9738,"##_extract":9739,"extra_files":9740,"##annotations":9741,"##_use_c":9742,"exact_device":9743,"##_helpers":9744,"##_kwarg":9745,"=\"$(":9746,"binary_linux_conda_3_":9747,"##_cxx11":9748,"_rcb":9749,"__ldg":9750,"1j":9751,"_optim":9752,"c1":9753,"cartesian":9754,"lc":9755,"xx":9756,"##_cur":9757,"isinf":9758,"consteigen":9759,"getdevicetype":9760,"quick":9761,"##epoch":9762,"])),":9763,"##_tensorproto":9764,"groupnorm":9765,"##_replic":9766,"forward_only":9767,"onnx_model":9768,"linearindex":9769,"map_arg":9770,"leak":9771,"debug_info":9772,"##_usage_":9773,"node_id":9774,"making":9775,"ymm1":9776,"promot":9777,"tens_ops":9778,"_validate_":9779,"##ming":9780,"##ued":9781,"##ares":9782,"##titions":9783,"star":9784,"##_tup":9785,"input_dim":9786,"req":9787,"##typeobject":9788,"unn":9789,"noise":9790,"nulltype":9791,"generating":9792,"##iter__":9793,"##_filename":9794,"converts":9795,"api_name":9796,"filled":9797,"config_list":9798,"width_col":9799,"overload_name":9800,"physical":9801,"structured_del":9802,"erfinv":9803,"##_zp":9804,"zeroredundancyoptimizer":9805,"in_place_":9806,"_qualified_name":9807,"ostringstream":9808,"tell":9809,"##sample":9810,"##s_vsx":9811,"inclusive":9812,"##entensor":9813,"retval":9814,"##_fork":9815,"##vertible":9816,"typevar":9817,"gradin":9818,"add_library":9819,"graphs":9820,"operatorkernel":9821,"distance":9822,"bincount":9823,"optimize_":9824,"train_net":9825,"mp_rnd":9826,"signed":9827,"caffe_op":9828,"##_kernel_cuda":9829,"155":9830,"__iter__":9831,"replicas":9832,"xmm2":9833,"pull_request":9834,"##_failure":9835,"development":9836,"concrete_type":9837,"##requirements":9838,"processgroupglootest":9839,"mp_rnd_t":9840,",-":9841,"2000":9842,"52":9843,"`\\":9844,"kv":9845,"n_sample":9846,"##aver":9847,"##ym":9848,"##x5":9849,"is_macos":9850,"testmodule":9851,"ascii":9852,"srcs":9853,"_counter":9854,"##e_file":9855,"##_qparams":9856,"raw_data":9857,"node_a":9858,"##layers":9859,"compressed":9860,"##temporary":9861,"nrhs":9862,"]*":9863,"_as":9864,"cerr":9865,"kineto":9866,"##nc":9867,"##optest":9868,"##_inner":9869,"##_lines":9870,"get_tensor":9871,"unflatten":9872,"caffe2_root":9873,"distance_":9874,"zero_grad":9875,"overhead":9876,"...);":9877,"api_caffe2":9878,"##_training":9879,"##_include":9880,"region":9881,"##embeddingbag":9882,"respectively":9883,"##relation":9884,"identical":9885,"networks":9886,"pruned":9887,"reduce_op":9888,"##total":9889,"---[":9890,"triplet":9891,"together":9892,"><<<":9893,"a_":9894,"ho":9895,"hallocation":9896,"##link":9897,"##ge_":9898,"##mpscnn":9899,"##e_div":9900,"=((":9901,"pad_b":9902,"createedge":9903,"##_all__":9904,"dataclass":9905,"##_search":9906,"cmake_c_flags":9907,"respect":9908,"##shapes":9909,"holds":9910,"easy":9911,"##fakefp16":9912,"syntax":9913,"#!/":9914,"';":9915,"=>":9916,"cffi":9917,"eta":9918,"hing":9919,"had":9920,"##_any":9921,"##_embed":9922,"##![":9923,"thlapack":9924,"##_ci":9925,"to_i":9926,"rev":9927,"ans":9928,"max_jobs":9929,"##_input_dim":9930,"##indexing":9931,"##_with_sizes":9932,"col2":9933,"exporter":9934,"##_numerical":9935,"##derr":9936,"##_priv":9937,"wrap_cpp_module":9938,"##_spawn":9939,"##_column":9940,"commandbuffer":9941,"##overload":9942,"is_sandcastle":9943,"##operatortest":9944,"tointlist":9945,"skip_if_no_gpu":9946,"duplicate":9947,"structured_delegate":9948,"##operatortester":9949,"\"#":9950,"_enabled":9951,"__all__":9952,"cn":9953,"fmap":9954,"squeeze_":9955,"##vanced":9956,"##gp":9957,"##feat":9958,"##7llu":9959,"at_priv":9960,"shm":9961,"num_shards":9962,"include_last":9963,"default_dynamic":9964,"optionaltype":9965,"cudam":9966,"##_list_dir":9967,"##_compress":9968,"installation":9969,"##parseadagrad":9970,"declared":9971,"serial_path":9972,"convert_custom":9973,"becomes":9974,"##archive":9975,"##_base_":9976,"##interpreter":9977,"##posed":9978,"closed":9979,"__getstate__":9980,"cmake_current_list_dir":9981,"_number":9982,"priority":9983,"observations":9984,"guaranteed":9985,"##_desired":9986,"at_private_c":9987,"include_last_offset":9988,"[![":9989,"ggo":9990,"nor":9991,"##warn":9992,"##5e":9993,"##61":9994,"##01":9995,"##anularity":9996,"##sext":9997,"addinputs":9998,"num_gpus":9999,"##eps":10000,"c10_export":10001,"component":10002,"cudart":10003,"shouldn":10004,"current_":10005,"##granularity":10006,"##ecutive":10007,"consistent":10008,"##embeddingloss":10009,"composite":10010,"broadcastinglist2":10011,")...);":10012,"nondet_tol":10013,"lab_implement":10014,"upsampling":10015,"%\\":10016,"bc":10017,"oheight":10018,"););":10019,"##eprop":10020,"##32bit":10021,"maxun":10022,"no_bias":10023,"##ansion":10024,"2048":10025,"##_backward_cuda":10026,"##workspaces":10027,"pushd":10028,"lu_pivots":10029,"##e_hints":10030,"_dis":10031,"attach":10032,"parametrizations":10033,"##ogonal":10034,"dedicated":10035,"overrides":10036,"caffe2_cpu_srcs":10037,"(::":10038,"_wrap":10039,"__sync":10040,"ctype":10041,"ff":10042,"sindex":10043,"vulk":10044,"xq":10045,"##cxx":10046,"##jp":10047,"conf":10048,"##_ssize_t":10049,"py_ssize_t":10050,"getelementtype":10051,"##e_copies":10052,"##ose_":10053,"nets":10054,"##_dispatch_key":10055,"node_name":10056,"_spars":10057,"##stores":10058,"##_node_name":10059,"namedtemporary":10060,"##_alias":10061,"t40":10062,"transforms":10063,"adaptivemax":10064,"##_constants":10065,"attributeerror":10066,"##layout":10067,"##_eps":10068,"tbb":10069,"retain_graph":10070,"##ybrid":10071,"respons":10072,"##_secret":10073,"receive":10074,"##_multigpu_helper":10075,"canonical_axis":10076,"##quantized_idxs":10077,"early":10078,"destructablemock":10079,"cuda_nvcc_flags":10080,"master_addr":10081,"namedtemporaryfile":10082,"/)":10083,"]!":10084,"s0":10085,"vision":10086,"x_t":10087,"}')":10088,"##()":10089,"##ature_":10090,"##ase_type":10091,"at_forall":10092,"##_feed":10093,"##_bef":10094,"##_op_list":10095,"##_vmap":10096,"expected_grad":10097,"##ansymbol":10098,"multihead":10099,"node_copy":10100,"implements":10101,"coalesce":10102,"embeddings":10103,"##blocksize":10104,"higher":10105,"griddim":10106,"fusiongroup":10107,"##absolut":10108,"blas_libraries":10109,"##printf":10110,"twice":10111,"##iveness":10112,"##clusive_stats":10113,"bracket":10114,"at_private_case_type":10115,"vulkansymbol":10116,"vulkansymbolwrapper":10117,"bag":10118,"##rp":10119,"##sort":10120,"defn":10121,"opname":10122,"unwrap":10123,"(\"\\":10124,"numdevices":10125,"##_high":10126,")();":10127,"##_conversion":10128,"rpcmessage":10129,"##_compat":10130,"initial_states":10131,"opschema":10132,"casts":10133,"buffer_size":10134,"textwrap":10135,"##_kind":10136,"rootrank":10137,"##wiseconv":10138,"##_binary_dir":10139,"derivatives":10140,"callbacks":10141,"instantiation":10142,"_observer_":10143,"trans_a":10144,"convert_custom_config_dict":10145,"%[":10146,"fit":10147,"mix":10148,"qb":10149,"ratio":10150,"##l1":10151,"##sim":10152,"##softmax":10153,"##hx":10154,"##gg":10155,"##fro":10156,"##find":10157,"##b_":10158,"##alization":10159,"##arm":10160,"::${":10161,"##_tf32":10162,"##_barrier":10163,"cuda80":10164,"npro":10165,"##ewith":10166,"copysign":10167,"gpu_lambda":10168,"equals":10169,"##arguments":10170,"parent_scope":10171,"frequ":10172,"##compat":10173,"translate":10174,"##_stateless_":10175,"testquantizedops":10176,"ensures":10177,"choice":10178,"output_nr":10179,"\"=":10180,",]":10181,"d_model":10182,"ig":10183,"##vect":10184,"##bwd":10185,"retrieve":10186,"const_iterator":10187,"##_noth":10188,"##romotion":10189,"(\"/":10190,"##_renorm":10191,"num_indices":10192,"##_out_cpu":10193,"newsize":10194,"##info_":10195,"##ceptions":10196,"processing":10197,"_scale":10198,"##_setup":10199,"##_file_path":10200,"particip":10201,"collapsed":10202,"*>(&":10203,"issubtre":10204,"cum_dist":10205,"etcd":10206,"##_solve_batched":10207,"+=(\"-":10208,"##_transposed":10209,"##ecopyto":10210,"issubtreematch":10211,"`*`":10212,"pickler":10213,"##tob":10214,"##doc":10215,"##hist":10216,"##nchw":10217,"##2b":10218,"##begin":10219,"##itt":10220,"##race":10221,"##_ctr":10222,"##_pop":10223,"##emon":10224,"##timm":10225,"graph_update":10226,"])]":10227,"##_tensor_out":10228,"newline":10229,"src_rank":10230,"cudas":10231,"backendtype":10232,"start_dim":10233,"multiplication":10234,"var2":10235,"quanttype":10236,"intrusiveptrtest":10237,"[:-":10238,"##recurs":10239,"##_optimization":10240,"##}));":10241,"activation_post_process_map":10242,"indicates":10243,"##********************************":10244,"deadline":10245,",\"":10246,"77":10247,"_t":10248,"bf":10249,"font":10250,"istype":10251,"rend":10252,"r_contig":10253,"vld":10254,"##auto":10255,"##lstm":10256,"##limit":10257,"##2e":10258,"##_swap":10259,"is_scalar":10260,"##_factory":10261,"floattype":10262,"unbind":10263,"##conf":10264,"attr_names":10265,"supported_":10266,"key_padding_mask":10267,"dst2":10268,"##_kernel_loop":10269,"nextscoped":10270,"cu100":10271,"topolog":10272,"preced":10273,"##trace_":10274,"##345":10275,"##andom_samples":10276,"window_length":10277,"7mu":10278,"_random_samples":10279,"include_dirs":10280,"divisor_override":10281,"glu":10282,"resizelike":10283,"nextscopedblob":10284,")-":10285,"0m":10286,"_convolution":10287,"_buffers":10288,"f811":10289,"##_allocator":10290,"##ecall":10291,"##entration":10292,"rewrit":10293,"##ndevicetype":10294,"getting":10295,"##parent":10296,"##_outer":10297,"quiet":10298,"##produc":10299,"cpu_kernel":10300,"creater":10301,"target_lengths":10302,"load_state_dict":10303,"120":10304,"##conv2d":10305,"coeff":10306,"type_method":10307,"##_called":10308,"invocation":10309,"thptensor_stateless_":10310,"rounding":10311,"bindings":10312,"limited":10313,"attn_output":10314,"leading":10315,"testnndevicetype":10316,"store_true":10317,"##product":10318,"192":10319,"]’":10320,"cg":10321,"gels":10322,"ttarget":10323,"##cg":10324,"##fb":10325,"##'),":10326,"##activation":10327,"##cale_":10328,"devicescope":10329,"output_dim":10330,"lost":10331,"unpickler":10332,"num_features":10333,"check_sum":10334,"([](":10335,"##s_on":10336,"##proxy":10337,"##ldiv":10338,"elementwise_":10339,"##_param_name":10340,"gpu_kernel":10341,"globalcontext":10342,"##_per_group":10343,"##_cu80":10344,"##_cu92":10345,"meta_":10346,"is_signed":10347,"pytorch_linux_test":10348,"##_linker":10349,"##requir":10350,"##ategy":10351,"##_tracing":10352,"##valuet":10353,"blank":10354,"##_byte":10355,"nkernelrows":10356,"nkernelcols":10357,"satis":10358,"_wait":10359,"g1":10360,"p1":10361,"template_":10362,"##mer":10363,"intimm":10364,"##e_get":10365,"##_tot":10366,"int_max":10367,"outs":10368,"##_fwd":10369,"mod2":10370,"##throw":10371,"##allreduce":10372,"##outplace":10373,"type2":10374,"functioncount":10375,"build_test":10376,"index_copy":10377,"call_method":10378,"moduleto":10379,"sum_":10380,"##package":10381,"##_cpu_build":10382,"##expor":10383,"zipfile":10384,"edges":10385,"...>::":10386,"cycl":10387,"has_torch_function_unary":10388,"futurenccl":10389,"decay_t":10390,"recommended":10391,"_batch":10392,"car":10393,"x_tensor":10394,"##ler":10395,"##scale":10396,"##comput":10397,"##nnd":10398,"##68":10399,"torchtest":10400,"##_two":10401,"##ublas":10402,"alg":10403,"dim_":10404,"get_rank":10405,"unavailable":10406,"grad_bias":10407,"##_opset":10408,"([&":10409,"##ayer":10410,"all_reduce":10411,"creator":10412,"tensors1":10413,"cppfunction":10414,"##111":10415,"broadcast_all":10416,"##_index_base":10417,"mutable_":10418,"matrix_appro":10419,"gradient_as_bucket_view":10420,"##eeded":10421,"##_threading":10422,"##_align":10423,"raw_mut":10424,"##e_lengths":10425,"small_3d":10426,"cosine_":10427,"algorithms":10428,"previously":10429,"__m256i":10430,"preserve_":10431,"duse_":10432,"##before":10433,"slicesize":10434,"masked_fill_":10435,"false_":10436,"persistent":10437,"##ximation_rank":10438,"matrix_approximation_rank":10439,"raw_mutable_data":10440,")>>>(":10441,"aux":10442,"fw":10443,"##u10":10444,"##_owner":10445,"is_standalone_module":10446,"##ifies":10447,"notes":10448,"==================================":10449,"cuda_double":10450,"rand_like":10451,"##_he":10452,"check_stride":10453,"##ispatchkey":10454,"conv5":10455,"callgrind":10456,"spacing":10457,"randn_like":10458,"##ccurr":10459,"##attrs":10460,"node_name_to":10461,"threadlocal":10462,"lual":10463,"totalelements":10464,"processgroupagent":10465,"incx":10466,"transformation":10467,"##tcp":10468,"rcb":10469,"cdist":10470,"temporarily":10471,"dataparallel":10472,"##0000000":10473,"clos":10474,"##eproto":10475,"pretty_print":10476,"geqrf":10477,"find_unused_parameters":10478,"_index":10479,"fr":10480,"f32":10481,"##utex":10482,"##aring":10483,"##anon":10484,"##ecomment":10485,"##_si":10486,"retriev":10487,"asm":10488,"pytypeobject":10489,"##_lint":10490,"typelist":10491,"has_bias":10492,"##_to_onnx":10493,"##_fp_dtypes":10494,"use_rocm":10495,"##ookup":10496,"##_tri":10497,"##ermost":10498,"hasher":10499,"my_env":10500,"##_no_reduce_":10501,"avg_pool3d":10502,"definitions":10503,"get_all_fp_dtypes":10504,"order_":10505,"mte":10506,"upsample_nearest2d":10507,"reflection_pad":10508,"peepholeoptimize":10509,"changing":10510,"concentration":10511,"/.":10512,"_res":10513,"cwd":10514,"c_fp64vec2":10515,"gh":10516,"ib":10517,"##ne":10518,"##esize":10519,"##elect":10520,"torch_python":10521,"##ros":10522,"##rot":10523,"##_sort":10524,"##clone":10525,"cauchy":10526,"##_ret":10527,"##_rest":10528,"doxy":10529,"default_value":10530,"&&)":10531,"group_":10532,"registern":10533,"##index_t":10534,"gtest_has":10535,"trans_b":10536,"correlation":10537,".\".":10538,"prev_node":10539,"softshrink":10540,"parsed_args":10541,"bitwise_":10542,"reg2":10543,"toolchain":10544,"##struction":10545,"hello":10546,"##variabletypemode":10547,"grain_size":10548,"__syncthreads":10549,"vld1":10550,"-=":10551,"esc":10552,"wl":10553,"xent":10554,"##ience":10555,"##):":10556,"the_type":10557,"##_descriptor":10558,"##_fix":10559,"artifact":10560,"(\",":10561,"double_":10562,"numthreads":10563,"enabl":10564,"])],":10565,"cpu_tensor":10566,"dependent":10567,"##e_func":10568,"hidden_size_":10569,"##==========":10570,"##look":10571,"prev_pos":10572,"observer_name":10573,"##_traits":10574,"##scope":10575,"##'':":10576,"thdtensordescriptor":10577,"_retain":10578,"##_rrefs":10579,"()`.":10580,"weak_script_method":10581,"##propagation":10582,"##8bitrowwise":10583,"decomposition":10584,"distance_from":10585,"__c":10586,"_trace":10587,"amd":10588,"kldiv":10589,"##vp":10590,"##_udf":10591,"torch_tensor":10592,"toivalue":10593,"##_nchw":10594,"expansion":10595,"##grads":10596,"trait":10597,"##_testing":10598,"zero_d":10599,"scriptmod":10600,"onnx_tensorproto":10601,"version_counter":10602,"##_batch_norm":10603,"##argincriterion":10604,"_frames_up":10605,"0x7":10606,"lowered":10607,"produced":10608,"usageerror":10609,"##emodul":10610,"&>(*":10611,"##_accumulator":10612,"cudadevic":10613,"(\"\"\"\\":10614,"##_pinned":10615,"58":10616,"__cud":10617,"ger":10618,"##aa":10619,"##nam":10620,"##window":10621,"##e_type_":10622,"##ecuda":10623,"##itr":10624,"##uns":10625,"##_dy":10626,"##serror":10627,"output_dir":10628,"data_queue":10629,"include_":10630,"([(":10631,"libshm":10632,"minmaxobserver":10633,"im2col":10634,"linear_prepack":10635,"evt":10636,"shape_hints":10637,"test_cpp":10638,"prepare_fx":10639,"assigned":10640,"repeat_inter":10641,"visited":10642,"##required":10643,"}(${":10644,"sparse_tensor":10645,"##_heads":10646,"mismatches":10647,"##_libtorch_3_":10648,"rv_":10649,"##stmts":10650,"construction":10651,"\"``":10652,"&=":10653,"08":10654,"_builtin":10655,"cant":10656,"categorical":10657,"iinfo":10658,"lex":10659,"##cross":10660,"thassert":10661,"##adam":10662,"toq":10663,"impro":10664,"##),),":10665,"convparams":10666,"subject":10667,"##_and_upload":10668,"_test_ddp":10669,"##imagegranularity":10670,"leav":10671,"\"]:":10672,"fail_test":10673,"protocol":10674,"nvrtc":10675,"t41":10676,"dtypesifrocm":10677,"db_type":10678,"notice":10679,"##_exprs":10680,"##_tags":10681,"rng_state":10682,"neuralnet":10683,"##_compute_":10684,"foreach_bin_op_":10685,"##trilinear3d":10686,"instance_norm":10687,"doxygen":10688,"gem":10689,"##iation":10690,"##de":10691,"##f4":10692,"##05":10693,"##learning":10694,"mod1":10695,"output_height":10696,"##ives":10697,"typically":10698,"check_eval":10699,"##_v2":10700,"indexerror":10701,"_test_m":10702,"##averagepooling":10703,"##_runtime_":10704,"v14":10705,"##_always":10706,"assertions":10707,"defining":10708,"platforms":10709,"clippath":10710,"averagepool":10711,"magic":10712,"##_double_backwards":10713,"##_comb":10714,"monitored":10715,"_retain_param_name":10716,"distance_from_desired":10717,"380":10718,"517":10719,"74":10720,"a_lu":10721,"latency":10722,"ptx":10723,"##cap":10724,"##caffe2":10725,"##high":10726,"##`.":10727,"th_omp_overhead_threshold":10728,"selu":10729,"pyex":10730,"##verter":10731,"##using":10732,"c10_cuda":10733,"no_output":10734,"logsumexp":10735,"##imple_":10736,"initjit":10737,"future_":10738,"dilation_w":10739,"fill_value":10740,"weakintr":10741,"_mm_storeu":10742,"ldc":10743,"separately":10744,"001":10745,"slice_":10746,"##------------------------------------------------":10747,"##_basic_function":10748,"polygamma":10749,"##oscalartype":10750,"walltime":10751,"lab_implement_basic_function":10752,"weakintrusiveptrtest":10753,"(``":10754,"5m":10755,"malloc":10756,"slogdet":10757,"##mas":10758,"##handle_":10759,"##inx":10760,"##elin":10761,"##roken":10762,"##_current":10763,"is_variable":10764,"to_ir":10765,"test_config":10766,"exp_v":10767,"run_fn":10768,"new_shape":10769,"values_":10770,"started":10771,"scan":10772,"rowwise":10773,"futuremessage":10774,"max_pool2d_with_indices":10775,"sharing":10776,"permiss":10777,"##install_prefix":10778,"##deviceproperties":10779,"86":10780,"_per":10781,"_broadcast":10782,"nuc":10783,"vt":10784,"##hor":10785,"##fbgemm":10786,"##6f":10787,"##change":10788,"##e_event":10789,"##_dot":10790,"##_pickle":10791,"valgrind":10792,"##ibly":10793,"num_heads":10794,"set_i":10795,"check_dtype":10796,"build_dir":10797,"##_dimension":10798,"net_name":10799,"##_to_type":10800,"cudnn_ws":10801,"packed_":10802,"unsqueeze_":10803,"inserted":10804,"broadcasts":10805,"dynamictype":10806,"opengl":10807,"traced_fn":10808,"##e_dims":10809,"move_":10810,"combination":10811,"##externalfunction":10812,"adaptive_max_pool2d":10813,"delegate_s":10814,"##basic":10815,"crash":10816,"faulty":10817,"estim":10818,"_model_to_graph":10819,"##_l1_loss":10820,"##ncexternalfunction":10821,"registernncexternalfunction":10822,"c_t":10823,"h_out":10824,"iostream":10825,"x_orig":10826,"##move":10827,"##ih":10828,"##system":10829,"##_seconds":10830,"##adic":10831,"input_node":10832,"testvmap":10833,"##_ndk":10834,"output1":10835,"##ators":10836,"scaling":10837,"param_info":10838,"submod":10839,"##built":10840,"##ailable_":10841,"##_compile":10842,"##attn":10843,"pad_w":10844,"base_lr":10845,"insert_observer":10846,"express":10847,"\"][":10848,"sparsity":10849,"##{}'.":10850,"namedtensor":10851,"height_col":10852,"performed":10853,"##_conda_3":10854,"package_name":10855,"##_mappings":10856,"deserialize":10857,"converter":10858,"elapsedseconds":10859,"##samegpu":10860,"col2im":10861,"at_forall_scalar":10862,":(":10863,"_input":10864,"_stack":10865,"b_dims":10866,"finite":10867,"tm":10868,"tin":10869,"{'':":10870,"##features":10871,"tensor_type":10872,"reentrant":10873,"##_fmt":10874,"output_w":10875,"unix":10876,"check_device":10877,"expecttest":10878,"src_bin":10879,"##tuals":10880,"##_io":10881,"##_cpu_devtoolset7":10882,"125":10883,"##devicetensor":10884,"##_trusty":10885,"declare":10886,"issu":10887,"caffe_get":10888,"##_reshape":10889,"##double_":10890,"##defaultstream":10891,"ymm2":10892,"cmake_cxx_compil":10893,"##staticruntime":10894,"vc_version":10895,"easier":10896,"##_options_":10897,"__gnuc__":10898,"##_replicas":10899,"vulkansymbolwrapper_vk":10900,"kldivloss":10901,"\"`":10902,"*-":10903,">{}":10904,"__shared":10905,"cas":10906,"finfo":10907,"kbyte":10908,"qgraph":10909,"tcontig":10910,"##_32":10911,"##_times":10912,"##chandler":10913,"##img":10914,"testl":10915,"##_nested":10916,"output_idx":10917,"output_source":10918,"##ifact":10919,"indtype":10920,"args_num":10921,"workspace_":10922,"##amesize":10923,"##strided":10924,"##inputtensor":10925,"##_init_fn":10926,"##tofloat":10927,"minor":10928,"matter":10929,"_copy":10930,"iterabledataset":10931,"device_check":10932,"device_opt":10933,"optimizations":10934,"exporttypes":10935,"##~~~~~~~~~~":10936,"##_indexing":10937,"##_xor":10938,"##toolsext":10939,"userrref":10940,"params_dict":10941,"res1ind":10942,"##leanup":10943,"##_interpol":10944,"represented":10945,"##lazy":10946,"strategy":10947,"##dispatchkey":10948,"##_structure_":10949,"##ible_nodes":10950,"metrics":10951,"encoding":10952,"##ecommon":10953,"__shared__":10954,"__exit":10955,"n_fft":10956,"xnnpack":10957,"##void":10958,"##2khr":10959,"##02":10960,"dequantized":10961,"##reg":10962,"intra":10963,"input_n":10964,"out_size":10965,"##_gil":10966,"##_gate":10967,"##10d":10968,"set_data":10969,"')]":10970,"')],":10971,"dist_utils":10972,"##objects":10973,"##_without":10974,"vk_khr":10975,"use_fbgemm":10976,"dilation_h":10977,"contiguous_format":10978,"##_addr":10979,"##e_symbol":10980,"protos":10981,"##_keywords":10982,"parallel_for":10983,"meth_keywords":10984,"##undant":10985,"caffe_enforce_ge":10986,"##econstruct":10987,"factorization":10988,"##e_paths":10989,"potrf":10990,"_calculate_":10991,"_disable_":10992,"moduletoexport":10993,"__exit__":10994,"<${":10995,"dth":10996,"##ctx":10997,"##nermost":10998,"tensor_proto":10999,"##req":11000,"testcuda":11001,"reorder":11002,"tr2":11003,"output2":11004,"one_":11005,"residual":11006,"check_gradgrad":11007,"expected_error":11008,"netbase":11009,"##_auto":11010,"offsetidx":11011,"##_infos":11012,"vma_allocation":11013,"continu":11014,"##_place":11015,"llvmcodegen":11016,"edit":11017,"##posals":11018,"##_image_":11019,"##plitsizes":11020,"divisible":11021,"insertquantdequ":11022,"##_fake_quant":11023,"__new__":11024,"repeat_interleave":11025,"89":11026,"live":11027,"mnist":11028,"r19c":11029,"san":11030,"site":11031,"##_old":11032,"##_quantization":11033,"##7e":11034,"in_vars":11035,"##elog":11036,"intended":11037,"is_inplace":11038,"const_cast":11039,"##_patch":11040,"took":11041,"aren":11042,"##_bwd":11043,"##_glow":11044,"getloop":11045,"##_rt":11046,"check_tensors":11047,"worknccl":11048,"##strip":11049,"='''":11050,"##_pointwise":11051,"dispatchstub":11052,"##map_":11053,"make_non":11054,"divide":11055,"traces":11056,"coalesced":11057,"constructtensors":11058,"root_stmt":11059,"##_forward_out":11060,"tech":11061,"##_header":11062,"convtranspose1d":11063,"missing_keys":11064,"attempt":11065,"##_permut":11066,"torch_library_impl":11067,"log_probs":11068,"##_lookups":11069,"_maybe_get":11070,"elementwise_mean":11071,"tr2_optional":11072,"-----":11073,"a_vulkan":11074,"##zv":11075,"##q_f32":11076,"##inc":11077,"##etype_":11078,"()};":11079,"##ecreate":11080,"is_m":11081,"))[":11082,"outputdepth":11083,"thcdevicetensor":11084,"engine_":11085,"##spac":11086,"assertequalignor":11087,"called_kernel":11088,"optionalbase":11089,"##_replacement":11090,"perchannelminmaxobserver":11091,"vk_structure_":11092,"##deriv":11093,"traceable":11094,"##e_scalar":11095,"##_new_from":11096,"alignment":11097,"##ished":11098,"smoke_linux_build":11099,"identifier":11100,"possibly":11101,"##_shared_libs":11102,"input_one":11103,"##tracing":11104,"##make_c":11105,"forget_bias":11106,"##haust":11107,"p2p":11108,"##undled_inputs":11109,"per_tensor_affine":11110,"propagate_qconfig":11111,"##standing":11112,"seems":11113,"collectives":11114,"issuecomment":11115,"caffe_get_blocks":11116,"assertequalignoretype":11117,"85":11118,">/":11119,"^{":11120,"_gener":11121,"_win32":11122,"d_p":11123,"em":11124,"gelu":11125,"lp":11126,"rstd":11127,"##ling":11128,"##f49":11129,"##job":11130,"##eloss":11131,"##_padd":11132,"##upsampling":11133,"##sertpoint":11134,"resizing":11135,"auto_gpu":11136,"processor":11137,"_testing":11138,"binary_mac":11139,"##_unboxed":11140,"##_weighted":11141,"design":11142,"base_dir":11143,"linearrelu":11144,"variant_test_name":11145,"cast_pytorch":11146,"coordin":11147,"cmakelist":11148,"wrap_dim":11149,"curs":11150,"res1val":11151,"##_package_":11152,"boundary":11153,"##_include_directories":11154,"_jit_pass_insert":11155,"thcudablas":11156,"win_length":11157,"##_mutable_":11158,"withinsertpoint":11159,"##ubsan":11160,"assertexpectedinline":11161,"##adaptive_":11162,"smoothl1":11163,"##decoder":11164,"##_policy":11165,"cudnnconvolutionbwd":11166,"btrifact":11167,"##simplifier":11168,"cast_pytorch_to_onnx":11169,"cmakelists":11170,"\"*":11171,"62":11172,"a_dims":11173,"eol":11174,"k_":11175,"mal":11176,"##_annotation":11177,"##cf":11178,"##ws_":11179,"##8f":11180,"##ze":11181,"##\\\"":11182,"##enode":11183,"##changed":11184,"input_index":11185,"output_type":11186,"##usolver":11187,"set_device":11188,"thc_generic_file":11189,"nn_":11190,"build_directory":11191,"min_size":11192,"##arts":11193,"##mbig":11194,"abort":11195,"})[":11196,"'][":11197,"##_force":11198,"##_once":11199,"##e_fn":11200,"##_kernels":11201,"incy":11202,"##pad1d":11203,"ymm3":11204,"##_value_min":11205,"_jit_pass_lint":11206,"batchnorm1d":11207,"package_a":11208,"at_assertm":11209,"binding":11210,"##accessor":11211,"_float_types2":11212,"gm_b":11213,"sparselengthssum":11214,"##_tensor_metadata_change":11215,"##lookup":11216,"_backward":11217,"broken":11218,"q_max":11219,"roll":11220,"##_analysis":11221,"##&#":11222,"in_dim":11223,"opa":11224,"test_backward":11225,"out_cpu":11226,"out_shape":11227,"mods":11228,"trilinear":11229,"nonetype":11230,"##_gamma":11231,"\")]":11232,"##concat":11233,"check_grad":11234,"##ate_size":11235,"{}\\":11236,"##kernels":11237,"iterdatapipe":11238,"##_backward_cpu":11239,"float32x4_t":11240,"symbols":11241,"##_subfolder":11242,"##operand":11243,"fusion_group":11244,"define_unary":11245,"encoder_output_dim":11246,"maxpool3d":11247,"##member":11248,"reflect":11249,"upload_subfolder":11250,"differentiablegraph":11251,"fractionalmax":11252,"check_batched_grad":11253,"releases":11254,"uint16_t":11255,"multiheadattention":11256,"'\",":11257,"]/":11258,"_param":11259,"__force":11260,"f1":11261,"range_":11262,"six":11263,"vary":11264,"##onvariabletypemode":11265,"##sex":11266,"##_dilated":11267,"asynchron":11268,"##_fetch":11269,"output_directory":11270,"run_args":11271,"enables":11272,"##ize_graph":11273,"endforeach":11274,")(*":11275,"new_size":11276,"components":11277,"min_dim":11278,"apache":11279,"vkphysical":11280,"##filename":11281,"##_off":11282,"dims1":11283,"initial_value":11284,"allow_unused":11285,"<=((":11286,"waiting":11287,"llj":11288,"##_values_":11289,"##_library_path":11290,"bitwise":11291,"geometric":11292,"averaging":11293,"_init_multigpu_helper":11294,"encoder_outputs":11295,"##access_key":11296,"words":11297,"check_batched_gradgrad":11298,"_variablefunctions":11299,"asynchronous":11300,"=/":11301,"a1":11302,"ambig":11303,"lot":11304,"##140":11305,"##esp":11306,"tensor_size":11307,"##rew":11308,"##_criterion":11309,"op2":11310,"##issing":11311,"reversed":11312,"(\"{}":11313,"quanti":11314,"\")))":11315,"\")\";":11316,"())[":11317,"end_dim":11318,"subsequ":11319,"##_to_s":11320,"##_to_float":11321,"##ed_keys":11322,"##_method_and":11323,"divided":11324,"]['":11325,"supports_tensor_out":11326,"debug_msg":11327,"##_minus":11328,"##_alg":11329,"implied":11330,"caching":11331,"num_elements":11332,"##_wrapper_":11333,"smoke_mac":11334,"pytorch_linux_trusty":11335,"tracingstate":11336,"taken":11337,"={'":11338,"##_pd_matrix":11339,"synchronization":11340,"density":11341,"##_unary_op":11342,"##_namedtensor":11343,"force_algo":11344,"_variablebase":11345,"autononvariabletypemode":11346,"_gen_sparse":11347,"cursor":11348,"79":11349,"nbatch":11350,"rules":11351,"wa":11352,"w_dequant":11353,"##rated":11354,"##cachingallocator":11355,"##3b":11356,"##etyp":11357,"tensors_":11358,"opspec":11359,"##_inp":11360,"trt":11361,"get_forward":11362,"elastic":11363,"from_":11364,"quest":11365,"())),":11366,"graph_node_list":11367,"pytorch_build":11368,"##_test_srcs":11369,"##dimension":11370,"pythonop":11371,"apple":11372,"fn_method_and":11373,"##_enc":11374,"idx_size":11375,"##withdefault":11376,"export_type":11377,"export_to_pretty_string":11378,"##der_test":11379,"equalization":11380,"}/../":11381,"##ediate_":11382,"}});":11383,"##_module_classes":11384,"v13":11385,"calc":11386,"t42":11387,"##_zero_points":11388,"gathered":11389,")[:,":11390,"trees":11391,"ymm15":11392,"increase":11393,"weight_decay_":11394,"fullyconnected":11395,"classtypeptr":11396,"##_initializers":11397,"model_helper_obj":11398,"##device_type_":11399,"##oscalars":11400,"instantiate_device_type_":11401,"##_visit":11402,"##large":11403,"backward_dtypesif":11404,"_as_tuple":11405,"##absolute":11406,"fn_method_and_inplace":11407,"_lazy":11408,"jacobians":11409,"nans":11410,"pending":11411,"##sample_":11412,"##nan":11413,"##6e":11414,"tensor_":11415,"##_mh":11416,"##trans":11417,"##_lens":11418,"num_classes":11419,"run_id":11420,"check_inputs":11421,"caffe2_cmake_":11422,"##checkpoint":11423,"logdet":11424,"##versal":11425,"##even":11426,"pad_h":11427,"warr":11428,"##olutioncallback":11429,"vma_not_null":11430,"serialize_":11431,"thrown":11432,"##logging":11433,"pred_mh":11434,"dummyop":11435,"##embedding_loss":11436,"vmapool":11437,"cycle":11438,"##general":11439,"adaptive_max_pool3d":11440,"flops":11441,"topological":11442,"##anondefaultstream":11443,"_force_":11444,"cadd":11445,"dd":11446,"dilated":11447,"ivalue_":11448,"lvl":11449,"##more":11450,"##lier":11451,"##75":11452,"##e_out":11453,"::{":11454,"stage":11455,"##uring":11456,"testautograd":11457,"##transpos":11458,"get_method":11459,"functiontype":11460,"check_output":11461,"staticruntime":11462,"trailing":11463,"has_gpu":11464,"formatter":11465,"blockreduce":11466,"##_except":11467,"recurse":11468,"cudnn_enforce":11469,"]]])":11470,"acc_t":11471,"broadcastable":11472,"rely":11473,"cu90":11474,"cmake_generator":11475,"---------------------------------":11476,"##ivalues":11477,"\"(\"":11478,"rocm4":11479,"owned":11480,"x1f49":11481,"avgpool2d":11482,"parsefromstring":11483,"assertisnot":11484,"attention_weight":11485,"##_atan":11486,"##_gradients":11487,"broadcastinglist3":11488,"##vlgamma":11489,"##_solve_test_helper":11490,"##_else":11491,"conv_transpose2d":11492,"##extra_files":11493,"##_gcc7_build":11494,"}^{":11495,"skipcudanondefaultstream":11496,"no_output_timeout":11497,"_testingerrorm":11498,"has_gpu_support":11499,"skipcudanondefaultstreamif":11500,"__i":11501,"fabs":11502,"##tml":11503,"##dag":11504,"##ycl":11505,"##fer":11506,"##3llu":11507,"##alle":11508,"##least":11509,"##leak":11510,"test_directory":11511,"teststaticruntime":11512,"outinfo":11513,"as_real":11514,"##_nbytes":11515,"##emit":11516,"proj":11517,"num_labels":11518,"from_blob":11519,"set_requires_grad":11520,"param_to":11521,"check_count":11522,"expected_counts":11523,"##_to_size":11524,"train_init_net":11525,"##_triv":11526,"##_extern":11527,"protoc":11528,"irsimplifier":11529,"v1_":11530,"##userdata":11531,"width_scale":11532,"]]).":11533,"linked":11534,"treat":11535,"upsample_trilinear3d":11536,"##_delay":11537,"combine":11538,"005":11539,"##_negative_":11540,"##_system":11541,"convtranspose3d":11542,"assertexpectedgraph":11543,"hardtanh_":11544,"connect":11545,"##rangesize":11546,"##_backward_out_cuda":11547,"##_transpose_":11548,"##inline__":11549,"snap":11550,"##_featur":11551,"################################################################################":11552,"assertgreaterequal":11553,"__forceinline__":11554,"instantiate_device_type_tests":11555,":/":11556,"ve":11557,"x_inverse":11558,"##des":11559,"##dedicated":11560,"##way":11561,"##62":11562,"##09":11563,"##}\"":11564,"##onse":11565,"torch_warn":11566,"##unpooling":11567,"op_func":11568,"##apis":11569,"beam":11570,"())))":11571,"##_opts":11572,"pythonrp":11573,"##s_io":11574,"gencode":11575,"##maxunpooling":11576,"thcudatensor_ndimension":11577,"##buffermemory":11578,"##runner":11579,"vs2019":11580,"##_backends":11581,"##775":11582,"calculation":11583,"external_output":11584,"##_pad_width":11585,"equation":11586,"##iki":11587,"concrete":11588,"##_yaml":11589,"dumps":11590,"histogramobserver":11591,"##_dependencies":11592,"reshape_":11593,"##############################################################################":11594,"vulkan_symbol_wrapper_load_instance_":11595,"##poolopbase":11596,"discussion":11597,"angle":11598,"_testingerrormeta":11599,"pythonrpchandler":11600,"vulkan_symbol_wrapper_load_instance_symbol":11601,"_do":11602,"gflags":11603,"ij":11604,"pap":11605,"pdf":11606,"tl":11607,"wget":11608,"##lpack":11609,"##(%":11610,"##e_loss":11611,"stype":11612,"##ulate_":11613,"input_w":11614,"##isting":11615,"test_call":11616,"##_instrument":11617,"##allfused":11618,"unable":11619,"##_rs":11620,"##_ops_":11621,"(()),":11622,"##ationship":11623,"_test_":11624,"reductions":11625,"disabl":11626,"##mutator":11627,"##_processes":11628,"##_2_cudnn7_py3":11629,"avgpool3d":11630,"simple_":11631,"##booltensor":11632,"caffe_enforce_with_caller":11633,"tensoriteratorconfig":11634,"xmm7":11635,"notify":11636,"test_with_asan":11637,"rsig":11638,"get_default_dtype":11639,"scripted_mod":11640,"##signature":11641,"remote_module":11642,"purpose":11643,"microsoft":11644,"##commandbuffer":11645,"fakequantize":11646,"interface_":11647,"orthogonal":11648,"38095":11649,"69":11650,"aug":11651,"cent":11652,"ezy":11653,"four":11654,"qweight":11655,"##pickle":11656,"##ca":11657,"stuff":11658,"ops_":11659,"is_vulkan":11660,"cuda92":11661,"(',":11662,"##wards":11663,"##_input_output":11664,"cudag":11665,"indices_data":11666,"##_compare":11667,"warm":11668,"basetype":11669,"array_shapes":11670,"account":11671,"differences":11672,"records":11673,"num_axes":11674,"##results":11675,"##_loaded":11676,"##vars":11677,"##_returns":11678,"##multipl":11679,"logical_not":11680,"_float_types_no_half":11681,"gm_a":11682,"##_reports":11683,"triangular_solve":11684,"nniqat":11685,"##celoss":11686,"luat_getfieldcheckint":11687,"kl_div":11688,"_packed_params":11689,"##dilatedconvolution":11690,"##spatialbn":11691,"_generate_":11692,"ezyang":11693,"83":11694,"ft":11695,"fine":11696,"hints":11697,"kb":11698,"piv":11699,"qtensor":11700,"t_in":11701,"vh":11702,"v30":11703,"{@":11704,"##finite":11705,"##4e":11706,"##71":11707,"##uration":11708,"op1":11709,"tokens":11710,"##_np":11711,"autoclass":11712,"##usage":11713,"grouped":11714,"use_floating":11715,"=[],":11716,"##_ok":11717,"_sparse_":11718,"##logits":11719,"v2_":11720,"popd":11721,"removing":11722,"nbins":11723,"##result_t":11724,"rights":11725,"##_jit_signature":11726,"luat_api":11727,"matches_jit_signature":11728,"markcompleted":11729,"##ynchronize":11730,"##typetest":11731,"accepts":11732,"perf_t":11733,"indicating":11734,"adaptive_avg_pool3d":11735,"attempting":11736,"##_multiplier":11737,"##_distribution":11738,"gesv":11739,"##legal":11740,"##_nothrow":11741,"fs":11742,"hint":11743,"pct":11744,"xcode":11745,"##veldb":11746,"##lens":11747,"##template":11748,"##atomic":11749,"incons":11750,"togeneric":11751,"##\"\",":11752,">(*":11753,"maxnorm":11754,"quantize_handler":11755,"##ptrs":11756,"##_net_def":11757,"##e_flags":11758,"ordering":11759,"caffe_throw":11760,"fills":11761,"##_known":11762,"##_conv_params":11763,"##wise_not":11764,"v15":11765,"catch_warnings":11766,"##reduce_":11767,"##ansformer":11768,"##overflow":11769,"right_inverse":11770,"##attribute__":11771,"##_onnx_opset_version":11772,"sharded":11773,"##typet":11774,"##_protoc":11775,"reserv":11776,"recurrentnetwork":11777,"tostringref":11778,"##_matching":11779,"##_integer":11780,"##_bounds":11781,"##profiler":11782,"smooth_l1_loss":11783,"captured":11784,"##e_device_":11785,"caffe2_specialized_cuda":11786,"omitted":11787,"scalar_type_to_onnx":11788,"caffe2_cuda_export":11789,"hop_length":11790,"cantfail":11791,"%.":11792,"%\\\\":11793,">.":11794,"_to":11795,"##rgb":11796,"##gs":11797,"invariant":11798,"selector":11799,"torchfn":11800,"conflict":11801,"##_cos":11802,"##_nelem":11803,"##outer":11804,"get_jit":11805,"data_channel":11806,"data_type_":11807,"param_group":11808,"([])":11809,"##grad_input":11810,"##onger":11811,"scripting":11812,"##mapped":11813,"##ocations":11814,"use_count":11815,"##_all_workers":11816,"signature_":11817,"globalinit":11818,"conditional":11819,"prefixstore":11820,"upscale_factor":11821,"gcc4":11822,"##_postfix":11823,"##funcinfo":11824,"subgraphs":11825,"detach_":11826,"requestcallback":11827,"bsz":11828,"##_fields":11829,"y0_fp64vec2":11830,"testnamedtensor":11831,"arg_op_other":11832,"##~~~~~~~~~~~~~~":11833,"##_summary":11834,"covari":11835,"##s_io_type_":11836,"]},":11837,"category":11838,"kbool":11839,"nhead":11840,"tdata":11841,"vst":11842,"v3_":11843,"v4_":11844,"y_ref":11845,"yml":11846,"##sorted":11847,"##custom":11848,"##4b":11849,"##b0":11850,"thdp":11851,"##amily":11852,"##_sam":11853,"input_width":11854,"asarray":11855,"py_type":11856,"output_dims":11857,"output_process":11858,"assertles":11859,"float_tensor":11860,"##omplex":11861,"setdefault":11862,"##sprop":11863,"##_void":11864,"##_to_b":11865,"blocked":11866,"defineabsolute":11867,"full_like":11868,"messageid":11869,"infinity":11870,"##etensortype":11871,"##ugared":11872,"done_event":11873,"##ediately":11874,"num_iter":11875,"khalf":11876,"##_commit":11877,"##_value_max":11878,":].":11879,"##remot":11880,"##deprecated":11881,"dense_dim":11882,"logsigmoid":11883,"fan_in":11884,"%\"==":11885,"thcudatensor_newcontiguous":11886,"architecture":11887,"##_encoder":11888,"output_process_fn":11889,"assertlessequal":11890,"_import":11891,"__args__":11892,"driver":11893,"i_":11894,"nex":11895,"pm":11896,"p_":11897,"##edef":11898,"()])":11899,"##_tsan":11900,"##_gre":11901,"befor":11902,"cudaerror":11903,"pytorch_android":11904,"##inputop":11905,"index_data":11906,"{}}));":11907,"!=(":11908,"##_shuffle":11909,"installing":11910,"##_build_dir":11911,"mapped":11912,"local_bs":11913,"##_group_test":11914,"##storag":11915,"##_gpu_arch":11916,"transb":11917,"actuals":11918,"##_logger":11919,"orgqr":11920,"##ierarch":11921,"unpackinteger":11922,"removes":11923,"symeig":11924,"##ompute_":11925,"##_state_dim":11926,"##_coef":11927,"affect":11928,"##_1d_kernel_loop":11929,"##acc__":11930,"##_typename":11931,"unsafeget":11932,"_flat":11933,"pytorch_windows_vs":11934,"cnmem":11935,"__cudacc__":11936,"##_padded_sequence":11937,"malform":11938,"##allest":11939,"!\")":11940,"__a":11941,"_quantized":11942,"_extra_files":11943,"kdouble":11944,"q_min":11945,"re_":11946,"##3f":11947,"##itud":11948,"##ading":11949,"testd":11950,"##_move_":11951,"modern":11952,"output_blob":11953,"##_stubs":11954,"##_stdev":11955,"##cret":11956,"runner":11957,"##ildiv":11958,"c10_mobile":11959,"model_dir":11960,"jitsymbol":11961,"string_classes":11962,"quantized_":11963,"convpoolopbase":11964,"script_fn":11965,"2016":11966,"vert":11967,"splitwith":11968,"myclass":11969,"bucket_count":11970,"stmts":11971,"##compiler":11972,"##_interface":11973,"unusedrangesize":11974,"_rendezvous":11975,"##_images":11976,"boxes":11977,"tensorproto_datatype_":11978,"pointwise1":11979,"##ategories":11980,"invoke_":11981,"_default_pg":11982,"osizew":11983,"suite_name":11984,"_pack":11985,"b_q":11986,"cf":11987,"h2f":11988,"lmdb":11989,"tile_":11990,"##includ":11991,"input_idx":11992,"to_":11993,"##istribut":11994,"pylong":11995,"argtypetest":11996,"dimsize":11997,"from_float":11998,"src_stride":11999,"pythonprint":12000,"sub_":12001,"##_init_":12002,"##e_decl":12003,"##_shadow":12004,"overwrite":12005,"numbertype":12006,"##without":12007,"basename":12008,"blob_in":12009,"##iterdatapipe":12010,"sm_":12011,"worker_init_fn":12012,"interval":12013,"aliasing":12014,"*)$":12015,"global_step":12016,"num_iters":12017,"height_scale":12018,"##known_type":12019,"##reload":12020,"formal":12021,"imaginary":12022,"##visit":12023,"occur":12024,"aware":12025,"##execution":12026,"##_observed_values":12027,"##e_complex":12028,"##edims":12029,"force_reload":12030,"##_momentum":12031,"set_default_tensor_type":12032,"##_running_stats":12033,"##_mtl":12034,"##analytical_jacobian":12035,"nproc":12036,"##ccurrence":12037,"argtypetestkernel":12038,"bbox":12039,"iy":12040,"lite":12041,"nargs":12042,"nderiv":12043,"uid":12044,"v32":12045,"z_optimized":12046,"z_standard":12047,"##tod":12048,"##goog":12049,"th_index_base":12050,"stub":12051,"##_side":12052,"opset":12053,"test_ddp":12054,"pymethod":12055,"getstream":12056,"causes":12057,"data_impl":12058,"set_weight":12059,"##_html":12060,"paramtype":12061,"batched_":12062,"##kip_if":12063,"attr_name":12064,"supports_":12065,"##float32":12066,"##_ios":12067,"device_ptr":12068,"##sha1":12069,"'')":12070,"givenptr":12071,"positions":12072,"ptrs":12073,"##variables":12074,"symbolic_helper":12075,"##wrap_optional":12076,"accessed":12077,"scatter_":12078,"smoke_linux_libtorch_2":12079,"interpolation":12080,"indicate":12081,"rmsprop":12082,"##chunks":12083,"##greg":12084,"##_normal_":12085,"immediately":12086,"eliminated":12087,"##befor":12088,"assert_array_almost_equal":12089,"##ilout":12090,"_flatten":12091,"hipify_caffe2":12092,"successfully":12093,"##_segment":12094,"!),":12095,"/>":12096,"__half":12097,"c_fp32vec4":12098,"d3":12099,"sobol":12100,"##pers":12101,"##rm":12102,"##v3":12103,"##orage":12104,"at_cuda":12105,"inputtensor":12106,"##quer":12107,"##_mer":12108,"typec":12109,"##anties":12110,"check_all":12111,"cpu_context":12112,"##checker":12113,"index_queue":12114,"1029":12115,"longest":12116,"use_operator":12117,"##_reshap":12118,"recorded":12119,"##_torchscript":12120,"##ithmetic":12121,"mse_loss":12122,"circle_branch":12123,"##_broadcast_lhs":12124,"mpsimage":12125,"connections":12126,"##_common_args":12127,"resnet18":12128,"##_activation_post_process":12129,"view_as_real":12130,"##_propagation":12131,"fractional_max_pool2d":12132,"##_kernel_launch_check":12133,"##sparsel":12134,"testq8":12135,"generate_pt_test":12136,"##wisesparseadagrad":12137,"warranties":12138,"nderivs":12139,"*\"":12140,"72":12141,"92":12142,"celu":12143,"iwidth":12144,"p_n":12145,"tstype":12146,"ud":12147,"v5_":12148,"w_col":12149,"##mqr":12150,"##tup":12151,"##_attributes":12152,"##c2":12153,"##ered":12154,"##cholesky":12155,"##e_call":12156,"##odule":12157,"##_cases":12158,"##_fus":12159,"##emask":12160,"##ifi":12161,"resolve":12162,"resolver":12163,"expired":12164,"beg":12165,"cuda_1d_kernel_loop":12166,"with_args":12167,"ormqr":12168,"independent":12169,"##ppool":12170,"##ooffset":12171,"libprotobuf":12172,"cancel":12173,"moduletype":12174,"quantized_data":12175,"dispatchtable":12176,"_test_complex":12177,"##withlogits":12178,"smallest":12179,"initialize_":12180,"implementing":12181,"deleted":12182,"##_fromlong":12183,"become":12184,"drop_states":12185,"named_modules":12186,"sysconfig":12187,"v17":12188,"executing":12189,"##_export_import":12190,"_fake_":12191,"capability":12192,"encounter":12193,"allocationcount":12194,"7m_cu100":12195,"qualname":12196,"hostname":12197,"##_powersgd":12198,"define_string":12199,"ninputcols":12200,"##_reference_fn":12201,"unlike":12202,"away":12203,"terms":12204,"000000":12205,"evaluation":12206,"cuspars":12207,"##_epi32":12208,"q_per_channel_scales":12209,"##imagememory":12210,"testlinalg":12211,".])":12212,"[@":12213,"_start":12214,"hs":12215,"lif":12216,"vc_":12217,"x_counts":12218,"##ving":12219,"##year":12220,"##ground":12221,"##enot":12222,"##anth":12223,"##uniqu":12224,"test_cpu":12225,"testclass":12226,"##_fbgemm":12227,"##_me":12228,"alive":12229,"##_less":12230,"cpu_half":12231,"##_appl":12232,"pathlib":12233,"iter_indices":12234,"##scriptmodule":12235,"##_shapecheck":12236,"bufferimagegranularity":12237,"_get_default":12238,"test_cat":12239,"t43":12240,"test_quantized":12241,"grid_sample":12242,"_mm256_c":12243,"##_decoder":12244,"propagated":12245,"}({":12246,"ninputrows":12247,"##_levels":12248,"logger_cls":12249,"restore":12250,"thputils_check":12251,"##_iters":12252,"thnn_cudas":12253,"rdzv":12254,"##_profiler_with":12255,"th_tensor_dim_apply":12256,"##activity":12257,"smoothl1loss":12258,"define_unary_op":12259,"fullyconnectedoperatortester":12260,"vc_year":12261,"!(":12262,".),":12263,"71":12264,"_net":12265,"_vmap":12266,"b_scalar":12267,"bceloss":12268,"gumbel":12269,"hcc":12270,"jni":12271,"scheme":12272,"tiles":12273,"##_ubsan":12274,"##));":12275,"##ulti":12276,"##_socket":12277,"inputdepth":12278,"##_fd":12279,"##_fixed":12280,"output_name":12281,"unexpect":12282,"data_parallel":12283,"convolving":12284,"python_error":12285,"lib_path":12286,"']))":12287,"##for_backward":12288,"deploy":12289,"vk_success":12290,"linearid":12291,"thnn_conv":12292,"quantstub":12293,"intrusive":12294,"binary_linux_libtorch_2":12295,"meth_o":12296,"##padnd":12297,"##_conda_3_":12298,"standarddouble_":12299,"boxed":12300,"##quantizationparams":12301,"multilabel_margin_loss":12302,"microbenchmark":12303,"circle_sha1":12304,"rhs_":12305,"##_large":12306,"licensed":12307,"##vectort":12308,"_stacklevel":12309,"_force_outplace":12310,"vst1":12311,"unexpected_keys":12312,"sk":12313,"td":12314,"v6_":12315,"wiki":12316,"{*":12317,"}]":12318,"##rang":12319,"##cb":12320,"##ben":12321,"##or_traced":12322,"ths":12323,"thbooltensor":12324,"##estate":12325,"##acter":12326,"is_dynamic":12327,"##_lapack":12328,"chmod":12329,"max_length":12330,"expected_unique_":12331,"log_input":12332,"##aved":12333,"argumentparser":12334,"_test_device_maps":12335,"##shot":12336,"baset":12337,"##_argcheck":12338,"find_library":12339,"parameterized":12340,"signatures":12341,"delay":12342,"activities":12343,"save_mean":12344,"}\".":12345,"bucket_index":12346,"##observed":12347,"consec":12348,"mechan":12349,"gradinput_data":12350,"##remal":12351,"taking":12352,"multiplies":12353,"##cudad":12354,"##levels":12355,"recursive_":12356,"_all_weight":12357,"inlin":12358,"l1loss":12359,"ensure_":12360,"illegal":12361,"responsefuture":12362,"test_fn_gradgrad":12363,"##ifferenti":12364,"##_comparison":12365,"vmablockmetadata":12366,"##_overrides":12367,"scripted_or_traced":12368,"##_so_version":12369,"vk_structure_type_":12370,"_flat_weights":12371,"a2":12372,"bicubic":12373,"fun":12374,"rptr":12375,"##ogn":12376,"##ru":12377,"##_image":12378,"##_attn":12379,"##hore":12380,"##fp32":12381,"##alt":12382,"##oded":12383,"##icial":12384,"death":12385,"##leveldb":12386,"##loops":12387,"atom":12388,"##_sqrt":12389,"op_registration":12390,"pyobj":12391,"dimh":12392,"##_ranges":12393,"importlib":12394,"grad_spec":12395,"##efor":12396,"booltensor":12397,"set_module_name":12398,"static_dispatch":12399,"srcoffset":12400,"callparams":12401,"##egist":12402,"cudatensor":12403,"sums":12404,"match_vmap":12405,"##_indices_":12406,"]),),":12407,"##vectorarraymap":12408,"type_hint":12409,"row_size":12410,"byte_":12411,"softmin":12412,"rrefs":12413,"v18":12414,"##backendoptions":12415,"##_prepar":12416,"module_instance":12417,"rocblas":12418,"_pg":12419,"savedvariable":12420,"_no":12421,"sharding":12422,"w_zp":12423,"test_with_tsan":12424,"()];":12425,"##fused8bitrowwise":12426,"preserved_":12427,"q_per_channel_zero_points":12428,"random_symmetric_pd_matrix":12429,"consteigenvectorarraymap":12430,"##_input_output_mem_overlap":12431,"\"><":12432,"(/*":12433,"+;":12434,"]\",":12435,"_work":12436,"bot":12437,"fav":12438,"ncc":12439,"ru":12440,"##pow":12441,"##post":12442,"##_an":12443,"##fac":12444,"##3_html":12445,"##timport":12446,"tensorutils":12447,"##rewrit":12448,"##_dst":12449,"##asset":12450,"output_size_":12451,"assert_close":12452,"res_":12453,"parents":12454,"thcstorage":12455,"##spath":12456,"check_forward":12457,"operatorgenerator":12458,"##ignored":12459,"ids":12460,"overall":12461,"##_with_prefix":12462,"vkdevic":12463,"chars":12464,"##raction":12465,"inserting":12466,"mask1":12467,"##storetest":12468,"transa":12469,"allow_tensor_metadata_change":12470,"##_resp":12471,"quants":12472,"create_generic":12473,"pool1":12474,"module_qconfig":12475,"clamp_min":12476,"scale_factors":12477,"##_autograd_meta":12478,"volumetricfullconvolution":12479,"attrs_with_prefix":12480,"##devs":12481,"hidden_t_prev":12482,"binary_linux_manywheel_3_6":12483,"transformerencoder":12484,"##oped_release":12485,"purpos":12486,"##e_distributed":12487,"trivial":12488,"gil_scoped_release":12489,"##exportimport":12490,"inconsistent":12491,"jitsymbolflags":12492,"[@]":12493,"($":12494,"_list":12495,"_multi":12496,"b_self":12497,"fmax":12498,"pstr":12499,"v7_":12500,"yy":12501,"y_data":12502,"zp":12503,"##pe":12504,"##_ann":12505,"##_attention":12506,"##dtype":12507,"##8a":12508,"##orr":12509,"##orl":12510,"##oryp":12511,"##ecord":12512,"##_text":12513,"##uretype":12514,"##ionic":12515,"##andweak":12516,"clone_":12517,"##ceildiv":12518,"##ubgraph":12519,"dimw":12520,"num_replicas":12521,"##conversion":12522,"##errorstring":12523,"active":12524,"##s_available":12525,"##_implemented":12526,"##_progress":12527,"##_id_":12528,"vkstruct":12529,"giventensor":12530,"futs":12531,"##escatter":12532,"extrafiles":12533,"followed":12534,"betas":12535,"performing":12536,"overloaded":12537,"update_s":12538,"depthwise":12539,"##_custom_module_class":12540,"dequantstub":12541,"fixed_batch_size":12542,"onnxifitr":12543,"blacklist":12544,"l1_loss":12545,"##_volatile":12546,"##_latency_sec":12547,"ctc_loss":12548,"pointwise0_fp16":12549,"bazel":12550,"##itives":12551,"##_manager":12552,"##histogram":12553,"delegate_simpl":12554,"insertquantdequanth":12555,"getloopstmts":12556,"##3_htmls":12557,"vkstructuretype":12558,"update_s3_htmls":12559,"onnxifitransformer":12560,"insertquantdequanthelper":12561,"253":12562,"gate_size":12563,"s_":12564,"sur":12565,"##fast":12566,"##board":12567,"##63":12568,"##esolutioncallback":12569,"##ilstm":12570,"test_conv":12571,"##omap":12572,"uname":12573,"##ership":12574,"with_stateless":12575,"gradbucket":12576,"num_kernels":12577,"seterror":12578,"all_to_all":12579,"##e_ctor":12580,"101":12581,"##ynomial":12582,"groupmember":12583,"_cdata":12584,"##akind":12585,"##_sha":12586,"abspath":12587,"##_as_inputs":12588,"##othing":12589,"character":12590,"##vertex":12591,"keep_initializers":12592,"))));":12593,"workerinfo":12594,"](../":12595,"create_empty":12596,"cmake_binary":12597,"##where":12598,"differently":12599,"parallelism":12600,"##_0_cudnn":12601,"mseloss":12602,"skip_if_small":12603,"_uns":12604,"helpers":12605,"simplevalue":12606,"pin_memory_thread":12607,"affine_":12608,"learningrate":12609,".*'":12610,"automatic":12611,"shareexternal":12612,")``.":12613,"##_compile_args":12614,"__setattr__":12615,"schemakind":12616,"_disttestbase":12617,"##algo_t":12618,"convrelu2d":12619,"applicable":12620,"precedence":12621,"createresolutioncallback":12622,"keep_initializers_as_inputs":12623,"skip_if_small_world":12624,"_ivalue":12625,"_device_":12626,"`-":12627,"cumul":12628,"h_col":12629,"m_":12630,"tips":12631,"vl":12632,"##mismatch":12633,"##patial":12634,"##pipe":12635,"##5f":12636,"##los":12637,"##imination":12638,"py_return":12639,"autogpu":12640,"shallow":12641,"addexternal":12642,"##ildcard":12643,"##span":12644,"check_eq":12645,"')'":12646,"area":12647,"libkineto":12648,"##pcg":12649,"##_output_size":12650,"group_norm":12651,"##allocated":12652,"##resizeto":12653,"##_with_logits":12654,"pads_":12655,"##withsize":12656,"##e_first":12657,"allow_list":12658,"converting":12659,"v19":12660,"predictions":12661,"##libcxx":12662,"bitwise_not":12663,"peer":12664,"##atively":12665,"fastresizeto":12666,"##_blocking_wait":12667,"##_whitelist":12668,"excluded":12669,"test_with_ubsan":12670,"describe":12671,"merge_":12672,"discard":12673,"y0_fp32vec4":12674,"##zerop":12675,"##inferenc":12676,"##_general":12677,"osizeh":12678,"##_warmup":12679,"_remove_":12680,"##_toolkit":12681,"intrusiveandweak":12682,"fastresizetozero":12683,"84":12684,"ctor":12685,"hang":12686,"rst":12687,"v8_":12688,"y_cpu":12689,"}-":12690,"##pop":12691,"##dis":12692,"##gence":12693,"##2float":12694,"##eline_":12695,"##_svd":12696,"##_pref":12697,"resized":12698,"##make":12699,"with_tf32":12700,"##_range_":12701,"num_groups":12702,"thcstensor":12703,"come":12704,"c10_declare_":12705,"max_dim":12706,"newaxis":12707,"##ssize":12708,"shapeinfo":12709,"{}/":12710,"tensors2":12711,"##_parser":12712,"application":12713,"ncclresult_t":12714,"available_":12715,"infers":12716,"##_kernel_impl":12717,"##_file_name":12718,"prev_output":12719,"memtypeindex":12720,"memonger":12721,"fc3":12722,"rrefid":12723,"neg_dim":12724,"##threadpool":12725,"##lopen":12726,"declare_dispatch":12727,"benchmarks":12728,"_fork":12729,"##_sum_to_size":12730,"accessor":12731,"node_to":12732,"##_ddp_logging_data":12733,"##remote_":12734,"interpolate_":12735,"##_convolution_backward":12736,"##_proj_bias":12737,"##prefix_path":12738,"_grad_sum_to_size":12739,"schemas":12740,"##maxpooling_updateoutput":12741,"daemon":12742,"caffe2_linux_build_defaults":12743,"adaptiveavgpool2d":12744,"##_time_total":12745,"sparselengthsweightedsum":12746,"##_qat_module_mapping":12747,"##ruption":12748,"collapsedims":12749,"node_name_to_scope":12750,"##_minus_one":12751,"supports_autograd":12752,"create_empty_from":12753,"_ver":12754,"_recurs":12755,"sandcastle":12756,"##dx":12757,"##odel":12758,"##acyn":12759,"op_out":12760,"##advanced":12761,"reassign":12762,"##_messages":12763,"##_missing":12764,"##android":12765,"alt":12766,"floatto":12767,"cuda_toolkit":12768,"scalar_to":12769,"new_grad":12770,"[]?":12771,"##s_of":12772,"expected_size":12773,"cudnnd":12774,"size_from":12775,"##_append":12776,"keyerror":12777,"vk_null":12778,"##ichlet":12779,"thread_local":12780,"constantpropagation":12781,"##iterations":12782,"##llib":12783,"memset":12784,"_jit_set":12785,"##_target_properties":12786,"##ngstate":12787,"0xff":12788,"moves":12789,"replaces":12790,"img_data":12791,"execution_step":12792,"accumulation":12793,"sliced":12794,"vc_product":12795,"evaluate":12796,"##adaptivemax":12797,"__m128i":12798,"frozen":12799,"spectral":12800,"##epochs":12801,"##ymous":12802,"check_grad_dtypes":12803,"malformed_input":12804,"mechanism":12805,"delegate_simple_cuda":12806,"getloopstmtsfor":12807,"cmake_binary_dir":12808,"size_from_dim":12809,"vk_null_handle":12810,"dom":12811,"gath":12812,"hierarch":12813,"rout":12814,"w_dtype":12815,"##madd":12816,"##_ti":12817,"##han":12818,"##fort":12819,"##ql":12820,"##tices":12821,"deal":12822,"##_table_":12823,"##_sm":12824,"op_id":12825,"input_val":12826,"test_str":12827,"##agator":12828,"outputchannels":12829,"##_gru":12830,"unc":12831,"cuda_gpu":12832,"##_right":12833,"pre_":12834,"set_index":12835,"##_construct":12836,"##_constructible":12837,"expected_result":12838,"##pc64":12839,"]]),":12840,"binaryoptype":12841,"##_checks":12842,")]:":12843,"generators":12844,">()->":12845,"##_constant_prop":12846,",)):":12847,"tensoriteratorbase":12848,"emitexpr":12849,"urllib":12850,"##notrans":12851,"##_stride_":12852,"##000000":12853,"loaded_mod":12854,"track_running_stats":12855,"potentially":12856,"tensorbound":12857,"w1lambda":12858,"shellcheck":12859,"##_c10d":12860,"num_slots":12861,"##ertn":12862,"entrypointer":12863,"##ed_encoder_context":12864,"multimarginloss":12865,"safetodense":12866,"##epropagator":12867,"leaves":12868,"09":12869,
[...]
