{"version":"1.0","truncation":null,"padding":null,"added_tokens":[{"id":0,"special":true,"content":"[UNK]","single_word":false,"lstrip":false,"rstrip":false,"normalized":false},{"id":1,"special":true,"content":"[CLS]","single_word":false,"lstrip":false,"rstrip":false,"normalized":false},{"id":2,"special":true,"content":"[SEP]","single_word":false,"lstrip":false,"rstrip":false,"normalized":false},{"id":3,"special":true,"content":"[PAD]","single_word":false,"lstrip":false,"rstrip":false,"normalized":false},{"id":4,"special":true,"content":"[MASK]","single_word":false,"lstrip":false,"rstrip":false,"normalized":false}],"normalizer":{"type":"Sequence","normalizers":[{"type":"NFD"},{"type":"Lowercase"},{"type":"StripAccents"}]},"pre_tokenizer":{"type":"Whitespace"},"post_processor":{"type":"TemplateProcessing","single":[{"SpecialToken":{"id":"[CLS]","type_id":0}},{"Sequence":{"id":"A","type_id":0}},{"SpecialToken":{"id":"[SEP]","type_id":0}}],"pair":[{"SpecialToken":{"id":"[CLS]","type_id":0}},{"Sequence":{"id":"A","type_id":0}},{"SpecialToken":{"id":"[SEP]","type_id":0}},{"Sequence":{"id":"B","type_id":1}},{"SpecialToken":{"id":"[SEP]","type_id":1}}],"special_tokens":{"[CLS]":{"id":"[CLS]","ids":[1],"tokens":["[CLS]"]},"[SEP]":{"id":"[SEP]","ids":[2],"tokens":["[SEP]"]}}},"decoder":null,"model":{"type":"WordPiece","unk_token":"[UNK]","continuing_subword_prefix":"##","max_input_chars_per_word":100,"vocab":{"[UNK]":0,"[CLS]":1,"[SEP]":2,"[PAD]":3,"[MASK]":4,"!":5,"\"":6,"#":7,"$":8,"%":9,"&":10,"'":11,"(":12,")":13,"*":14,"+":15,",":16,"-":17,".":18,"/":19,"0":20,"1":21,"2":22,"3":23,"4":24,"5":25,"6":26,"7":27,"8":28,"9":29,":":30,";":31,"<":32,"=":33,">":34,"?":35,"@":36,"[":37,"\\":38,"]":39,"^":40,"_":41,"`":42,"a":43,"b":44,"c":45,"d":46,"e":47,"f":48,"g":49,"h":50,"i":51,"j":52,"k":53,"l":54,"m":55,"n":56,"o":57,"p":58,"q":59,"r":60,"s":61,"t":62,"u":63,"v":64,"w":65,"x":66,"y":67,"z":68,"{":69,"|":70,"}":71,"~":72,"с":73,"—":74,"‘":75,"’":76,"“":77,"”":78,"…":79,"##f":80,"##l":81,"##a":82,"##g":83,"##s":84,"##_":85,"##n":86,"##m":87,"##e":88,"##p":89,"##c":90,"##r":91,"##t":92,"##i":93,"##z":94,"##u":95,"##1":96,"##0":97,"##d":98,"##o":99,"##y":100,"##h":101,"##w":102,"##x":103,"##6":104,"##“":105,"##b":106,"##q":107,"##.":108,"##+":109,"##,":110,"##v":111,"##k":112,"##)":113,"##2":114,"##9":115,"##4":116,"##7":117,"##8":118,"##5":119,"##j":120,"##3":121,"##[":122,"##`":123,"##>":124,"##/":125,"##(":126,"##\"":127,"##:":128,"##-":129,"##}":130,"##%":131,"##\\":132,"##…":133,"##=":134,"##'":135,"##<":136,"##*":137,"##{":138,"##&":139,"##]":140,"##?":141,"##@":142,"##’":143,"##!":144,"##;":145,"##$":146,"###":147,"##|":148,"##~":149,"##or":150,"##er":151,"##in":152,"##on":153,"##at":154,"##en":155,"##es":156,"in":157,"##ion":158,"##le":159,"##ing":160,"##ar":161,"for":162,"##an":163,"to":164,"##ed":165,"##dd":166,"##al":167,"##it":168,"##ch":169,"fi":170,"add":171,"re":172,"fix":173,"##st":174,"##ut":175,"##ro":176,"##ct":177,"##mp":178,"##ve":179,"##od":180,"##est":181,"##et":182,"th":183,"an":184,"##ac":185,"##ent":186,"##re":187,"##se":188,"##ad":189,"##il":190,"##un":191,"##ic":192,"##ens":193,"##orch":194,"op":195,"and":196,"test":197,"on":198,"##ort":199,"##ation":200,"##up":201,"##iz":202,"##ensor":203,"##pe":204,"##oc":205,"of":206,"##ate":207,"py":208,"co":209,"##ove":210,"##am":211,"con":212,"##ul":213,"##ment":214,"##port":215,"de":216,"##ab":217,"##lo":218,"##ri":219,"tensor":220,"##ud":221,"##ak":222,"##ss":223,"di":224,"st":225,"##ag":226,"##ction":227,"bu":228,"##ode":229,"torch":230,"the":231,"##ce":232,"##ant":233,"rem":234,"##ack":235,"##able":236,"ex":237,"##ap":238,"##ith":239,"##ol":240,"sup":241,"##ake":242,"up":243,"ch":244,"support":245,"##ig":246,"doc":247,"pyt":248,"cud":249,"##ff":250,"##ec":251,"remove":252,"ca":253,"##unction":254,"##uant":255,"with":256,"imp":257,"##ot":258,"al":259,"ty":260,"##ers":261,"at":262,"##rom":263,"en":264,"##ter":265,"##im":266,"un":267,"use":268,"function":269,"quant":270,"##ess":271,"##as":272,"cuda":273,"##ist":274,"##ur":275,"##ild":276,"from":277,"##el":278,"##rad":279,"::":280,"##all":281,"##po":282,"##pt":283,"##id":284,"upd":285,"##ator":286,"comp":287,"build":288,"lo":289,"##and":290,"##ex":291,"##us":292,"wh":293,"##ize":294,"##ang":295,"][":296,"##atch":297,"##orm":298,"##put":299,"##ffe":300,"##om":301,"pro":302,"##ver":303,"##eck":304,"##pl":305,"##nx":306,"##ore":307,"##ult":308,"onnx":309,"make":310,"tests":311,"##ctor":312,"##age":313,"caffe":314,"##rap":315,"update":316,"##ror":317,"##is":318,"##op":319,"##pu":320,"##ace":321,"##ard":322,"caffe2":323,"sc":324,"##nn":325,"##fa":326,"##erator":327,"##_t":328,"##em":329,"##ial":330,"tr":331,"er":332,"int":333,"jit":334,"##ind":335,"##ow":336,"pytorch":337,"()":338,"##ly":339,"##if":340,"sh":341,"##lement":342,"opt":343,"error":344,"ar":345,"##um":346,"when":347,"check":348,"cl":349,"##cl":350,"lin":351,"##end":352,"type":353,"##ub":354,"##par":355,"##low":356,"move":357,"##ue":358,"##ip":359,"par":360,"##pi":361,"mod":362,"aten":363,"is":364,"##_c":365,"##hon":366,"##ument":367,"operator":368,"##ass":369,"##ule":370,"enable":371,"##raph":372,"back":373,"out":374,"code":375,"nn":376,"##ib":377,"implement":378,"##grad":379,"##rib":380,"##ari":381,"python":382,"##ization":383,"##ty":384,"##ive":385,"##_d":386,"##ew":387,"conv":388,"##ribut":389,"##_s":390,"##ork":391,"##ax":392,"aut":393,"dis":394,"not":395,"##ast":396,"us":397,"##ning":398,"as":399,"##int":400,"##nel":401,"docs":402,"##ob":403,"##ay":404,"##ame":405,"##ript":406,"##ary":407,"##pr":408,"inst":409,"be":410,"arg":411,"##ru":412,"##ure":413,"gen":414,"ops":415,"##ersion":416,"chang":417,"log":418,"##ile":419,"graph":420,"##ath":421,"functions":422,"set":423,"##ward":424,"api":425,"input":426,"all":427,"##per":428,"##ir":429,"##mpl":430,"impro":431,"##ity":432,"dist":433,"run":434,"cpu":435,"##fer":436,"##ence":437,"##qu":438,"##10":439,"##out":440,"met":441,"pr":442,"##_f":443,"vari":444,"war":445,"const":446,"fx":447,"mode":448,"##vic":449,"##ead":450,"work":451,"bug":452,"##ine":453,"auto":454,"res":455,"##ions":456,"red":457,"##_m":458,"improve":459,"com":460,"##py":461,"se":462,"##ized":463,"##ain":464,"##_n":465,"dat":466,"##form":467,"more":468,"##yn":469,"grad":470,"gener":471,"##ated":472,"##pp":473,"##ernel":474,"##igh":475,"##fault":476,"##hod":477,"allow":478,"##factor":479,"added":480,"warning":481,"spe":482,"fl":483,"ind":484,"by":485,"mult":486,"non":487,"call":488,"c10":489,"po":490,"cont":491,"refactor":492,"module":493,"batch":494,"script":495,"##indow":496,"##ome":497,"##cess":498,"cm":499,"##les":500,"##pc":501,"##ime":502,"##ify":503,"##ans":504,"optim":505,"tensors":506,"hand":507,"##vice":508,"window":509,"##atic":510,"av":511,"##ight":512,"distribut":513,"some":514,"##_b":515,"##uce":516,"cle":517,"##ark":518,"windows":519,"do":520,"##ations":521,"version":522,"##eg":523,"##tr":524,"##ape":525,"##mb":526,"++":527,"new":528,"cmake":529,"autograd":530,"pre":531,"##und":532,"##ference":533,"method":534,"dep":535,"##arg":536,"default":537,"##parse":538,"mem":539,"nam":540,"if":541,"that":542,"##ert":543,"inter":544,"document":545,"##ench":546,"output":547,"##ring":548,"rel":549,"##th":550,"##rect":551,"argument":552,"##oid":553,"##ory":554,"fixes":555,"export":556,"so":557,"clean":558,"change":559,"get":560,"dim":561,"##iv":562,"##ign":563,"roc":564,"##mod":565,"##lex":566,"param":567,"min":568,"##16":569,"ac":570,"##bs":571,"kernel":572,"mess":573,"##mode":574,"reg":575,"##urn":576,"it":577,"##ug":578,"##place":579,"lib":580,"rpc":581,"##fo":582,"##ail":583,"sub":584,"##eter":585,"rocm":586,"init":587,"option":588,"device":589,"##loat":590,"##pool":591,"##alar":592,"##con":593,"##ative":594,"##mark":595,"##de":596,"pass":597,"##enc":598,"cpp":599,"##patch":600,"adding":601,"val":602,"##read":603,"##enchmark":604,"test_":605,"mi":606,"ci":607,"##used":608,"we":609,"##av":610,"into":611,"ret":612,"form":613,"over":614,"##os":615,"per":616,"##pes":617,"index":618,"##ase":619,"##type":620,"backward":621,"##pack":622,"size":623,"##der":624,"sparse":625,"typo":626,"##ules":627,"##ise":628,"model":629,"class":630,"##ok":631,"##val":632,"##expr":633,"##clud":634,"gpu":635,"##impl":636,"only":637,"iss":638,"list":639,"##ding":640,"##let":641,"shape":642,"##ep":643,"##kl":644,"static":645,"spec":646,"memory":647,"copy":648,"##ous":649,"distributed":650,"ren":651,"complex":652,"disable":653,"##amp":654,"num":655,"documentation":656,"##alle":657,"variable":658,"##ccl":659,"##orrect":660,"##roup":661,"quantized":662,"scalar":663,"sk":664,"##ft":665,"##ient":666,"##_l":667,"bo":668,"ass":669,"miss":670,"max":671,"instead":672,"benchmark":673,"ad":674,"format":675,"graphmode":676,"clang":677,"skip":678,"##ling":679,"##ite":680,"##cept":681,"##ov":682,"trans":683,"cre":684,"backend":685,"message":686,"missing":687,"return":688,"cu":689,"cudnn":690,"tensorexpr":691,"regist":692,"te":693,"lay":694,"##_in":695,"##pose":696,"le":697,"##fil":698,"##ments":699,"don":700,"fus":701,"##gen":702,"##ance":703,"operators":704,"using":705,"dispatch":706,"##max":707,"comm":708,"data":709,"implementation":710,"includ":711,"##ition":712,"##2d":713,"inference":714,"pack":715,"##ruct":716,"##ility":717,"avoid":718,"fb":719,"->":720,"##_test":721,"##lic":722,"##fin":723,"rec":724,"##ide":725,"##allel":726,"quantization":727,"##ues":728,"file":729,"##erial":730,"read":731,"bet":732,"sy":733,"##ll":734,"replace":735,"##obile":736,"port":737,"sp":738,"##ias":739,"fixed":740,"##ext":741,"or":742,"##ave":743,"##ution":744,"no":745,"##tensor":746,"ut":747,"reduce":748,"nccl":749,"norm":750,"##ump":751,"##ull":752,"##mpty":753,"handle":754,"##ach":755,"##time":756,"line":757,"inputs":758,"##ync":759,"rename":760,"correct":761,"##ifi":762,"bin":763,"##__":764,"##edding":765,"##check":766,"##ils":767,"compil":768,"names":769,"glo":770,"##add":771,"##ting":772,"types":773,"functional":774,"##norm":775,"process":776,"##plit":777,"name":778,"##ype":779,"load":780,"##ample":781,"gradient":782,"lint":783,"##info":784,"initial":785,"##_w":786,"##not":787,"print":788,"bro":789,"unused":790,"emb":791,"##_op":792,"##ffer":793,"link":794,"modules":795,"##_g":796,"##ect":797,"##quant":798,"empty":799,"##ream":800,"pl":801,"##wise":802,"##ong":803,"files":804,"mkl":805,"path":806,"##ix":807,"minor":808,"##izer":809,"fp":810,"rand":811,"##ge":812,"##ke":813,"nnc":814,"mobile":815,"ab":816,"##rec":817,"##lect":818,"float":819,"generic":820,"weight":821,"##_p":822,"##ero":823,"embedding":824,"im":825,"##lete":826,"##back":827,"thc":828,"warnings":829,"native":830,"##rate":831,"att":832,"profil":833,"mac":834,"requ":835,"bl":836,"##_st":837,"##cast":838,"##tern":839,"constru":840,"rnn":841,"serial":842,"##fig":843,"##ook":844,"##ask":845,"##urce":846,"assert":847,"##cript":848,"##bug":849,"logic":850,"issue":851,"##line":852,"thread":853,"##ock":854,"##plic":855,"split":856,"##pace":857,"depend":858,"##_r":859,"##co":860,"##dp":861,"##ages":862,"flag":863,"##loss":864,"##uda":865,"net":866,"annot":867,"##module":868,"##_h":869,"##ension":870,"##load":871,"##rid":872,"ddp":873,"ke":874,"methods":875,"##iter":876,"string":877,"mig":878,"##chem":879,"##ref":880,"install":881,"time":882,"##_tensor":883,"include":884,"bas":885,"sm":886,"layer":887,"##ere":888,"##olution":889,"##ather":890,"linear":891,"##ker":892,"##orage":893,"case":894,"checks":895,"multip":896,"cir":897,"fail":898,"##cle":899,"##ress":900,"##ally":901,"runtime":902,"ap":903,"##me":904,"fut":905,"ne":906,"obs":907,"##iew":908,"conver":909,"##cc":910,"cond":911,"delete":912,"exp":913,"##ging":914,"integ":915,"fp16":916,"el":917,"##ping":918,"pool":919,"builds":920,"ext":921,"docker":922,"##umpy":923,"##igu":924,"trac":925,"changes":926,"binary":927,"##list":928,"##mm":929,"import":930,"cleanup":931,"##ency":932,"det":933,"##uc":934,"##mbol":935,"##annel":936,"##adcast":937,"debug":938,"struct":939,"migrate":940,"are":941,"head":942,"##ynam":943,"##ci":944,"obser":945,"##eng":946,"ins":947,"##uard":948,"##ynamic":949,"##ill":950,"remov":951,"##que":952,"numb":953,"symbol":954,"##ampl":955,"##atib":956,"##rod":957,"unit":958,"##ange":959,"wrap":960,"##ables":961,"create":962,"##ies":963,"testing":964,"loop":965,"handling":966,"deprec":967,"##stom":968,"broadcast":969,"constructor":970,"proper":971,"optimize":972,"match":973,"##ma":974,"std":975,"unn":976,"optional":977,"circle":978,"sw":979,"##ecess":980,"parameter":981,"##string":982,"arguments":983,"simpl":984,"##code":985,"##own":986,"value":987,"ag":988,"better":989,"##chema":990,"##iguous":991,"prot":992,"pri":993,"zero":994,"##ration":995,"##row":996,"##ply":997,"constant":998,"numpy":999,"##ord":1000,"reland":1001,"##ecessary":1002,"##fore":1003,"##ulk":1004,"package":1005,"##ating":1006,"##aster":1007,"##ftmax":1008,"inc":1009,"explic":1010,"##obs":1011,"fol":1012,"compar":1013,"setup":1014,"explicit":1015,"##min":1016,"##acy":1017,"circleci":1018,"take":1019,"##fter":1020,"##ates":1021,"cons":1022,"##ures":1023,"##ision":1024,"fusion":1025,"##fix":1026,"##ual":1027,"opinfo":1028,"##ocal":1029,"custom":1030,"attribut":1031,"group":1032,"ir":1033,"##alf":1034,"register":1035,"readme":1036,"dynamic":1037,"##ject":1038,"##atial":1039,"parallel":1040,"codegen":1041,"##tra":1042,"kernels":1043,"##ulkan":1044,"##_par":1045,"##oth":1046,"##ific":1047,"##eters":1048,"##_cuda":1049,"##opt":1050,"##roid":1051,"expose":1052,"##ash":1053,"##flow":1054,"doub":1055,"bind":1056,"can":1057,"la":1058,"ve":1059,"##ron":1060,"##unt":1061,"##uld":1062,"##pipe":1063,"multi":1064,"transform":1065,"serialization":1066,"after":1067,"##we":1068,"before":1069,"named":1070,"node":1071,"##lu":1072,"##_grad":1073,"##inter":1074,"spatial":1075,"##face":1076,"forward":1077,"errors":1078,"multiple":1079,"shar":1080,"dtype":1081,"compatib":1082,"vector":1083,"storage":1084,"vulkan":1085,"##ound":1086,"##value":1087,"state":1088,"except":1089,"unnecessary":1090,"man":1091,"##ike":1092,"tensorpipe":1093,"exec":1094,"conversion":1095,"utils":1096,"gloo":1097,"##uple":1098,"##lob":1099,"alias":1100,"##ptr":1101,"part":1102,"##_con":1103,"key":1104,"##pro":1105,"##vent":1106,"##alo":1107,"##ader":1108,"based":1109,"mer":1110,"##float":1111,"##ram":1112,"oper":1113,"order":1114,"mat":1115,"##sure":1116,"##torch":1117,"##ould":1118,"##aky":1119,"##_de":1120,"acc":1121,"fa":1122,"sign":1123,"wr":1124,"##rary":1125,"##test":1126,"##imp":1127,"##api":1128,"docstring":1129,"##sh":1130,"##_v":1131,"##uction":1132,"##ured":1133,"##verage":1134,"##aining":1135,"##riter":1136,"double":1137,"leg":1138,"##ost":1139,"fixing":1140,"channel":1141,"comput":1142,"alloc":1143,"##ength":1144,"act":1145,"##apt":1146,"##emm":1147,"introd":1148,"small":1149,"convert":1150,"hook":1151,"##ses":1152,"##ez":1153,"##ict":1154,"ref":1155,"logging":1156,"values":1157,"random":1158,"number":1159,"##aloader":1160,"have":1161,"##bo":1162,"android":1163,"calls":1164,"##conv":1165,"about":1166,"legacy":1167,"hard":1168,"##64":1169,"##error":1170,"##urr":1171,"parameters":1172,"##bind":1173,"extra":1174,"uns":1175,"used":1176,"##qual":1177,"ms":1178,"sum":1179,"tri":1180,"##stm":1181,"off":1182,"speed":1183,"source":1184,"submodule":1185,"indexing":1186,"##fferent":1187,"ios":1188,"##ld":1189,"##_pool":1190,"##kernel":1191,"##ensions":1192,"should":1193,"c10d":1194,"future":1195,"need":1196,"half":1197,"##ray":1198,"##one":1199,"##pect":1200,"col":1201,"macro":1202,"symbolic":1203,"simplify":1204,"##group":1205,"##_re":1206,"##ric":1207,"reference":1208,"config":1209,"fbcode":1210,"fe":1211,"##ical":1212,"one":1213,"des":1214,"sync":1215,"schema":1216,"##file":1217,"##set":1218,"##use":1219,"##32":1220,"##edi":1221,"##izes":1222,"defin":1223,"stream":1224,"##elper":1225,"##ra":1226,"##_co":1227,"##format":1228,"place":1229,"core":1230,"md":1231,"##script":1232,"##istent":1233,"dataloader":1234,"compilation":1235,"binding":1236,"mask":1237,"##net":1238,"##ire":1239,"##ature":1240,"ensure":1241,"interface":1242,"image":1243,"profiler":1244,"dependency":1245,"##_check":1246,"compile":1247,"math":1248,"##so":1249,"##og":1250,"open":1251,"div":1252,"contiguous":1253,"structured":1254,"##urrent":1255,"local":1256,"##cat":1257,"##itch":1258,"different":1259,"##obu":1260,"optimizer":1261,"perform":1262,"bfloat":1263,"sing":1264,"##odes":1265,"cases":1266,"normal":1267,"switch":1268,"--":1269,"env":1270,"##_function":1271,"variables":1272,"fake":1273,"ns":1274,"##ata":1275,"info":1276,"##igm":1277,"cast":1278,"##allback":1279,"point":1280,"dimension":1281,"bool":1282,"merge":1283,"c2":1284,"cat":1285,"pow":1286,"##3d":1287,"##aly":1288,"decl":1289,"dict":1290,"##arget":1291,"insert":1292,"##igmoid":1293,"ra":1294,"##preter":1295,"special":1296,"dro":1297,"ig":1298,"lstm":1299,"mis":1300,"##mul":1301,"##att":1302,"##alg":1303,"##ross":1304,"##olve":1305,"##nnpack":1306,"reduction":1307,"##_norm":1308,"rest":1309,"view":1310,"##1d":1311,"report":1312,"##unch":1313,"##ices":1314,"without":1315,"batchnorm":1316,"##ression":1317,"bit":1318,"element":1319,"map":1320,"##dnn":1321,"##arch":1322,"adds":1323,"##uplic":1324,"bump":1325,"checking":1326,"##riterion":1327,"guard":1328,"mov":1329,"##rc":1330,"inplace":1331,"dead":1332,"example":1333,"loss":1334,"separ":1335,"##_back":1336,"##ified":1337,"annotations":1338,"observer":1339,"##ins":1340,"context":1341,"requir":1342,"bfloat16":1343,"declar":1344,"me":1345,"##for":1346,"##_ex":1347,"##mit":1348,"stri":1349,"codemod":1350,"works":1351,"relu":1352,"issues":1353,"processgroup":1354,"pooling":1355,"gith":1356,"master":1357,"##utor":1358,"store":1359,"comment":1360,"fuser":1361,"##ternal":1362,"separate":1363,"github":1364,"hip":1365,"bound":1366,"tool":1367,"step":1368,"##pout":1369,"usage":1370,"comments":1371,"bre":1372,"##graph":1373,"##old":1374,"##astic":1375,"overload":1376,"header":1377,"10":1378,"qu":1379,"##ree":1380,"calling":1381,"softmax":1382,"temp":1383,"tracing":1384,"ign":1385,"full":1386,"long":1387,"nv":1388,"now":1389,"target":1390,"##met":1391,"where":1392,"##_tr":1393,"mkldnn":1394,"##af":1395,"##_ptr":1396,"##ense":1397,"##iterator":1398,"##idy":1399,"options":1400,"linalg":1401,"flaky":1402,"backwards":1403,"cc":1404,"##red":1405,"##wrap":1406,"##utils":1407,"torchscript":1408,"cach":1409,"##ote":1410,"##pos":1411,"##_type":1412,"trace":1413,"interpreter":1414,"##ugh":1415,"##adding":1416,"11":1417,"ed":1418,"find":1419,"gcc":1420,"##anc":1421,"##ick":1422,"##ish":1423,"block":1424,"expand":1425,"rref":1426,"##gemm":1427,"int8":1428,"duplic":1429,"ob":1430,"sort":1431,"save":1432,"##way":1433,"top":1434,"##vel":1435,"than":1436,"thnn":1437,"##uring":1438,"##_to":1439,"##aries":1440,"sequ":1441,"generate":1442,"does":1443,"outputs":1444,"common":1445,"profiling":1446,"iter":1447,"##wn":1448,"##aml":1449,"##ctory":1450,"##ible":1451,"##comp":1452,"introduce":1453,"sizes":1454,"##anh":1455,"pres":1456,"variant":1457,"scripts":1458,"accept":1459,"libtorch":1460,"explicitly":1461,"gather":1462,"has":1463,"any":1464,"tensoriterator":1465,"convolution":1466,"##ther":1467,"compatibility":1468,"activ":1469,"performance":1470,"single":1471,"cut":1472,"##ich":1473,"##stream":1474,"prov":1475,"autom":1476,"resize":1477,"improvements":1478,"nodes":1479,"tidy":1480,"##ler":1481,"##..":1482,"stop":1483,"which":1484,"note":1485,"##argin":1486,"templ":1487,"timeout":1488,"prim":1489,"pin":1490,"turn":1491,"##function":1492,"##gd":1493,"messages":1494,"exception":1495,"object":1496,"fast":1497,"kill":1498,"neg":1499,"yaml":1500,"##_out":1501,"##ux":1502,"##with":1503,"ups":1504,"low":1505,"##ison":1506,"intern":1507,"access":1508,"adapt":1509,"record":1510,"glob":1511,"conda":1512,"launch":1513,"##uff":1514,"##hape":1515,"##vc":1516,"def":1517,"prop":1518,"true":1519,"bias":1520,"blob":1521,"length":1522,"##jit":1523,"##atter":1524,"##odule":1525,"unify":1526,"updates":1527,"specific":1528,"##itional":1529,"namespace":1530,"comparison":1531,"cutorch":1532,"automatic":1533,"##ale":1534,"##ilt":1535,"##point":1536,"##ispatch":1537,"scatter":1538,"result":1539,"registration":1540,"apis":1541,"var":1542,"##fl":1543,"parity":1544,"args":1545,"level":1546,"properly":1547,"msvc":1548,"id":1549,"##criterion":1550,"##tc":1551,"##ique":1552,"direct":1553,"building":1554,"array":1555,"##_size":1556,"running":1557,"##ainer":1558,"none":1559,"dropout":1560,"during":1561,"##sis":1562,"##ource":1563,"##ha":1564,"##etric":1565,"analy":1566,"##ager":1567,"library":1568,"##etermin":1569,"classes":1570,"consistent":1571,"shared":1572,"app":1573,"fused":1574,"rst":1575,"spar":1576,"##sum":1577,"##ust":1578,"##ability":1579,"##alloc":1580,"clar":1581,"fbgemm":1582,"##ache":1583,"integer":1584,"##obuf":1585,"##_backward":1586,"tempor":1587,"slic":1588,"tw":1589,"tuple":1590,"##_se":1591,"##map":1592,"##to":1593,"##ention":1594,"dec":1595,"workflow":1596,"compiler":1597,"attribute":1598,"operations":1599,"mark":1600,"oss":1601,"ver":1602,"##attern":1603,"##unn":1604,"##ics":1605,"##param":1606,"##ariable":1607,"beh":1608,"##ightly":1609,"deprecated":1610,"again":1611,"protobuf":1612,"masked":1613,"##ways":1614,"##ection":1615,"##res":1616,"##rst":1617,"##dat":1618,"##vers":1619,"first":1620,"devic":1621,"always":1622,"updated":1623,"indices":1624,"flags":1625,"extend":1626,"##imple":1627,"adaptive":1628,"base":1629,"eas":1630,"same":1631,"##_un":1632,"##rough":1633,"##ential":1634,"quantize":1635,"try":1636,"seg":1637,"##_ops":1638,"jobs":1639,"mag":1640,"##ait":1641,"##alse":1642,"##rix":1643,"tensorimpl":1644,"##eld":1645,"##ops":1646,"clone":1647,"generated":1648,"optimization":1649,"prec":1650,"##avi":1651,"leak":1652,"##ween":1653,"##force":1654,"cal":1655,"dnn":1656,"equal":1657,"lite":1658,"old":1659,"other":1660,"##ms":1661,"##cul":1662,"##11":1663,"rele":1664,"throw":1665,"##agrad":1666,"typing":1667,"##opy":1668,"enabled":1669,"##types":1670,"##config":1671,"between":1672,"apply":1673,"incre":1674,"##_comp":1675,"bindings":1676,"propag":1677,"ivalue":1678,"syn":1679,"##aut":1680,"##gor":1681,"##dim":1682,"##ole":1683,"##base":1684,"pybind":1685,"built":1686,"eng":1687,"##istribut":1688,"compression":1689,"##omial":1690,"##undant":1691,"ignore":1692,"simple":1693,"##lin":1694,"##_as":1695,"##wr":1696,"##_torch":1697,"user":1698,"##ailable":1699,"behavi":1700,"3d":1701,"pt":1702,"range":1703,"##ped":1704,"##ia":1705,"##yle":1706,"##log":1707,"buffer":1708,"models":1709,"annotation":1710,"##options":1711,"collect":1712,"provide":1713,"internal":1714,"global":1715,"false":1716,"mut":1717,"own":1718,"padding":1719,"##las":1720,"##ml":1721,"##ograd":1722,"##ket":1723,"##ags":1724,"##apply":1725,"onnxifi":1726,"generator":1727,"##_for":1728,"flake":1729,"##args":1730,"##quantize":1731,"require":1732,"removing":1733,"mul":1734,"##art":1735,"stack":1736,"also":1737,"unique":1738,"##index":1739,"async":1740,"redundant":1741,"correctly":1742,"headers":1743,"broadcasting":1744,"agent":1745,"attributes":1746,"eig":1747,"hack":1748,"##uild":1749,"##ern":1750,"##rocess":1751,"thtensor":1752,"through":1753,"##ickl":1754,"##amma":1755,"style":1756,"##trans":1757,"perf":1758,"printing":1759,"##rides":1760,"failure":1761,"##ront":1762,"tools":1763,"break":1764,"preser":1765,"fallback":1766,"larg":1767,"pattern":1768,"vol":1769,"##_py":1770,"##bit":1771,"##view":1772,"##ily":1773,"##ctions":1774,"training":1775,"distribution":1776,"assign":1777,"detection":1778,"incorrect":1779,"##convolution":1780,"git":1781,"job":1782,"prom":1783,"##ps":1784,"##vm":1785,"inform":1786,"##aces":1787,"concat":1788,"prod":1789,"byt":1790,"its":1791,"subgraph":1792,"specify":1793,"transpose":1794,"##fined":1795,"##key":1796,"removed":1797,"my":1798,"nom":1799,"##_en":1800,"##_and":1801,"##work":1802,"dire":1803,"##igraph":1804,"intr":1805,"linux":1806,"bugfix":1807,"related":1808,"matrix":1809,"requires":1810,"engine":1811,"behavior":1812,"cr":1813,"current":1814,"hy":1815,"lu":1816,"os":1817,"qnnpack":1818,"##_all":1819,"##nigraph":1820,"##qr":1821,"##ken":1822,"##56":1823,"##inomial":1824,"##ats":1825,"inline":1826,"addmm":1827,"##unk":1828,"expect":1829,"##imin":1830,"##_mode":1831,"initialization":1832,"macos":1833,"deprecate":1834,"lower":1835,"cs":1836,"fbs":1837,"##atures":1838,"##ank":1839,"##aset":1840,"look":1841,"##_cpu":1842,"nnpack":1843,"select":1844,"##edictor":1845,"##atten":1846,"activation":1847,"##autograd":1848,"kw":1849,"pi":1850,"fil":1851,"fill":1852,"##_dict":1853,"reshape":1854,"avg":1855,"##cont":1856,"##_lib":1857,"elastic":1858,"wrapper":1859,"flake8":1860,"nan":1861,"row":1862,"##eriv":1863,"##urs":1864,"##lowp":1865,"uses":1866,"##press":1867,"##valid":1868,"##ampler":1869,"macros":1870,"declarations":1871,"mean":1872,"nomnigraph":1873,"nightly":1874,"##head":1875,"##state":1876,"conv2d":1877,"##ints":1878,"##_module":1879,"##avis":1880,"numer":1881,"elimin":1882,"##queez":1883,"negative":1884,"precision":1885,"cwrap":1886,"helper":1887,"mak":1888,"sigmoid":1889,"wip":1890,"##match":1891,"##ry":1892,"##are":1893,"##round":1894,"test_d":1895,"enforce":1896,"unde":1897,"##istic":1898,"##ell":1899,"bugs":1900,"##pooling":1901,"##encies":1902,"##_with":1903,"##box":1904,"needed":1905,"duplicate":1906,"##pers":1907,"inv":1908,"##ames":1909,"##apar":1910,"end":1911,"##usive":1912,"arc":1913,"##umul":1914,"pars":1915,"modify":1916,"##ences":1917,"typos":1918,"util":1919,"##obser":1920,"information":1921,"cor":1922,"fin":1923,"sure":1924,"##la":1925,"infer":1926,"##stem":1927,"##relu":1928,"exist":1929,"enh":1930,"prob":1931,"general":1932,"broken":1933,"condition":1934,"compute":1935,"allocator":1936,"edge":1937,"two":1938,"mypy":1939,"##aparallel":1940,"front":1941,"mpi":1942,"##pol":1943,"##around":1944,"field":1945,"##izing":1946,"##abel":1947,"stand":1948,"upgrad":1949,"clamp":1950,"##inear":1951,"reduc":1952,"available":1953,"prepar":1954,"prevent":1955,"##modules":1956,"valid":1957,"dispatcher":1958,"layernorm":1959,"upsample":1960,"go":1961,"ro":1962,"rather":1963,"sav":1964,"##_loss":1965,"##calar":1966,"##bag":1967,"##its":1968,"##ched":1969,"##upport":1970,"##ular":1971,"buc":1972,"##pth":1973,"travis":1974,"weights":1975,"##_pool2d":1976,"template":1977,"analysis":1978,"magma":1979,"preserve":1980,"undefined":1981,"determin":1982,"deriv":1983,"fc":1984,"few":1985,"last":1986,"sin":1987,"sel":1988,"tim":1989,"##xt":1990,"##ved":1991,"thd":1992,"##cell":1993,"unary":1994,"scale":1995,"##_dim":1996,"setting":1997,"workaround":1998,"poss":1999,"avx":2000,"##_init":2001,"laz":2002,"##_functions":2003,"##reduce":2004,"calcul":2005,"release":2006,"bc":2007,"cross":2008,"event":2009,"wait":2010,"##_kernel":2011,"##batch":2012,"##init":2013,"##ales":2014,"additional":2015,"repe":2016,"##unc":2017,"coverage":2018,"##vert":2019,"shard":2020,"##_c10":2021,"feature":2022,"raise":2023,"easy":2024,"fbsource":2025,"abs":2026,"null":2027,"rend":2028,"##vector":2029,"count":2030,"##_th":2031,"##_set":2032,"opset":2033,"black":2034,"##ampling":2035,"hards":2036,"devices":2037,"directory":2038,"hyp":2039,"##_e":2040,"##cp":2041,"external":2042,"##apes":2043,"##verse":2044,"##_met":2045,"##try":2046,"##ives":2047,"scalars":2048,"embeddingbag":2049,"keep":2050,"constructors":2051,"matching":2052,"executor":2053,"cache":2054,"doesn":2055,"directly":2056,"increase":2057,"##istributed":2058,"##write":2059,"large":2060,"upgrade":2061,"cub":2062,"eval":2063,"pub":2064,"##zero":2065,"reor":2066,"refer":2067,"##rol":2068,"str":2069,"supported":2070,"##iron":2071,"contribut":2072,"batched":2073,"distributions":2074,"interpol":2075,"thcunn":2076,"restore":2077,"workspace":2078,"pipe":2079,"around":2080,"both":2081,"dail":2082,"vec":2083,"##linter":2084,"##affe":2085,"##ier":2086,"##ute":2087,"##etype":2088,"##lobs":2089,"##agent":2090,"algor":2091,"multinomial":2092,"lists":2093,"formatting":2094,"##_input":2095,"loading":2096,"inside":2097,"##_parallel":2098,"moving":2099,"volum":2100,"##queeze":2101,"possible":2102,"daily":2103,"algorith":2104,"_c":2105,"ll":2106,"##_on":2107,"##_quant":2108,"##_utils":2109,"##db":2110,"impl":2111,"flatten":2112,"execution":2113,"spars":2114,"clarify":2115,"slice":2116,"frontend":2117,"pe":2118,"via":2119,"##ral":2120,"cos":2121,"##abling":2122,"remote":2123,"##omic":2124,"##_dispatch":2125,"relax":2126,"benchmarks":2127,"layout":2128,"##formatlinter":2129,"##affe2":2130,"volumetric":2131,"2d":2132,"br":2133,"hist":2134,"like":2135,"may":2136,"slow":2137,"tanh":2138,"##ng":2139,"##itions":2140,"whit":2141,"##very":2142,"##class":2143,"instru":2144,"prefix":2145,"includes":2146,"##linear":2147,"detect":2148,"compare":2149,"compatible":2150,"wrong":2151,"sequence":2152,"##allocator":2153,"crash":2154,"##usive_ptr":2155,"llvm":2156,"down":2157,"let":2158,"pol":2159,"tcp":2160,"vs":2161,"xla":2162,"##lock":2163,"##_o":2164,"##ef":2165,"##thon":2166,"##da":2167,"##esis":2168,"repr":2169,"##imit":2170,"under":2171,"generation":2172,"##alled":2173,"creation":2174,"recurs":2175,"basic":2176,"extensions":2177,"observers":2178,"folder":2179,"##_param":2180,"accumul":2181,"factor":2182,"hooks":2183,"##afe":2184,"csrc":2185,"self":2186,".*":2187,"dest":2188,"he":2189,"sample":2190,"txt":2191,"ub":2192,"zer":2193,"##guard":2194,"##be":2195,"##256":2196,"##channel":2197,"##eto":2198,"##amb":2199,"##omm":2200,"##clang":2201,"nnapi":2202,"construct":2203,"##avg":2204,"##clude":2205,"box":2206,"command":2207,"system":2208,"##_state":2209,"##optim":2210,"descript":2211,"environ":2212,"eliminate":2213,"hypoth":2214,"catch":2215,"dper":2216,"ide":2217,"qconfig":2218,"##variable":2219,"##ink":2220,"inlin":2221,"repl":2222,"##adata":2223,"##ism":2224,"arch":2225,"renam":2226,"##ifier":2227,"blas":2228,"dependencies":2229,"fold":2230,"stride":2231,"topk":2232,"##params":2233,"proble":2234,"hypothesis":2235,").":2236,"`,":2237,"fram":2238,"ht":2239,"race":2240,"##gamma":2241,"##name":2242,"##raries":2243,"##ky":2244,"inf":2245,"##leg":2246,"##lection":2247,"fork":2248,"##als":2249,"##chron":2250,"##izers":2251,"##ride":2252,"##oles":2253,"enum":2254,"##open":2255,"##emory":2256,"track":2257,"utility":2258,"##_work":2259,"integration":2260,"extension":2261,"signature":2262,"openmp":2263,"eigen":2264,"##transpose":2265,"prepare":2266,"_th":2267,"dtypes":2268,"hash":2269,"lat":2270,"most":2271,"put":2272,"rid":2273,"rule":2274,"##cache":2275,"##iff":2276,"invalid":2277,"##untime":2278,"##ensort":2279,"chunk":2280,"align":2281,"shad":2282,"shapes":2283,"##ework":2284,"##_sh":2285,"##peri":2286,"warn":2287,"worker":2288,"resub":2289,"versions":2290,"soft":2291,"dims":2292,"dimensions":2293,"##def":2294,"passes":2295,"##rided":2296,"##amples":2297,"define":2298,"##upported":2299,"faster":2300,"fuse":2301,"gru":2302,"high":2303,"##ful":2304,"##tri":2305,"##00":2306,"##div":2307,"##build":2308,"##ja":2309,"##ineto":2310,"##inja":2311,"##arily":2312,"##unic":2313,"##mental":2314,"##rig":2315,"##apack":2316,"##ush":2317,"##assert":2318,"predictor":2319,"##_max":2320,"gradcheck":2321,"params":2322,"test_jit":2323,"overflow":2324,"clangformat":2325,"##_gpu":2326,"images":2327,"construction":2328,"logical":2329,"##ification":2330,"matmul":2331,"mismatch":2332,"##ickler":2333,"intrusive_ptr":2334,"bucket":2335,"fbsourceclang":2336,"fbsourceclangformatlinter":2337,"average":2338,"but":2339,"blobs":2340,"dil":2341,"dump":2342,"fft":2343,"pad":2344,"pot":2345,"qat":2346,"##ls":2347,"##cuda":2348,"##her":2349,"##vd":2350,"##input":2351,"##arri":2352,"##arning":2353,"##store":2354,"##ested":2355,"thct":2356,"##lose":2357,"checkpoint":2358,"logs":2359,"section":2360,"batching":2361,"maxpool":2362,"adagrad":2363,"communic":2364,"##_group":2365,"##_device":2366,"write":2367,"extract":2368,"bounds":2369,"quick":2370,"##_output":2371,"decor":2372,"segfault":2373,"requires_grad":2374,"vec256":2375,"framework":2376,"##olesky":2377,"flo":2378,"send":2379,"tag":2380,"task":2381,"##fc":2382,"##_add":2383,"##_api":2384,"##ner":2385,"##nccl":2386,"##ually":2387,"##hold":2388,"##bn":2389,"##vous":2390,"##2gen":2391,"##ored":2392,"##enorm":2393,"rewrite":2394,"strides":2395,"##quence":2396,"resolve":2397,"contain":2398,"clear":2399,"##_inter":2400,"commit":2401,"paths":2402,"native_functions":2403,"futures":2404,"loops":2405,"##ogram":2406,"differenti":2407,"propagate":2408,"##rocessing":2409,"lookup":2410,"ideep":2411,"due":2412,"mm":2413,"round":2414,"src":2415,"##_ext":2416,"##tual":2417,"##hw":2418,"addc":2419,"##pec":2420,"##elist":2421,"int64":2422,"##ird":2423,"##irtual":2424,"exporting":2425,"##igned":2426,"adam":2427,"gradients":2428,"priv":2429,"channels":2430,"mapping":2431,"##_trans":2432,"temporarily":2433,"synchron":2434,"##pthwise":2435,"eager":2436,"free":2437,"vis":2438,"##_id":2439,"##oin":2440,"##xx":2441,"address":2442,"##storage":2443,"dev":2444,"tensoroptions":2445,"stub":2446,"char":2447,"resnet":2448,"pos":2449,"##reads":2450,"vectorize":2451,"operation":2452,"bitwise":2453,"overloads":2454,"##_model":2455,"environment":2456,"resubmit":2457,"##hwc":2458,"bench":2459,"dot":2460,"every":2461,"lr":2462,"nll":2463,"ninja":2464,"##led":2465,"real":2466,"revert":2467,"##accept":2468,"start":2469,"experi":2470,"clip":2471,"##_dir":2472,"convtranspose":2473,"prun":2474,"##_bag":2475,"##_benchmark":2476,"##const":2477,"##ready":2478,"creating":2479,"##gener":2480,"binaries":2481,"linking":2482,"threads":2483,"numbers":2484,"constants":2485,"transformer":2486,"##_cont":2487,"##_version":2488,"##ezvous":2489,"defined":2490,"dimensional":2491,"moved":2492,"##observer":2493,"##chedul":2494,"repeat":2495,"interpolate":2496,"recursive":2497,"_l":2498,"emit":2499,"loc":2500,"lamb":2501,"lapack":2502,"patch":2503,"sec":2504,"sem":2505,"xnnpack":2506,"##size":2507,"##emp":2508,"##ypes":2509,"##50":2510,"##allow":2511,"##ropy":2512,"##etensor":2513,"torchbind":2514,"them":2515,"remaining":2516,"metal":2517,"autoaccept":2518,"submodules":2519,"passing":2520,"scalar_check":2521,"##_list":2522,"##_like":2523,"layers":2524,"##_pro":2525,"##_red":2526,"##count":2527,"strings":2528,"tracer":2529,"docstrings":2530,"computation":2531,"elementwise":2532,"appro":2533,"##reshold":2534,"parsing":2535,"lazy":2536,"public":2537,"algorithm":2538,"##arrier":2539,"thctensor":2540,"private":2541,"host":2542,"rules":2543,"svd":2544,"way":2545,"##less":2546,"##get":2547,"##_assert":2548,"##ope":2549,"##ber":2550,"##ving":2551,"##vision":2552,"##anch":2553,"##loo":2554,"diag":2555,"stats":2556,"atomic":2557,"sccache":2558,"implemented":2559,"##gradient":2560,"being":2561,"##rust":2562,"graphs":2563,"search":2564,"##_num":2565,"control":2566,"weak":2567,"formul":2568,"registry":2569,"##fill":2570,"dont":2571,"initialize":2572,"proto":2573,"##implement":2574,"configur":2575,"##_env":2576,"##initial":2577,"contributing":2578,"branch":2579,"shadow":2580,"==":2581,"ax":2582,"grid":2583,"less":2584,"rank":2585,"su":2586,"##lib":2587,"##ness":2588,"##ilinear":2589,"cholesky":2590,"()`":2591,"asan":2592,"allreduce":2593,"working":2594,"respect":2595,"##_map":2596,"refactoring":2597,"override":2598,"##_hook":2599,"##lists":2600,"debugging":2601,"unittest":2602,"##weight":2603,"keys":2604,"##_relu":2605,"streams":2606,"nvcc":2607,"variants":2608,"dnnlowp":2609,"enhance":2610,"standard":2611,"references":2612,"am":2613,"sim":2614,"##lap":2615,"##margin":2616,"##iss":2617,"##hand":2618,"##helper":2619,"review":2620,"##roc":2621,"there":2622,"third":2623,"threshold":2624,"examples":2625,"suppress":2626,"##inder":2627,"implementations":2628,"##_scalar":2629,"autod":2630,"instance":2631,"metadata":2632,"##_names":2633,"libraries":2634,"specified":2635,"benchmarking":2636,"recurrent":2637,"multiprocessing":2638,"failing":2639,"##untu":2640,"exceptions":2641,"##apipe":2642,"##board":2643,"against":2644,"##qrt":2645,"deterministic":2646,"histogram":2647,"ubuntu":2648,"decorator":2649,"20":2650,"cum":2651,"how":2652,"hub":2653,"kineto":2654,"limit":2655,"##fus":2656,"##ger":2657,"##_q":2658,"##_j":2659,"##nest":2660,"##equal":2661,"##bmm":2662,"##ven":2663,"##ice":2664,"torch_check":2665,"upload":2666,"##ely":2667,"changed":2668,"##iled":2669,"##_fill":2670,"##_name":2671,"multil":2672,"pointer":2673,"container":2674,"perm":2675,"adj":2676,"backends":2677,"embedding_bag":2678,"elu":2679,"loopnest":2680,"##_conv":2681,"##process":2682,"factory":2683,"unsupported":2684,"##softmax":2685,"normalization":2686,"##method":2687,"sequential":2688,"##_python":2689,"promot":2690,"##_c10d":2691,"##_method":2692,"reorder":2693,"sparsity":2694,"cosine":2695,"__init":2696,"bce":2697,"hel":2698,"nhwc":2699,"ts":2700,"##length":2701,"##az":2702,"##rink":2703,"##12":2704,"##xy":2705,"##2c":2706,"force":2707,"##uples":2708,"dir":2709,"##aging":2710,"already":2711,"##urc":2712,"scope":2713,"isn":2714,"##_copy":2715,"##_so":2716,"run_test":2717,"##_mobile":2718,"comb":2719,"callback":2720,"boole":2721,"adv":2722,"installation":2723,"##meta":2724,"##posed":2725,"##uffle":2726,"results":2727,"assignment":2728,"osx":2729,"saved":2730,"experimental":2731,".{":2732,"1d":2733,"barrier":2734,"ded":2735,"gp":2736,"gha":2737,"join":2738,"##from":2739,"##_a":2740,"##ni":2741,"##cr":2742,"##bb":2743,"##utable":2744,"thrust":2745,"##loy":2746,"implic":2747,"##istency":2748,"profile":2749,"show":2750,"##_data":2751,"instanc":2752,"post":2753,"##_base":2754,"naming":2755,"minim":2756,"numel":2757,"leaky":2758,"packed":2759,"imports":2760,"conversions":2761,"introduc":2762,"raw":2763,"lengths":2764,"##_complex":2765,"builtin":2766,"filter":2767,"problem":2768,"adjust":2769,"__init__":2770,"12":2771,"ctc":2772,"db":2773,"flow":2774,"gil":2775,"gel":2776,"hot":2777,"hints":2778,"jen":2779,"lock":2780,"liter":2781,"pip":2782,"table":2783,"vmap":2784,"##_index":2785,"##eight":2786,"##p16":2787,"##runtime":2788,"##uch":2789,"##oull":2790,"##word":2791,"##kins":2792,"##ond":2793,"##arest":2794,"py3":2795,"##amed":2796,"##ersgd":2797,"updating":2798,"while":2799,"##iform":2800,"modern":2801,"##_caffe2":2802,"##_sparse":2803,"##_solve":2804,"seed":2805,"optimizers":2806,"across":2807,"##model":2808,"regression":2809,"miopen":2810,"functionality":2811,"##onger":2812,"rand2gen":2813,"removes":2814,"manual":2815,"##_variable":2816,"offset":2817,"division":2818,"targets":2819,"caching":2820,"##flags":2821,"##ernoull":2822,"promote":2823,"lowering":2824,"reducer":2825,"instructions":2826,"replac":2827,"renaming":2828,"implicit":2829,"jenkins":2830,"##ernoulli":2831,">=":2832,"baz":2833,"bernoulli":2834,"cap":2835,"cus":2836,"gemm":2837,"orig":2838,"pers":2839,"pull":2840,"pick":2841,"qual":2842,"was":2843,"##sampler":2844,"##_per":2845,"##_apply":2846,"##down":2847,"##blas":2848,"##ines":2849,"repo":2850,"##etch":2851,"thp":2852,"##adagrad":2853,"once":2854,"coun":2855,"##akes":2856,"stable":2857,"alp":2858,"enabling":2859,"unpack":2860,"##exp":2861,"##ormat":2862,"short":2863,"codeown":2864,"##_format":2865,"reset":2866,"##_memory":2867,"memonger":2868,"##ignore":2869,"disabled":2870,"weighted":2871,"request":2872,"##plication":2873,"wrappers":2874,"##weak":2875,"namedt":2876,"share":2877,"keyword":2878,"##ramm":2879,"features":2880,"##ogle":2881,"misc":2882,"reporting":2883,"##dataset":2884,"synt":2885,"pybind11":2886,"byte":2887,"kwargs":2888,"making":2889,"blacklist":2890,"whitelist":2891,"latest":2892,"boolean":2893,"bazel":2894,"cnn":2895,"capt":2896,"fre":2897,"give":2898,"giv":2899,"margin":2900,"s3":2901,"ter":2902,"tensort":2903,"tweak":2904,"well":2905,"##air":2906,"##_error":2907,"##nown":2908,"##19":2909,"##dist":2910,"##by":2911,"##arn":2912,"too":2913,"##utions":2914,"this":2915,"coales":2916,"tensorboard":2917,"stor":2918,"exclude":2919,"##ffine":2920,"complet":2921,"arm":2922,"convol":2923,"conv3d":2924,"improved":2925,"meta":2926,"dataset":2927,"dataparallel":2928,"passed":2929,"copy_":2930,"links":2931,"##_get":2932,"##backend":2933,"attemp":2934,"follow":2935,"definition":2936,"definitions":2937,"casting":2938,"strict":2939,"hipify":2940,"##...":2941,"segment":2942,"##boxed":2943,"##_threads":2944,"zeros":2945,"communication":2946,"differentiable":2947,"syntax":2948,"cent":2949,"called":2950,"main":2951,"push":2952,"qr":2953,"rate":2954,"safe":2955,"##fold":2956,"##gloo":2957,"##_at":2958,"##eed":2959,"##eous":2960,"##ced":2961,"##omp":2962,"##wish":2963,"##ilar":2964,"test_torch":2965,"##lop":2966,"entry":2967,"##ises":2968,"##int8":2969,"cmakelists":2970,"prepack":2971,"overhead":2972,"sparselength":2973,"returns":2974,"##_info":2975,"##_wrap":2976,"##_weight":2977,"fp32":2978,"assertion":2979,"converter":2980,"swap":2981,"sharing":2982,"trig":2983,"##attention":2984,"reductions":2985,"required":2986,"temporary":2987,"##dataparallel":2988,"propagation":2989,"kwarg":2990,"##context":2991,"makes":2992,"htt":2993,"_like":2994,"origin":2995,"convolutions":2996,"dl":2997,"each":2998,"ge":2999,"gtest":3000,"qtensor":3001,"robu":3002,"virtual":3003,"##ainder":3004,"##_put":3005,"##math":3006,"##book":3007,"##90":3008,"##->":3009,"##onical":3010,"##enable":3011,"incon":3012,"##aling":3013,"##uture":3014,"##entropy":3015,"##reg":3016,"ones":3017,"copi":3018,"dequantize":3019,"torchvision":3020,"they":3021,"remainder":3022,"upstream":3023,"uniform":3024,"shut":3025,"parse":3026,"##object":3027,"dist_":3028,"workers":3029,"##pool2d":3030,"test_nn":3031,"copying":3032,"scalartype":3033,"learning":3034,"##_pad":3035,"asserts":3036,"##engine":3037,"irange":3038,"##other":3039,"##shrink":3040,"msg":3041,"##catter":3042,"processgroupnccl":3043,"##anced":3044,"gitignore":3045,"##batchnorm":3046,"render":3047,"hardswish":3048,"second":3049,"suite":3050,"autodiff":3051,"promotion":3052,"gpus":3053,"attempt":3054,"robust":3055,"incons":3056,"aw":3057,"bmm":3058,"fav":3059,"found":3060,"gr":3061,"rng":3062,"squ":3063,"sug":3064,"##ser":3065,"##tanh":3066,"##ose":3067,"##hole":3068,"##ors":3069,"##atform":3070,"##esent":3071,"inverse":3072,"##iting":3073,"##chan":3074,"thpp":3075,"thvector":3076,"stat":3077,"buff":3078,"##older":3079,"##emb":3080,"().":3081,"disallow":3082,"runs":3083,"##_from":3084,"various":3085,"constexpr":3086,"##_min":3087,"##_not":3088,"nonzero":3089,"##_batch":3090,"sourc":3091,"##device":3092,"cpp_ext":3093,"##finite":3094,"network":3095,"fails":3096,"failures":3097,"##ucket":3098,"canonical":3099,"pointwise":3100,"brew":3101,"blocks":3102,"objects":3103,"sparset":3104,"equality":3105,"numeric":3106,"since":3107,"cublas":3108,"pipeline":3109,"axis":3110,"multilabel":3111,"codeowners":3112,"buffers":3113,"`.":3114,"label":3115,"mo":3116,"mv":3117,"pth":3118,"v2":3119,"##gather":3120,"##_pr":3121,"##nll":3122,"##table":3123,"##io":3124,"##ious":3125,"##ially":3126,"##zer":3127,"##orld":3128,"##atmul":3129,"##arrow":3130,"##array":3131,"##ade":3132,"pyi":3133,"depthwise":3134,"##ctional":3135,"expl":3136,"express":3137,"cudat":3138,"uninitial":3139,"quantizer":3140,"##elastic":3141,"##indices":3142,"##ift":3143,"arange":3144,"python3":3145,"conv1d":3146,"logsoftmax":3147,"##_mult":3148,"optimized":3149,"exporter":3150,"index_put":3151,"distributeddataparallel":3152,"folding":3153,"actually":3154,"summ":3155,"deserial":3156,"normalize":3157,"powersgd":3158,"##_sequence":3159,"optimizations":3160,"root":3161,"calculation":3162,"hardsigmoid":3163,"represent":3164,"destru":3165,"##_workers":3166,"int64_t":3167,"resnet50":3168,"semant":3169,"modernize":3170,"32":3171,"bn":3172,"bad":3173,"clo":3174,"dense":3175,"gu":3176,"gramm":3177,"ma":3178,"nested":3179,"pickler":3180,"right":3181,"squeeze":3182,"tuples":3183,"##gpu":3184,"##_int":3185,"##vious":3186,"##20":3187,"##99":3188,"##86":3189,"##atives":3190,"##item":3191,"##ities":3192,"rev":3193,"reuse":3194,"##oder":3195,"another":3196,"tensorlist":3197,"##udnn":3198,"torchelastic":3199,"remo":3200,"##olver":3201,"##fft":3202,"##ecutor":3203,"##urning":3204,"##veral":3205,"##operator":3206,"(),":3207,"typecheck":3208,"##_dep":3209,"##_split":3210,"##_scatter":3211,"changing":3212,"several":3213,"##_net":3214,"##_build":3215,"deploy":3216,"##ava":3217,"staticruntime":3218,"max_pool2d":3219,"transl":3220,"data_parallel":3221,"##_tests":3222,"platform":3223,"float16":3224,"expon":3225,"dockerfile":3226,"##_const":3227,"##bose":3228,"hardtanh":3229,"unsigned":3230,"mechan":3231,"verbose":3232,"lua":3233,"selective":3234,"peep":3235,"download":3236,"accumulate":3237,"original":3238,"copies":3239,"favor":3240,"mechanism":3241,"...":3242,"btri":3243,"ear":3244,"even":3245,"omp":3246,"slo":3247,"sampler":3248,"win":3249,"wise":3250,"zip":3251,"##future":3252,"##act":3253,"##_arch":3254,"##_args":3255,"##path":3256,"##case":3257,"##rtc":3258,"##dict":3259,"##hin":3260,"##ves":3261,"retry":3262,"##mprod":3263,"##select":3264,"##riend":3265,"unfold":3266,"##anges":3267,"##_cast":3268,"##_div":3269,"##_script":3270,"##_fl":3271,"##_fn":3272,"improvement":3273,"contrib":3274,"scriptmodule":3275,"cumprod":3276,"##maxpooling":3277,"compiling":3278,"converting":3279,"traced":3280,"symbols":3281,"statements":3282,"##prop":3283,"##_default":3284,"accur":3285,"allocation":3286,"unsqueeze":3287,"compiled":3288,"elements":3289,"declaration":3290,"specifying":3291,"rowwise":3292,"numerical":3293,"derivatives":3294,"maybe":3295,"tcpstore":3296,"formula":3297,"##implemented":3298,"advanced":3299,"namedtuple":3300,"semantics":3301,"##hinx":3302,"),":3303,"amp":3304,"friend":3305,"mention":3306,"narrow":3307,"pair":3308,"sn":3309,"san":3310,"side":3311,"schem":3312,"tp":3313,"takes":3314,"##light":3315,"##lling":3316,"##space":3317,"##mt":3318,"##ties":3319,"##17":3320,"##dot":3321,"##vial":3322,"##ared":3323,"fore":3324,"##itive":3325,"##ents":3326,"test_cuda":3327,"unb":3328,"##fact":3329,"##_types":3330,"train":3331,"isin":3332,"##ariant":3333,"##_distributed":3334,"autoc":3335,"metric":3336,"##_named":3337,"datap":3338,"datapipe":3339,"scripting":3340,"previous":3341,"##aching":3342,"##_graph":3343,"plan":3344,"##_strided":3345,"##_party":3346,"vectorized":3347,"many":3348,"refine":3349,"trivial":3350,"configs":3351,"##functions":3352,"recordfunction":3353,"##_select":3354,"verify":3355,"final":3356,"events":3357,"##_over":3358,"floor":3359,"lambda":3360,"third_party":3361,"##_softmax":3362,"##eeded":3363,"##embedding":3364,"pthread":3365,"peephole":3366,"(...":3367,"aver":3368,"ce":3369,"hal":3370,"tutor":3371,"##sc":3372,"##mv":3373,"##man":3374,"##uage":3375,"##uffer":3376,"##13":3377,"##of":3378,"##ery":3379,"##ings":3380,"toler":3381,"##ites":3382,"test_c10d":3383,"##mentum":3384,"##oll":3385,"implementing":3386,"##perm":3387,"##output":3388,"##_float":3389,"constra":3390,"resiz":3391,"preprocess":3392,"returning":3393,"##values":3394,"##leton":3395,"renorm":3396,"variabletype":3397,"ready":3398,"ability":3399,"##_pre":3400,"serialize":3401,"groups":3402,"##option":3403,"multihead":3404,"signatures":3405,"##_pool3d":3406,"feed":3407,"desc":3408,"##edian":3409,"views":3410,"processgroupgloo":3411,"longer":3412,"upsampling":3413,"ident":3414,"##_unpack":3415,"patterns":3416,"test_distributed":3417,"finish":3418,"existing":3419,"google":3420,"rendezvous":3421,"##_only":3422,"##optimizer":3423,"inlining":3424,"dilated":3425,"pruning":3426,"##cheduler":3427,"##_reduce":3428,"cumsum":3429,"gelu":3430,"##_wrapper":3431,"https":3432,"##nllcriterion":3433,"uninitialized":3434,"removal":3435,"foreach":3436,"tutorial":3437,"16":3438,"_s":3439,"__":3440,"bor":3441,"cate":3442,"face":3443,"fmod":3444,"fetch":3445,"gc":3446,"glow":3447,"lang":3448,"median":3449,"sil":3450,"ur":3451,"##son":3452,"##_nn":3453,"##_avg":3454,"##nect":3455,"##mask":3456,"##pad":3457,"##tor":3458,"##ian":3459,"##ooth":3460,"##2e":3461,"##ording":3462,"##enet":3463,"inher":3464,"##alization":3465,"##alone":3466,"##etr":3467,"##acon":3468,"cost":3469,"dequant":3470,"deleg":3471,"diff":3472,"their":3473,"supports":3474,"typed":3475,"unp":3476,"unt":3477,"##ffee":3478,"project":3479,"##_dense":3480,"cpuinfo":3481,"prelu":3482,"member":3483,"##ival":3484,"item":3485,"subclass":3486,"##devic":3487,"##_linear":3488,"dispatchkey":3489,"beta":3490,"space":3491,"sphinx":3492,"##_process":3493,"##_helper":3494,"##_tensor_apply":3495,"transforms":3496,"storageimpl":3497,"needs":3498,"##_repr":3499,"drop":3500,"##ancy":3501,"duplicated":3502,"iterator":3503,"slicing":3504,"masked_fill":3505,"trying":3506,"##_torch_function":3507,"saving":3508,"derivative":3509,"##variabletype":3510,"potr":3511,"shadowing":3512,"alpha":3513,"dlpack":3514,"(...)":3515,"facebook":3516,"14":3517,"64":3518,"__get":3519,"badd":3520,"cert":3521,"kl":3522,"mach":3523,"our":3524,"sl":3525,"ser":3526,"sle":3527,"sgd":3528,"sqrt":3529,"tree":3530,"yml":3531,"##fi":3532,"##lr":3533,"##awn":3534,"##_if":3535,"##_jit":3536,"##_point":3537,"##earest":3538,"##pri":3539,"##cod":3540,"##copy":3541,"##18":3542,"##bf":3543,"##blob":3544,"##54":3545,"toffee":3546,"##itt":3547,"addmv":3548,"reenable":3549,"confl":3550,"stuff":3551,"##anti":3552,"##app":3553,"##olid":3554,"##ffic":3555,"und":3556,"##andom":3557,"trunc":3558,"linspace":3559,"notes":3560,"##_no":3561,"##_node":3562,"##_numpy":3563,"gradgrad":3564,"spect":3565,"flip":3566,"batch_norm":3567,"##trace":3568,"regular":3569,"##oke":3570,"recv":3571,"recent":3572,"org":3573,"floating":3574,"smooth":3575,"integrate":3576,"cleanups":3577,"detach":3578,"deprecation":3579,"protot":3580,"parallelize":3581,"manager":3582,"ordering":3583,"activations":3584,"##eterministic":3585,"collect_env":3586,"mutable":3587,"##transform":3588,"##contiguous":3589,"##_library":3590,"corre":3591,"standalone":3592,"avx2":3593,"location":3594,"##handler":3595,"##rocm":3596,"introduced":3597,"freez":3598,"storages":3599,"aware":3600,"multiheadattention":3601,"conflict":3602,":/":3603,"bec":3604,"bot":3605,"bund":3606,"bilinear":3607,"criterion":3608,"flex":3609,"gflags":3610,"just":3611,"ler":3612,"land":3613,"ndim":3614,"que":3615,"qconv":3616,"sig":3617,"solve":3618,"uint8":3619,"##lder":3620,"##ause":3621,"##_indices":3622,"##pon":3623,"##ti":3624,"##bucket":3625,"##89":3626,"##55":3627,"##attr":3628,"##acc":3629,"##seg":3630,"##adam":3631,"py2":3632,"pyper":3633,"delet":3634,"exit":3635,"cudag":3636,"##essage":3637,"prog":3638,"int32":3639,"arbit":3640,"linter":3641,"##_comm":3642,"python2":3643,"argmin":3644,"spelling":3645,"##thvalue":3646,"##reader":3647,"retri":3648,"retain":3649,"overlap":3650,"transport":3651,"##_internal":3652,"attention":3653,"##_str":3654,"##_run":3655,"conditional":3656,"structure":3657,"##rowwise":3658,"consolid":3659,"cannot":3660,"partial":3661,"##_debug":3662,"reflection":3663,"pointers":3664,"##_backend":3665,"iteration":3666,"##compatib":3667,"workflows":3668,"##_async":3669,"thtensor_":3670,"##ickling":3671,"breaking":3672,"calculate":3673,"keepdim":3674,"tracking":3675,"addcdiv":3676,"nllloss":3677,"appropri":3678,"##marginloss":3679,"instancenorm":3680,"pickle":3681,"counter":3682,"tensortype":3683,"expressions":3684,"cudatensor":3685,"summary":3686,"autocast":3687,"language":3688,"inherit":3689,"spectral":3690,"://":3691,"lerp":3692,"arbitrary":3693,"appropriate":3694,"dp":3695,"effic":3696,"fn":3697,"lp":3698,"l1":3699,"older":3700,"ss":3701,"sampling":3702,"tile":3703,"##sq":3704,"##_av":3705,"##_channel":3706,"##medi":3707,"##cpu":3708,"##comm":3709,"##uation":3710,"##over":3711,"##writer":3712,"##benchmark":3713,"##70":3714,"##74":3715,"##33":3716,"##aneous":3717,"##chw":3718,"##stra":3719,"##acing":3720,"##ully":3721,"decomp":3722,"diction":3723,"strided":3724,"##ecode":3725,"atan":3726,"ent":3727,"##asst":3728,"##ider":3729,"##ident":3730,"##angular":3731,"##play":3732,"##fail":3733,"##emodule":3734,"##_dtype":3735,"usages":3736,"##predictor":3737,"installed":3738,"argmax":3739,"prs":3740,"##_fus":3741,"redo":3742,"generating":3743,"handler":3744,"##trs":3745,"deps":3746,"##argument":3747,"ify":3748,"dimname":3749,"mix":3750,"##_local":3751,"including":3752,"replacement":3753,"linkage":3754,"##_string":3755,"nets":3756,"annotate":3757,"futur":3758,"##queue":3759,"property":3760,"prior":3761,"transformation":3762,"specialization":3763,"restri":3764,"comparisons":3765,"easier":3766,"##gorical":3767,"##_android":3768,"intrins":3769,"parser":3770,"##_state_dict":3771,"addcmul":3772,"synchronize":3773,"visual":3774,"##2col":3775,"##cret":3776,"hotfix":3777,"##modelhelper":3778,"trigger":3779,"momentum":3780,"destructor":3781,"ceil":3782,"until":3783,"prototype":3784,"affine":3785,"bag":3786,"equ":3787,"fun":3788,"hi":3789,"hint":3790,"mps":3791,"necessary":3792,"pop":3793,"ppc":3794,"pep":3795,"rot":3796,"tags":3797,"void":3798,"will":3799,"##lf":3800,"##average":3801,"##_impl":3802,"##_log":3803,"##_observer":3804,"##nd":3805,"##ned":3806,"##cnn":3807,"##callback":3808,"##rref":3809,"##dil":3810,"##holder":3811,"##wises":3812,"##athon":3813,"##analy":3814,"reapply":3815,"rebuild":3816,"##access":3817,"##seq":3818,"##agma":3819,"child":3820,"pytest":3821,"caused":3822,"at_check":3823,"entri":3824,"##ased":3825,"##idth":3826,"##plan":3827,"instanti":3828,"log_softmax":3829,"graphmodule":3830,"pret":3831,"##_nv":3832,"##_non":3833,"contin":3834,"##trt":3835,"getting":3836,"##ailing":3837,"skips":3838,"packages":3839,"initializer":3840,"##quantized":3841,"randperm":3842,"##backward":3843,"##_static":3844,"rnns":3845,"assertequal":3846,"threadpool":3847,"netdef":3848,"unneeded":3849,"spatialconvolution":3850,"statement":3851,"manage":3852,"partition":3853,"reflect":3854,"triangular":3855,"deadlock":3856,"automatically":3857,"append":3858,"twice":3859,"##tool":3860,"adaptive_avg":3861,"equalization":3862,"hacky":3863,"hackathon":3864,"##state__":3865,"##observers":3866,"fields":3867,"settings":3868,"reorg":3869,"whites":3870,"dper3":3871,"##construct":3872,"similar":3873,"combine":3874,"literals":3875,"capture":3876,"given":3877,"centos":3878,"##_aten":3879,"shutdown":3880,"status":3881,"baddbmm":3882,"##dilated":3883,"##wisesparse":3884,"entries":3885,"[]":3886,"_in":3887,"amb":3888,"actions":3889,"bf":3890,"cdist":3891,"etc":3892,"fully":3893,"len":3894,"lic":3895,"mse":3896,"mist":3897,"made":3898,"ptr":3899,"sized":3900,"sls":3901,"world":3902,"##l1":3903,"##local":3904,"##ges":3905,"##ged":3906,"##side":3907,"##sgd":3908,"##_x":3909,"##_po":3910,"##_agent":3911,"##my":3912,"##matmul":3913,"##epc":3914,"##paces":3915,"##call":3916,"##core":3917,"##close":3918,"##te":3919,"##uct":3920,"##hist":3921,"##wer":3922,"##2trt":3923,"##::":3924,"##onal":3925,"##dden":3926,"addr":3927,"##ropout":3928,"thstorage":3929,"##unit":3930,"test_c":3931,"coll":3932,"concret":3933,"del":3934,"torch_cuda":3935,"expos":3936,"##ffset":3937,"##imum":3938,"useless":3939,"##asing":3940,"cudastream":3941,"cudafuture":3942,"##idia":3943,"##ators":3944,"##ometric":3945,"##plus":3946,"##_time":3947,"tril":3948,"trainer":3949,"trailing":3950,"lines":3951,"typemeta":3952,"parent":3953,"modified":3954,"nnpi":3955,"##ibility":3956,"##_sample":3957,"##_schema":3958,"auton":3959,"disabling":3960,"users":3961,"logit":3962,"pred":3963,"fx2trt":3964,"##_mask":3965,"##_native":3966,"gradbucket":3967,"##_block":3968,"doing":3969,"defaults":3970,"rpcagent":3971,"##enccl":3972,"max_pool":3973,"created":3974,"cuh":3975,"##_include":3976,"##ideo":3977,"processing":3978,"initialized":3979,"plug":3980,"abort":3981,"abstra":3982,"##_stats":3983,"##_rpc":3984,"layer_norm":3985,"neon":3986,"integral":3987,"properties":3988,"consistency":3989,"spatialbn":3990,"##shape":3991,"##shuffle":3992,"smaller":3993,"refcount":3994,"triu":3995,"openblas":3996,"steps":3997,"nvidia":3998,"ccache":3999,"shared_ptr":4000,"masked_scatter":4001,"mutex":4002,"produc":4003,"invariant":4004,"generalize":4005,"times":4006,"sharding":4007,"##_quantized":4008,"##_parameters":4009,"description":4010,"dilation":4011,"stubs":4012,"configuration":4013,"##weighted":4014,"amd":4015,"##_jobs":4016,"##methods":4017,"helpers":4018,"tsan":4019,"replaced":4020,"cusolver":4021,"persistent":4022,"termin":4023,"coalesce":4024,"##_flags":4025,"friendly":4026,"##achingallocator":4027,"pthreadpool":4028,"averaging":4029,"sleef":4030,"because":4031,"futurenccl":4032,"whitespace":4033,"exposing":4034,"__set":4035,"__torch_function":4036,"bring":4037,"bail":4038,"cell":4039,"eins":4040,"func":4041,"gre":4042,"json":4043,"mt":4044,"np":4045,"page":4046,"rs":4047,"text":4048,"video":4049,"werror":4050,"##fe":4051,"##gs":4052,"##go":4053,"##message":4054,"##tes":4055,"##ters":4056,"##data":4057,"##hook":4058,"##hash":4059,"##wd":4060,"##known":4061,"##78":4062,"##58":4063,"##onvariabletype":4064,"addition":4065,"##stance":4066,"##odense":4067,"##iler":4068,"##izable":4069,"##porter":4070,"##ssum":4071,"##aged":4072,"altern":4073,"compat":4074,"complete":4075,"compress":4076,"proxy":4077,"##ummy":4078,"classt":4079,"##endezvous":4080,"##_ci":4081,"##_dynamic":4082,"been":4083,"functionschema":4084,"distance":4085,"seq":4086,"##_nccl":4087,"indent":4088,"batchmatmul":4089,"handles":4090,"regex":4091,"##packed":4092,"left":4093,"##maxpool":4094,"##ructure":4095,"reader":4096,"no_grad":4097,"corrected":4098,"randn":4099,"##_path":4100,"rnncell":4101,"##_res":4102,"state_dict":4103,"partially":4104,"##proper":4105,"hardshrink":4106,"##64le":4107,"speedup":4108,"##_requ":4109,"syncbatchnorm":4110,"##ractional":4111,"fakelowp":4112,"dicts":4113,"guards":4114,"##_exec":4115,"strip":4116,"##posals":4117,"pinning":4118,"arrays":4119,"arrayref":4120,"clarity":4121,"produce":4122,"corner":4123,"validation":4124,"lazily":4125,"instruction":4126,"`,`":4127,"highlight":4128,"potential":4129,"containers":4130,"rounding":4131,"synchronization":4132,"##_idx":4133,"position":4134,"dedup":4135,"cnnmodelhelper":4136,"sparsetensor":4137,"data_parallel_model":4138,"early":4139,"accuracy":4140,"metrics":4141,"##_namedtensor":4142,"##_prepack":4143,"url":4144,"flexible":4145,"##mediate":4146,"##epcopy":4147,"__torch_function__":4148,"einsum":4149,"<->":4150,"__repr":4151,"cy":4152,"close":4153,"dag":4154,"dll":4155,"fr":4156,"kthvalue":4157,"occ":4158,"ph":4159,"pix":4160,"pickling":4161,"rt":4162,"rout":4163,"saf":4164,"tvm":4165,"##lies":4166,"##lish":4167,"##sort":4168,"##sign":4169,"##_k":4170,"##_al":4171,"##_rocm":4172,"##ne":4173,"##node":4174,"##num":4175,"##md":4176,"##caffe2":4177,"##ik":4178,"##1c":4179,"##df":4180,"##ool":4181,"##x2":4182,"##version":4183,"##30":4184,"##inary":4185,"##inference":4186,"##ons":4187,"##ename":4188,"tod":4189,"##ednn":4190,"##roy":4191,"##sequence":4192,"onednn":4193,"##look":4194,"buf":4195,"##abled":4196,"chain":4197,"supporting":4198,"within":4199,"at_parallel":4200,"at_assert":4201,"##executor":4202,"##ffect":4203,"##ised":4204,"checked":4205,"clon":4206,"outside":4207,"notimplemented":4208,"##ayer":4209,"##_file":4210,"##_fp16":4211,"resolution":4212,"##_me":4213,"datat":4214,"allowing":4215,"nonetype":4216,"modulelist":4217,"##ansion":4218,"exported":4219,"##encv":4220,"classnllcriterion":4221,"statically":4222,"##_last":4223,"max_jobs":4224,"tensorexprkernel":4225,"##generator":4226,"datachannel":4227,"spawn":4228,"abi":4229,"embeddings":4230,"splitting":4231,"##_tensors":4232,"expansion":4233,"traces":4234,"groupnorm":4235,"fault":4236,"random_":4237,"divide":4238,"fake_quant":4239,"power":4240,"boundary":4241,"##metic":4242,"##_trainer":4243,"##wrapper":4244,"present":4245,"provid":4246,"templates":4247,"pin_memory":4248,"##sumexp":4249,"##_libs":4250,"validate":4251,"nullptr":4252,"##_inputs":4253,"poly":4254,"constructing":4255,"logspace":4256,"##_outputs":4257,"nll_loss":4258,"##constant":4259,"##_contiguous":4260,"thctensor_":4261,"permute":4262,"help":4263,"leakyrelu":4264,"##uchy":4265,"qualified":4266,"grammatic":4267,"##_constant":4268,"schemas":4269,"certain":4270,"consolidate":4271,"dictionary":4272,"atan2":4273,"ppc64le":4274,"license":4275,"__repr__":4276,"pixel":4277,"##lookup":4278,"04":4279,"15":4280,"apt":4281,"cance":4282,"codes":4283,"effect":4284,"fur":4285,"litt":4286,"nd":4287,"ps":4288,"sched":4289,"tf":4290,"tin":4291,"were":4292,"##fd":4293,"##gr":4294,"##_le":4295,"##names":4296,"##more":4297,"##mult":4298,"##rt":4299,"##rnn":4300,"##random":4301,"##rendezvous":4302,"##tx":4303,"##uf":4304,"##ustom":4305,"##half":4306,"##wh":4307,"##76":4308,"##80":4309,"##52":4310,"##36":4311,"##oring":4312,"##order":4313,"##erate":4314,"##eness":4315,"##ars":4316,"##anize":4317,"##stack":4318,"##stsq":4319,"then":4320,"##reak":4321,"opencv":4322,"##ocs":4323,"connect":4324,"dem":4325,"stft":4326,"stmt":4327,"remot":4328,"along":4329,"enables":4330,"##imargin":4331,"unknown":4332,"##idual":4333,"##ipul":4334,"##_call":4335,"##ariables":4336,"##_dump":4337,"##_sc":4338,"##_sy":4339,"display":4340,"as_strided":4341,"##intr":4342,"gradle":4343,"grad_fn":4344,"multimargin":4345,"##_buffer":4346,"libs":4347,"overrides":4348,"model_dump":4349,"##itect":4350,"transposed":4351,"load_state_dict":4352,"##_gather":4353,"##record":4354,"im2col":4355,"serialized":4356,"##_hand":4357,"##_half":4358,"migr":4359,"smoke":4360,"##meig":4361,"never":4362,"protoc":4363,"namedtensor":4364,"##shift":4365,"allocate":4366,"extraction":4367,"design":4368,"deadline":4369,"query":4370,"record_function":4371,"analyzer":4372,"rowwisesparse":4373,"reducing":4374,"sharded":4375,"publish":4376,"boxed":4377,"architect":4378,"softplus":4379,"##fully":4380,"lookuptable":4381,"##_transpose":4382,"##_context":4383,"lambd":4384,"configurable":4385,"##_hooks":4386,"##margincriterion":4387,"recurrentnet":4388,"##fuser":4389,"minimum":4390,"##_per_tensor":4391,"completely":4392,"dist_autograd":4393,"rendering":4394,"sugg":4395,"deserialization":4396,"resnet50_trainer":4397,"##item__":4398,"##operators":4399,"exponential":4400,"##_divide":4401,"sanity":4402,"borrow":4403,"server":4404,"unders":4405,"queue":4406,"retrie":4407,"efficient":4408,"mpscnn":4409,"##analysis":4410,"pretty":4411,"_internal":4412,"autononvariabletype":4413,"##weightedsum":4414,"bailout":4415,"further":4416,"little":4417,"tiny":4418,"autononvariabletypemode":4419,"'.":4420,">::":4421,"cunn":4422,"ctor":4423,"dummy":4424,"fo":4425,"ges":4426,"glu":4427,"ib":4428,"jni":4429,"known":4430,"mon":4431,"night":4432,"roll":4433,"suc":4434,"tre":4435,"tbb":4436,"v1":4437,"v0":4438,"##fake":4439,"##spec":4440,"##_arg":4441,"##memory":4442,"##event":4443,"##cut":4444,"##rant":4445,"##ts":4446,"##uri":4447,"##dc":4448,"##bc":4449,"##26":4450,"##2seq":4451,"##40":4452,"##jor":4453,"##3e":4454,"##()":4455,"##iness":4456,"##enial":4457,"incompatib":4458,"##arm":4459,"rebase":4460,"##utation":4461,"##ether":4462,"things":4463,"anacon":4464,"##reh":4465,"##unpack":4466,"test_f":4467,"##ocation":4468,"couple":4469,"cosh":4470,"conc":4471,"deepcopy":4472,"tensormethods":4473,"stability":4474,"expr":4475,"##image":4476,"unrol":4477,"unboxed":4478,"compon":4479,"compos":4480,"##opb":4481,"erf":4482,"checker":4483,"checkout":4484,"##ending":4485,"typeid":4486,"##_cudnn":4487,"implements":4488,"##ribe":4489,"##_sync":4490,"disco":4491,"beam":4492,"allgather":4493,"##irst":4494,"##_first":4495,"nond":4496,"poiss":4497,"content":4498,"##_by":4499,"##_binary":4500,"deviceguard":4501,"##osition":4502,"sparseadagrad":4503,"skipped":4504,"##ception":4505,"packaging":4506,"##finv":4507,"symeig":4508,"correctness":4509,"##added":4510,"linked":4511,"##_pref":4512,"optimize_for":4513,"##owned":4514,"opinfos":4515,"parallelism":4516,"##ifications":4517,"##proto":4518,"accident":4519,"signed":4520,"##_variables":4521,"unsafe":4522,"trip":4523,"futuremessage":4524,"##_coales":4525,"specialize":4526,"ignored":4527,"nvrtc":4528,"findcuda":4529,"sorting":4530,"common_utils":4531,"iterations":4532,"pinned":4533,"defs":4534,"masked_select":4535,"##_unused":4536,"##lines":4537,"##writing":4538,"mutation":4539,"owner":4540,"requirements":4541,"throughput":4542,"##_pytorch":4543,"##_enabled":4544,"avgpool":4545,"buck":4546,"timer":4547,"##_empty":4548,"evaluation":4549,"algorithms":4550,"accumulation":4551,"descriptor":4552,"renamed":4553,"problems":4554,"html":4555,"logsigmoid":4556,"##_num_threads":4557,"##fusion":4558,"combin":4559,"literal":4560,"cusparse":4561,"sparselengthssum":4562,"canonicalize":4563,"unbreak":4564,"tolerance":4565,"constraints":4566,"gradgradcheck":4567,"bundled":4568,"management":4569,"classtype":4570,"##grind":4571,"nightlies":4572,"anaconda":4573,"poisson":4574,"_d":4575,"ast":4576,"aarch":4577,"cxx":4578,"dce":4579,"ffi":4580,"gate":4581,"java":4582,"lbf":4583,"lstsq":4584,"next":4585,"rrelu":4586,"sse":4587,"ti":4588,"##fp16":4589,"##ailed":4590,"##gin":4591,"##_factor":4592,"##_value":4593,"##_use":4594,"##_fail":4595,"##rpc":4596,"##ted":4597,"##tal":4598,"##tos":4599,"##1p":4600,"##date":4601,"##ht":4602,"##8bit":4603,"##java":4604,"##3b":4605,"##39":4606,"##erv":4607,"incl":4608,"##chlet":4609,"reent":4610,"reimplement":4611,"##unct":4612,"##icy":4613,"test_sparse":4614,"testcase":4615,"cover":4616,"could":4617,"deb":4618,"deve":4619,"depth":4620,"##abs":4621,"##richlet":4622,"##akiness":4623,"digamma":4624,"##abledataset":4625,"##ithmetic":4626,"cauchy":4627,"cuda9":4628,"cuda_tensor_apply":4629,"##poch":4630,"compreh":4631,"arithmetic":4632,"##endent":4633,"##_di":4634,"##_dec":4635,"##_serial":4636,"##_source":4637,"logger":4638,"log1p":4639,"pragma":4640,"warp":4641,"##python":4642,"see":4643,"grads":4644,"flakiness":4645,"refactored":4646,"scriptable":4647,"##_blob":4648,"doxy":4649,"prefer":4650,"##undancy":4651,"##thing":4652,"parametr":4653,"acce":4654,"test_autograd":4655,"##_lin":4656,"maximum":4657,"returned":4658,"data_ptr":4659,"inferencemode":4660,"porting":4661,"spmd":4662,"##_warn":4663,"places":4664,"##_runtime":4665,"##coun":4666,"##cope":4667,"##_home":4668,"detail":4669,"detailed":4670,"consider":4671,"executable":4672,"##_config":4673,"merging":4674,"failed":4675,"##import":4676,"allocations":4677,"collection":4678,"defining":4679,"placeholder":4680,"singleton":4681,"view_as":4682,"##_exit":4683,"edit":4684,"anymore":4685,"resize_":4686,"specification":4687,"##respon":4688,"##_ops_test":4689,"requirement":4690,"bytecode":4691,"expected":4692,"filest":4693,"nanopb":4694,"inferred":4695,"exists":4696,"roi":4697,"interpolation":4698,"##ierarch":4699,"inlined":4700,"##right":4701,"maxpool2d":4702,"##irtualize":4703,"##_transform":4704,"devirtualize":4705,"positive":4706,"clip_grad":4707,"repeat_inter":4708,"recursively":4709,"##gradientop":4710,"formulas":4711,"##handle":4712,"callbacks":4713,"instances":4714,"offsets":4715,"##bytes":4716,"arm64":4717,"dist_optim":4718,"cpp_extension":4719,"cpp_extensions":4720,"representation":4721,"major":4722,"btrifact":4723,"isinstance":4724,"##ivalue":4725,"correction":4726,"hidden":4727,"##_nvcc":4728,"##history":4729,"##_blocking":4730,"alternative":4731,"seq2seq":4732,"datatype":4733,"polygamma":4734,"tf32":4735,"recurrentnetwork":4736,"##_prefix":4737,"lbfgs":4738,"&&":4739,"17":4740,"<<":4741,"`:":4742,"ai":4743,"aug":4744,"cp":4745,"dom":4746,"eq":4747,"fall":4748,"fractional":4749,"hide":4750,"hold":4751,"il":4752,"kind":4753,"mic":4754,"mock":4755,"much":4756,"nu":4757,"nchw":4758,"oom":4759,"rfc":4760,"ubs":4761,"xcode":4762,"##li":4763,"##long":4764,"##a0":4765,"##a4":4766,"##aff":4767,"##_quantize":4768,"##_entropy":4769,"##no":4770,"##ev":4771,"##pet":4772,"##padding":4773,"##rank":4774,"##ranges":4775,"##tition":4776,"##text":4777,"##our":4778,"##hot":4779,"##hip":4780,"##22":4781,"##29":4782,"##7e":4783,"##79":4784,"##jni":4785,"##35":4786,"##enn":4787,"##enearest":4788,"infinite":4789,"##leave":4790,"to_string":4791,"##edd":4792,"##ddp":4793,"addbmm":4794,"replic":4795,"replication":4796,"fixup":4797,"##roll":4798,"##ety":4799,"##real":4800,"##ading":4801,"##unge":4802,"##update":4803,"states":4804,"extern":4805,"super":4806,"cho":4807,"at_dispatch":4808,"cuda11":4809,"##ister":4810,"builder":4811,"whether":4812,"makefile":4813,"caffe_trans":4814,"err":4815,"erfinv":4816,"intlist":4817,"##lements":4818,"is_s":4819,"##_shape":4820,"##print":4821,"begin":4822,"improving":4823,"printer":4824,"##_full":4825,"warm":4826,"autogener":4827,"batches":4828,"versioning":4829,"newwith":4830,"gets":4831,"rpc_test":4832,"subt":4833,"##dequant":4834,"##enced":4835,"listen":4836,"##ependent":4837,"distributedsampler":4838,"skipping":4839,"cufft":4840,"readable":4841,"readability":4842,"glog":4843,"initializing":4844,"##_open":4845,"##_guard":4846,"able":4847,"##_padding":4848,"serializing":4849,"##_range":4850,"##_host":4851,"##mean":4852,"expunge":4853,"##iguity":4854,"##mmetric":4855,"wrapping":4856,"wrapped":4857,"zero_point":4858,"comparing":4859,"registering":4860,"vectors":4861,"manipul":4862,"##lobal":4863,"aliasing":4864,"according":4865,"computing":4866,"##kernels":4867,"switching":4868,"##attribut":4869,"moves":4870,"##_export":4871,"100":4872,"##_trace":4873,"launches":4874,"##flatten":4875,"decay":4876,"dnnl":4877,"collective":4878,"collectives":4879,"padding_idx":4880,"bytes":4881,"bytetensor":4882,"avgpool2d":4883,"##boxing":4884,"timing":4885,"##_of":4886,"##_params":4887,"qconfig_dict":4888,"##legal":4889,"##oredundancy":4890,"mappings":4891,"lrn":4892,"diagn":4893,"atomicadd":4894,"grid_sample":4895,"isnan":4896,"deduplic":4897,"packedsequence":4898,"introducing":4899,"tweaks":4900,"##arnable":4901,"sparselengths":4902,"##_weights":4903,"square":4904,"##_multi":4905,"guide":4906,"maint":4907,"##_deps":4908,"##embeddingloss":4909,"halft":4910,"categorical":4911,"freezing":4912,"##segments":4913,"decomposition":4914,"rotated":4915,"bf16":4916,"__setstate__":4917,"rsqrt":4918,"frac":4919,"##_mean":4920,"schedule":4921,"remotemodule":4922,"suggest":4923,"triplet":4924,"reentrant":4925,"doxygen":4926,"filestore":4927,"repeat_interleave":4928,"micro":4929,"ubsan":4930,"caffe_transl":4931,"##oredundancyoptimizer":4932,")`":4933,"/*":4934,">()":4935,"bz":4936,"big":4937,"bunch":4938,"dri":4939,"ell":4940,"ecr":4941,"fro":4942,"gamma":4943,"lot":4944,"nit":4945,"pg":4946,"suff":4947,"schedul":4948,"scheduler":4949,"tls":4950,"word":4951,"x86":4952,"}.":4953,"}`":4954,"##full":4955,"##ae":4956,"##a9":4957,"##gle":4958,"##sr":4959,"##s__":4960,"##_option":4961,"##nist":4962,"##eb":4963,"##cu":4964,"##card":4965,"##rans":4966,"##uv":4967,"##dir":4968,"##och":4969,"##ough":4970,"##hing":4971,"##44":4972,"##84":4973,"inner":4974,"##itize":4975,"repos":4976,"##stall":4977,"##stub":4978,"##ods":4979,"##etest":4980,"##eturn":4981,"three":4982,"##entensor":4983,"##self":4984,"##adic":4985,"##iles":4986,"test_b":4987,"test_tensor":4988,"##atex":4989,"##loop":4990,"tensorrt":4991,"torch7":4992,"##olding":4993,"cudac":4994,"ens":4995,"enfor":4996,"##imilar":4997,"from_numpy":4998,"##elike":4999,"build_caffe2":5000,"##usion":5001,"##angling":5002,"##omet":5003,"##verbs":5004,"##ctories":5005,"pytorch_android":5006,"##umn":5007,"typeerror":5008,"##ipy":5009,"##_custom":5010,"backtrace":5011,"##ibration":5012,"##_deterministic":5013,"convbn":5014,"conv_transpose":5015,"##_sub":5016,"##_sign":5017,"##_sizes":5018,"##_support":5019,"logsumexp":5020,"##_match":5021,"##ained":5022,"flat":5023,"independent":5024,"scriptmodules":5025,"newer":5026,"##arge":5027,"interf":5028,"regen":5029,"optionally":5030,"##dep":5031,"overview":5032,"indexselect":5033,"##derr":5034,"##_link":5035,"asser":5036,"tech":5037,"##_inference":5038,"leaf":5039,"included":5040,"fbjni":5041,"ort":5042,"loader":5043,"##_operator":5044,"linker":5045,"imag":5046,"##_rank":5047,"##_hot":5048,"nearest":5049,"##engl":5050,"##_partition":5051,"spatialdilated":5052,"manually":5053,"aliasdb":5054,"##_def":5055,"accreal":5056,"signal":5057,"hardcod":5058,"##_reg":5059,"##_coo":5060,"imageinput":5061,"-->":5062,"batchnormalization":5063,"declare":5064,"relu6":5065,"processgroupagent":5066,"traceable":5067,"sorted":5068,"resize_as":5069,"timeouts":5070,"##gdet":5071,"defunct":5072,"ids":5073,"##haust":5074,"apple":5075,"very":5076,"##datapipe":5077,"devicetype":5078,"extending":5079,"adaptiveavg":5080,"##cular":5081,"larger":5082,"subgraphs":5083,"crit":5084,"##_libtorch":5085,"elimination":5086,"utilities":5087,"sinh":5088,"crossentropy":5089,"repeated":5090,"contribution":5091,"##_onnx":5092,"peer":5093,"##_offset":5094,"zeroredundancyoptimizer":5095,"##builder":5096,"quicksort":5097,"tasks":5098,"##enormal":5099,"channels_last":5100,"bitwise_not":5101,"simd":5102,"##ission":5103,"##_qparams":5104,"bceloss":5105,"counting":5106,"prepacking":5107,"geometric":5108,"inconsistency":5109,"sources":5110,"sparsetodense":5111,"multilabelmargincriterion":5112,"explain":5113,"platforms":5114,"unpickler":5115,"##_process_group":5116,"toffeeir":5117,"regularization":5118,"smoothl1":5119,"tensortypeid":5120,"##_available":5121,"##_fuser":5122,"mixed":5123,"priority":5124,"##averagepooling":5125,"triangular_solve":5126,"reorganize":5127,"concrete":5128,"##_timeout":5129,"##nealing":5130,"provided":5131,"optimize_for_mobile":5132,"##_coalesced":5133,"acceler":5134,"illegal":5135,"autogenerated":5136,"caffe_translator":5137,"bzl":5138,"ellip":5139,"##imilarity":5140,"_w":5141,"_all":5142,"__r":5143,"_get":5144,"``":5145,"c89":5146,"fat":5147,"gf":5148,"ger":5149,"hang":5150,"hierarch":5151,"io":5152,"lm":5153,"ld":5154,"l2":5155,"ml":5156,"mp":5157,"mes":5158,"nest":5159,"nans":5160,"tables":5161,"watch":5162,"xpl":5163,"yet":5164,"zm":5165,"##fun":5166,"##aw":5167,"##sampling":5168,"##_load":5169,"##_ref":5170,"##_key":5171,"##_autograd":5172,"##mem":5173,"##mqr":5174,"##mutable":5175,"##efault":5176,"##eleton":5177,"##prod":5178,"##ca":5179,"##cing":5180,"##ta":5181,"##tion":5182,"##iqu":5183,"##15":5184,"##dt":5185,"##oo":5186,"##olop":5187,"##ym":5188,"##x3":5189,"##b9":5190,"##bin":5191,"##bers":5192,"##bra":5193,"##kit":5194,"##kind":5195,"##48":5196,"##77":5197,"##37":5198,"##eni":5199,"ini":5200,"total":5201,"##ed_":5202,"##itored":5203,"##chunk":5204,"##mpi":5205,"##acer":5206,"##acob":5207,"##ensive":5208,"opengl":5209,"##oco":5210,"conj":5211,"##ulate":5212,"dirichlet":5213,"stderr":5214,"extr":5215,"##ithread":5216,"##ollect":5217,"caus":5218,"unified":5219,"unwrap":5220,"unflatten":5221,"##pointer":5222,"##ptions":5223,"build_":5224,"##andcast":5225,"##exporter":5226,"white":5227,"##omaly":5228,"##verg":5229,"caffe_en":5230,"scipy":5231,"##_target":5232,"##ialign":5233,"ints":5234,"intel":5235,"arti":5236,"##iproc":5237,"modifications":5238,"##_cache":5239,"##_sp":5240,"##axis":5241,"disables":5242,"discontiguous":5243,"asin":5244,"##obj":5245,"variadic":5246,"resol":5247,"resource":5248,"selection":5249,"##_new":5250,"indiv":5251,"callable":5252,"dok":5253,"prep":5254,"method_tests":5255,"ifdef":5256,"relative":5257,"cleaner":5258,"##ivari":5259,"acos":5260,"account":5261,"##cond":5262,"test_l":5263,"test_proper":5264,"##aving":5265,"index_copy":5266,"skeleton":5267,"learnable":5268,"##files":5269,"sys":5270,"namespaces":5271,"process_group":5272,"##_op_test":5273,"empty_like":5274,"plus":5275,"##gebra":5276,"##_pri":5277,"assertions":5278,"threaded":5279,"thread_local":5280,"threadlocal":5281,"importing":5282,"wrap_dim":5283,"matches":5284,"simplifier":5285,"registered":5286,"registeroperators":5287,"parallel_for":5288,"doubling":5289,"##_gradient":5290,"vectorization":5291,"aliasanalysis":5292,"parts":5293,"##proposals":5294,"operand":5295,"wrt":5296,"##_view":5297,"##_vulkan":5298,"speed_benchmark":5299,"##rices":5300,"one_hot":5301,"lstmcell":5302,"quot":5303,"longtensor":5304,"finding":5305,"int8fc":5306,"common_nn":5307,"##withloss":5308,"##withlog":5309,"accessing":5310,"mag2gen":5311,"##logical":5312,"onnxifiop":5313,"lu_solve":5314,"filler":5315,"avg_pool2d":5316,"##_libraries":5317,"numerics":5318,"test_dat":5319,"correspon":5320,"roialign":5321,"counters":5322,"blackbox":5323,"detectron":5324,"heap":5325,"heuri":5326,"_th_":5327,"workerinfo":5328,"contains":5329,"##general":5330,"approx":5331,"##_mapping":5332,"decorators":5333,"##_affine":5334,"replacing":5335,"capability":5336,"requests":5337,"grace":5338,"sourcer":5339,"numerically":5340,"##_print":5341,"closure":5342,"revamp":5343,"typechecking":5344,"translator":5345,"maybeowned":5346,"halving":5347,"resizelike":5348,"delegation":5349,"potrf":5350,"__getitem__":5351,"orgqr":5352,"mutable_data":5353,"progress":5354,"##_debug_info":5355,"entropy":5356,"intrinsics":5357,"visualization":5358,"adaptive_avg_pool2d":5359,"cycl":5360,"at_parallel_native":5361,"at_assertm":5362,"cloning":5363,"faulty":5364,"cancel":5365,"multimargincriterion":5366,"underscore":5367,"gesv":5368,"monitored":5369,"success":5370,"incompatible":5371,"composite":5372,"nondeterministic":5373,"##8bitrowwise":5374,"inclusion":5375,"##counting":5376,"domain":5377,"##fullconvolution":5378,"reposit":5379,"resize_as_":5380,"##haustive":5381,"crossentropyloss":5382,"lmdb":5383,"xplat":5384,"zmq":5385,"##acobian":5386,"##andcastle":5387,"artifact":5388,"##iprocal":5389,"test_proper_exit":5390,"corresponding":5391,"heurist":5392,"!=":5393,"18":5394,"<=":5395,"_f":5396,"_dim":5397,"az":5398,"action":5399,"aot":5400,"bid":5401,"cur":5402,"coco":5403,"em":5404,"ey":5405,"e2e":5406,"lc":5407,"mha":5408,"nic":5409,"pur":5410,"qlinear":5411,"rms":5412,"sandcastle":5413,"tun":5414,"vi":5415,"would":5416,"##fb":5417,"##fallback":5418,"##len":5419,"##like":5420,"##lier":5421,"##a5":5422,"##aunch":5423,"##got":5424,"##sparse":5425,"##schem":5426,"##_or":5427,"##_ro":5428,"##_options":5429,"##_class":5430,"##_acc":5431,"##_observers":5432,"##eel":5433,"##even":5434,"##cpy":5435,"##rup":5436,"##range":5437,"##ie":5438,"##ued":5439,"##1b":5440,"##dispatch":5441,"##ou":5442,"##world":5443,"##bos":5444,"##vant":5445,"##kg":5446,"##ks":5447,"##28":5448,"##72":5449,"##75":5450,"##512":5451,"##38":5452,"##ores":5453,"##erics":5454,"##inf":5455,"##onym":5456,"##aten":5457,"##atrix":5458,"##leading":5459,"forgot":5460,"##any":5461,"##annealing":5462,"rely":5463,"rewriter":5464,"##oding":5465,"##ethod":5466,"anonym":5467,"##adapt":5468,"##ilon":5469,"##icate":5470,"##icode":5471,"##ockl":5472,"dealloc":5473,"##lot":5474,"##udio":5475,"star":5476,"still":5477,"stoch":5478,"##ceed":5479,"exclud":5480,"##apods":5481,"cadd":5482,"attr":5483,"##imation":5484,"unre":5485,"unroll":5486,"unboxing":5487,"uniqu":5488,"uneven":5489,"unicode":5490,"use_cuda":5491,"quantile":5492,"##async":5493,"##istration":5494,"##ural":5495,"##poses":5496,"##external":5497,"prof":5498,"scop":5499,"scaff":5500,"trt":5501,"intra":5502,"()->":5503,"shell":5504,"shuffle":5505,"##umb":5506,"##ended":5507,"##parser":5508,"##ipes":5509,"isfinite":5510,"##_cross":5511,"##_close":5512,"operatorbase":5513,"##assign":5514,"codebase":5515,"pythonop":5516,"##_db":5517,"##_dis":5518,"set_":5519,"set_default":5520,"allclose":5521,"##ires":5522,"improves":5523,"##_fx":5524,"##_mac":5525,"##_matmul":5526,"seem":5527,"flush":5528,"multid":5529,"multivari":5530,"moduledict":5531,"##_bn":5532,"pref":5533,"precomp":5534,"##under":5535,"members":5536,"intermediate":5537,"subst":5538,"##pool1d":5539,"##debug":5540,"##depthwise":5541,"test_history":5542,"test_ddp":5543,"static_cast":5544,"memory_format":5545,"copysign":5546,"numa":5547,"scalar_type":5548,"benchmark_all":5549,"clang_format":5550,"skipif":5551,"registr":5552,"dispatchstub":5553,"comma":5554,"recomp":5555,"reading":5556,"ported":5557,"spaces":5558,"##ifiers":5559,"processes":5560,"##_window":5561,"##quantization":5562,"randint":5563,"##recated":5564,"thcud":5565,"thcstate":5566,"##_stream":5567,"assert_close":5568,"##ocket":5569,"##_rng":5570,"##ridge":5571,"installing":5572,"circular":5573,"binary_cross":5574,"swish":5575,"parameterlist":5576,"simplification":5577,"primit":5578,"packageexporter":5579,"##_parser":5580,"multiply":5581,"##interface":5582,"aliases":5583,"ordered":5584,"faq":5585,"refcounting":5586,"unsaf":5587,"casts":5588,"insertion":5589,"insertobservers":5590,"misleading":5591,"nvtx":5592,"nvfuser":5593,"##reduc":5594,"traceback":5595,"blocking":5596,"primspec":5597,"accessor":5598,"lengthst":5599,"scatter_add":5600,"vars":5601,"temporal":5602,"##opskernel":5603,"builtins":5604,"product":5605,"##keys":5606,"derived":5607,"count_include":5608,"##_meta":5609,"sparsenn":5610,"##_dispatcher":5611,"volumetricconvolution":5612,"polish":5613,"policy":5614,"vsx":5615,"destroy":5616,"##_worker":5617,"hashing":5618,"bucketize":5619,"flops":5620,"##_interface":5621,"adamw":5622,"visibility":5623,"lr_s":5624,"##generate":5625,"scalar_checks":5626,"##_reduction":5627,"unittests":5628,"cosineannealing":5629,"leaky_relu":5630,"gels":5631,"##_per_channel":5632,"giventensor":5633,"coalesced":5634,"segmentation":5635,"inconsist":5636,"grammar":5637,"isinf":5638,"datapipes":5639,"constraint":5640,"silence":5641,"potrs":5642,"kl_div":5643,"machines":5644,"slightly":5645,"freeze":5646,"deleted":5647,"reflection_pad":5648,"##common":5649,"restrict":5650,"intrinsic":5651,"functor":5652,"spatialconvolutionmm":5653,"##tools":5654,"ambiguous":5655,"mistake":5656,"abstract":5657,"phase":5658,"##ikely":5659,"todo":5660,"notimplementederror":5661,"grammatical":5662,"##where":5663,"##_scale":5664,"##_system":5665,"##intrins":5666,"publishing":5667,"borrowing":5668,"ibverbs":5669,"components":5670,"##added_sequence":5671,"aarch64":5672,"parametrization":5673,"##_linux":5674,"augment":5675,"##_openmp":5676,"halftensor":5677,"microbenchmark":5678,"driver":5679,"suffix":5680,"interfaces":5681,"##_coo_tensor":5682,"critical":5683,"ellipsis":5684,"fatal":5685,"mesh":5686,"caffe_enforce":5687,"individual":5688,"##withlogits":5689,"blackboxpredictor":5690,"repository":5691,"artifacts":5692,"bidire":5693,"cocoapods":5694,"##bosity":5695,"anonymous":5696,"##adaptive":5697,"##ocklist":5698,"stochastic":5699,"binary_cross_entropy":5700,"count_include_pad":5701,"\".":5702,"13":5703,"=>":5704,"__l":5705,"__cuda":5706,"_jit":5707,"_rendezvous":5708,"_intrins":5709,"away":5710,"bion":5711,"bert":5712,"bridge":5713,"cse":5714,"ez":5715,"emul":5716,"eps":5717,"epoch":5718,"fq":5719,"fct":5720,"gl":5721,"gated":5722,"har":5723,"hpp":5724,"ivalues":5725,"jav":5726,"lt":5727,"lgamma":5728,"mir":5729,"must":5730,"mnist":5731,"pure":5732,"pdist":5733,"qengine":5734,"sob":5735,"vision":5736,"wide":5737,"width":5738,"xenial":5739,"##front":5740,"##au":5741,"##a8":5742,"##after":5743,"##gy":5744,"##grid":5745,"##_2":5746,"##_us":5747,"##_is":5748,"##_cell":5749,"##_zero":5750,"##_array":5751,"##most":5752,"##m_ops":5753,"##eq":5754,"##ece":5755,"##ph":5756,"##p32":5757,"##clo":5758,"##cum":5759,"##cross":5760,"##rast":5761,"##tlen":5762,"##ios":5763,"##d4":5764,"##dated":5765,"##ount":5766,"##host":5767,"##66":5768,"##b0":5769,"##b7":5770,"##bgemm":5771,"##blobs":5772,"##block":5773,"##var":5774,"##49":5775,"##59":5776,"##only":5777,"##ater":5778,"##atile":5779,"##atio":5780,"ing":5781,"infin":5782,"##ingle":5783,"toc":5784,"##ddev":5785,"##aligned":5786,"##chain":5787,"add_relu":5788,"reinitial":5789,"##str":5790,"##stand":5791,"##util":5792,"##roadcast":5793,"th_index":5794,"test_s":5795,"##ocations":5796,"pyobject":5797,"conf":5798,"deal":5799,"defer":5800,"deep":5801,"##udo":5802,"differ":5803,"exhaustive":5804,"##olengine":5805,"##igpu":5806,"cudam":5807,"atol":5808,"encod":5809,"##ims":5810,"##imits":5811,"quantizing":5812,"##elpers":5813,"##pop":5814,"build_namedtensor":5815,"build_pytorch":5816,"what":5817,"##angle":5818,"##putils":5819,"##plate":5820,"##isk":5821,"##ising":5822,"##arding":5823,"scaling":5824,"erase":5825,"()/":5826,"type_as":5827,"##ubic":5828,"is_variable":5829,"##_core":5830,"##_cpp":5831,"##_coll":5832,"backport":5833,"outdated":5834,"##typed":5835,"##_dag":5836,"##_dtypes":5837,"convnet":5838,"conveni":5839,"##_similarity":5840,"gen_variable":5841,"graphexecutor":5842,"##_fe":5843,"##_fix":5844,"rede":5845,"##_mod":5846,"##_margin":5847,"multithread":5848,"batch_size":5849,"cmul":5850,"new_":5851,"newline":5852,"new_group":5853,"defaultbackend":5854,"reli":5855,"exports":5856,"gettype":5857,"get_device":5858,"##lexnet":5859,"subscript":5860,"init_process_group":5861,"##concat":5862,"valgrind":5863,"test_un":5864,"test_app":5865,"web":5866,"overwriting":5867,"index_add":5868,"index_fill":5869,"index_select":5870,"sparselinear":5871,"sparseadam":5872,"##eps":5873,"copyfrom":5874,"distributed_test":5875,"num_threads":5876,"maxun":5877,"transfer":5878,"creates":5879,"##_install":5880,"##filer":5881,"packing":5882,"pack_p":5883,"symmetric":5884,"ormqr":5885,"##tensorimpl":5886,"nccl2":5887,"##ifies":5888,"compilers":5889,"initializers":5890,"##_gloo":5891,"##_global":5892,"floats":5893,"nativefunctions":5894,"blocklist":5895,"threading":5896,"dependent":5897,"##_rref":5898,"##_hip":5899,"##_helpers":5900,"smart":5901,"appe":5902,"integr":5903,"integers":5904,"observ":5905,"simpler":5906,"##foreach":5907,"group_norm":5908,"irparser":5909,"register_pri":5910,"##traises":5911,"multiplication":5912,"namedtype":5913,"forwarding":5914,"managed":5915,"execute":5916,"matrices":5917,"##_var":5918,"smallvector":5919,"converted":5920,"randomness":5921,"randomsampler":5922,"offic":5923,"##fferenti":5924,"col2":5925,"column":5926,"syncs":5927,"performing":5928,"singular":5929,"fakefp16":5930,"points":5931,"specialized":5932,"miscell":5933,"##_normal":5934,"reports":5935,"requiring":5936,"##_exp":5937,"##_executor":5938,"ignoring":5939,"rrefs":5940,"sequences":5941,"pinverse":5942,"interned":5943,"scatter_":5944,"##flat":5945,"##_seed":5946,"decref":5947,"attributeerror":5948,"verbosity":5949,"adaptive_max":5950,"calibration":5951,"##istributions":5952,"owners":5953,"unique_ptr":5954,"async_exec":5955,"thtensormath":5956,"luat":5957,"##_all_workers":5958,"##qrf":5959,"csr":5960,"fbsync":5961,"fill_":5962,"avg_pool":5963,"invok":5964,"preparation":5965,"selu":5966,"dper2":5967,"replaces":5968,"infrast":5969,"latency":5970,"mismatches":5971,"mismatched":5972,"buckets":5973,"communicators":5974,"sending":5975,"##_interpreter":5976,"eagermode":5977,"pruner":5978,"locally":5979,"approach":5980,"diagonal":5981,"##libc":5982,"cholesky_solve":5983,"reordering":5984,"cosine_similarity":5985,"ctcloss":5986,"following":5987,"segment_reduce":5988,"trigon":5989,"geqrf":5990,"##regex":5991,"inconsistent":5992,"squash":5993,"32bit":5994,"slot":5995,"slogdet":5996,"pairwise":5997,"##_types_and":5998,"##_overlap":5999,"floor_divide":6000,"##_floating":6001,"resizenearest":6002,"identity":6003,"delegate":6004,"subclasses":6005,"machine":6006,"sigrid":6007,"##_internal_assert":6008,"##_running":6009,"dpm":6010,"entire":6011,"populate":6012,"pep8":6013,"instantiation":6014,"producer":6015,"invariants":6016,"mtml":6017,"leftright":6018,"safety":6019,"##multinomial":6020,"shardedtensor":6021,"architecture":6022,"unrolling":6023,"discovery":6024,"accidentally":6025,"##_serial_kernel":6026,"clip_grad_norm":6027,"deduplicate":6028,"##ransposed":6029,"cudacachingallocator":6030,"assertraises":6031,"hardcoded":6032,"_wait":6033,"extraneous":6034,"process_group_agent":6035,"eye":6036,"rmsprop":6037,"viol":6038,"##scheme":6039,"scaffolding":6040,"multidim":6041,"registrations":6042,"lr_scheduler":6043,"inconsistencies":6044,"bidirectional":6045,"bionic":6046,"sobolengine":6047,"##tleneck":6048,"th_index_base":6049,"convenience":6050,"##_margin_loss":6051,"pack_padded_sequence":6052,"register_prim_ops":6053,"miscellaneous":6054,"async_execution":6055,"infrastructure":6056,"\")":6057,"\"[":6058,"(+":6059,"):":6060,"*`":6061,"<>":6062,"]:":6063,"_p":6064,"_out":6065,"__constant":6066,"_foreach":6067,"bbox":6068,"cumul":6069,"dst":6070,"fwd":6071,"gt":6072,"gem":6073,"ganh":6074,"ist":6075,"jacobian":6076,"katex":6077,"lif":6078,"light":6079,"mob":6080,"past":6081,"pkg":6082,"qint":6083,"sd":6084,"sens":6085,"sol":6086,"spu":6087,"squeez":6088,"sdot":6089,"sites":6090,"tan":6091,"tmp":6092,"udf":6093,"you":6094,"##f9":6095,"##lack":6096,"##lass":6097,"##limit":6098,"##lgamma":6099,"##a7":6100,"##afer":6101,"##gory":6102,"##ground":6103,"##greg":6104,"##s_":6105,"##solve":6106,"##_rowwise":6107,"##ners":6108,"##nightly":6109,"##nms":6110,"##nmem":6111,"##mo":6112,"##mission":6113,"##c0":6114,"##cachingallocator":6115,"##run":6116,"##rite":6117,"##toc":6118,"##ied":6119,"##iod":6120,"##ield":6121,"##zip":6122,"##1e":6123,"##14":6124,"##dec":6125,"##olete":6126,"##ying":6127,"##hread":6128,"##xd":6129,"##62":6130,"##buffer":6131,"##2p":6132,"##24":6133,"##ering":6134,"##inv":6135,"##inity":6136,"##lector":6137,"##ingu":6138,"##arew":6139,"topo":6140,"tolist":6141,"tostring":6142,"##ede":6143,"##alth":6144,"##alcul":6145,"add_":6146,"rever":6147,"rework":6148,"##std":6149,"##stest":6150,"##uted":6151,"##rop":6152,"##ctest":6153,"##vec":6154,"##veld":6155,"##ody":6156,"thallocator":6157,"thputils":6158,"##semb":6159,"##ilation":6160,"##icubic":6161,"tested":6162,"test_n":6163,"##ategorical":6164,"deco":6165,"##rious":6166,"tensordot":6167,"##udf":6168,"diverg":6169,"torch_python":6170,"torch_warn":6171,"torch_internal_assert":6172,"exact":6173,"upper":6174,"chaining":6175,"cudacon":6176,"algo":6177,"at_error":6178,"##tering":6179,"##imd":6180,"unbind":6181,"unification":6182,"use_":6183,"use_c10":6184,"useful":6185,"use_system":6186,"##ases":6187,"cudaevent":6188,"cuda_nvcc":6189,"##uration":6190,"from_blob":6191,"compli":6192,"build_variables":6193,"##exec":6194,"##except":6195,"wheel":6196,"##plug":6197,"caffe2_api":6198,"scribe":6199,"##nnlowp":6200,"##_tuple":6201,"##_tidy":6202,"trilinear":6203,"erfc":6204,"pytorchstream":6205,"shuff":6206,"modes":6207,"is_complex":6208,"is_available":6209,"##_cor":6210,"##_csr":6211,"operatordef":6212,"backprop":6213,"outer":6214,"##_dra":6215,"##_sum":6216,"##_sampler":6217,"##_single":6218,"usable":6219,"as_tensor":6220,"##printer":6221,"argcheck":6222,"logits":6223,"allto":6224,"##mplates":6225,"##_fork":6226,"##_func":6227,"variance":6228,"autogpu":6229,"##_mkl":6230,"allows":6231,"allowlist":6232,"callstack":6233,"batch_first":6234,"tensorshape":6235,"##_bias":6236,"##_bucket":6237,"default_coll":6238,"output_size":6239,"get_all":6240,"getdevice":6241,"getattr":6242,"acqu":6243,"region":6244,"itself":6245,"libnccl":6246,"libcaffe2":6247,"rpc_async":6248,"subset":6249,"subprocess":6250,"init_method":6251,"test_utils":6252,"test_quantized":6253,"period":6254,"indexcopy":6255,"sparse_coo_tensor":6256,"model_helper":6257,"listconstruct":6258,"##_length":6259,"##_large":6260,"assum":6261,"missed":6262,"clang_tidy":6263,"leveld":6264,"packsegments":6265,"##lice":6266,"reciprocal":6267,"##achable":6268,"compiles":6269,"functionals":6270,"##quantdequant":6271,"##recv":6272,"##_pattern":6273,"immediate":6274,"immutable":6275,"imethod":6276,"thcs":6277,"attach":6278,"##_storage":6279,"splitwith":6280,"depending":6281,"##_hash":6282,"installs":6283,"obsolete":6284,"else":6285,"importer":6286,"structs":6287,"observed":6288,"constantpad":6289,"setuptools":6290,"consum":6291,"spatialclass":6292,"stateless":6293,"merged":6294,"##_dequant":6295,"writing":6296,"##ostic":6297,"symbolics":6298,"##_real":6299,"##ediction":6300,"##_count":6301,"compilationunit":6302,"fake_quantize":6303,"restructure":6304,"bumps":6305,"meas":6306,"toolchain":6307,"softmaxwithloss":6308,"##_true":6309,"cached":6310,"##ught":6311,"##ances":6312,"##ickle":6313,"##_to_":6314,"##_to_dense":6315,"generateproposals":6316,"libtorch_python":6317,"anything":6318,"templat":6319,"fastrnn":6320,"##withnms":6321,"accesses":6322,"launcher":6323,"##uffers":6324,"specifications":6325,"adaptivemaxpool":6326,"quantize_linear":6327,"quantize_per_tensor":6328,"calc":6329,"relevant":6330,"thrown":6331,"throwing":6332,"increment":6333,"##_compile":6334,"##_compiler":6335,"pt1":6336,"##indexing":6337,"thtensorapply":6338,"breaks":6339,"breakage":6340,"volatile":6341,"##_py3":6342,"assignments":6343,"incorrectly":6344,"concaten":6345,"lowered":6346,"filename":6347,"avg_pool3d":6348,"##container":6349,"good":6350,"##_thread":6351,"referenced":6352,"##_input_op":6353,"volumetricdilated":6354,"histc":6355,"detected":6356,"factories":6357,"health":6358,"samplemultinomial":6359,"boxes":6360,"boxing":6361,"boxwithnms":6362,"commands":6363,"enums":6364,"##ensortype":6365,"shaders":6366,"##_shuffle":6367,"##_shared":6368,"softshrink":6369,"logical_not":6370,"clearer":6371,"visible":6372,"everywhere":6373,"clipranges":6374,"##generic":6375,"emitting":6376,"branches":6377,"enhancements":6378,"##_convolution":6379,"cosineembeddingloss":6380,"bcecriterion":6381,"thpvariable":6382,"unpacking":6383,"requestcallback":6384,"shareexternal":6385,"zeros_like":6386,"prepacked":6387,"##register":6388,"grain":6389,"sugared":6390,"multilabelmarginloss":6391,"mvlgamma":6392,"##_printer":6393,"##zeros":6394,"##_multip":6395,"index_put_":6396,"destruction":6397,"revise":6398,"translate":6399,"accumulategrad":6400,"...)":6401,"btrisolve":6402,"earlier":6403,"zipfile":6404,"accurate":6405,"dataptrs":6406,"##manager":6407,"describ":6408,"category":6409,"silu":6410,"typedefault":6411,"##devices":6412,"corrections":6413,"conflicts":6414,"##ponse":6415,"cudaget":6416,"cudaguard":6417,"appropriately":6418,"ssarew":6419,"equival":6420,"continue":6421,"##_static_dispatch":6422,"mseloss":6423,"mistakes":6424,"##_xor":6425,"##templates":6426,"test_cpp":6427,"delay":6428,"abstraction":6429,"##ordered":6430,"rowwisesparseadagrad":6431,"retrieve":6432,"treat":6433,"##_differenti":6434,"nuke":6435,"##attribute":6436,"sparselengthsweightedsum":6437,"scheduled":6438,"schedulers":6439,"test_tensorexpr":6440,"##ometry":6441,"imageinputop":6442,"causes":6443,"test_dataloader":6444,"approximation":6445,"gracefully":6446,"azure":6447,"nicer":6448,"##_root":6449,"substit":6450,"benchmark_all_test":6451,"##_rng_state":6452,"##commonworld":6453,"_intrinsic":6454,"fctransposed":6455,"mirror":6456,"##_modules":6457,"col2im":6458,"##_running_stats":6459,"cumulative":6460,"spurious":6461,"reverting":6462,"decouple":6463,"use_c10_dispatcher":6464,"##plugin":6465,"alltoall":6466,"default_collate":6467,"leveldb":6468,"spatialclassnllcriterion":6469,"boxwithnmslimit":6470,"\"-":6471,"',":6472,"23":6473,"30":6474,"_n":6475,"_tensor":6476,"_utils":6477,"__call":6478,"`-":6479,"`@":6480,"aar":6481,"aff":6482,"alexnet":6483,"best":6484,"bicubic":6485,"cf":6486,"cv":6487,"c99":6488,"cnmem":6489,"date":6490,"eigh":6491,"esc":6492,"finfo":6493,"gh":6494,"gumb":6495,"glibc":6496,"hing":6497,"happ":6498,"having":6499,"ip":6500,"i0":6501,"kld":6502,"lack":6503,"liv":6504,"limits":6505,"m1":6506,"might":6507,"na":6508,"p2p":6509,"qadd":6510,"qparams":6511,"rpath":6512,"sat":6513,"sense":6514,"vc":6515,"vml":6516,"vdot":6517,"xml":6518,"yel":6519,"}{":6520,"##f0":6521,"##f5":6522,"##fused":6523,"##free":6524,"##lar":6525,"##lenet":6526,"##layer":6527,"##a6":6528,"##aim":6529,"##gram":6530,"##sl":6531,"##sing":6532,"##simpl":6533,"##scalar":6534,"##_pack":6535,"##_object":6536,"##_reader":6537,"##_access":6538,"##_record":6539,"##_generic":6540,"##nv":6541,"##m1":6542,"##matrix":6543,"##e2":6544,"##pass":6545,"##com":6546,"##rp":6547,"##rng":6548,"##ture":6549,"##tml":6550,"##ipe":6551,"##irect":6552,"##zen":6553,"##des":6554,"##oub":6555,"##hs":6556,"##warning":6557,"##x1":6558,"##b4":6559,"##bench":6560,"##brid":6561,"##qparams":6562,"##v2":6563,"##96":6564,"##47":6565,"##43":6566,"##5e":6567,"##3c":6568,"##ered":6569,"##atomic":6570,"##env":6571,"##enot":6572,"##enerator":6573,"##ese":6574,"invert":6575,"##leter":6576,"forget":6577,"tog":6578,"token":6579,"to_sparse":6580,"to_backend":6581,"##edence":6582,"##alias":6583,"##change":6584,"##cholesky":6585,"reb":6586,"rect":6587,"reformat":6588,"reverse":6589,"revision":6590,"##stdc":6591,"##uts":6592,"##utes":6593,"thing":6594,"angle":6595,"anomaly":6596,"##aced":6597,"##aclass":6598,"##reate":6599,"##replication":6600,"##secut":6601,"##adow":6602,"##ilenet":6603,"##unter":6604,"##unboxed":6605,"test2":6606,"testtorch":6607,"pypi":6608,"pycaffe2":6609,"tensor_split":6610,"stale":6611,"studio":6612,"torch_api":6613,"torch_library":6614,"exe":6615,"excess":6616,"##aper":6617,"##ithful":6618,"##olute":6619,"cudart":6620,"##ecall":6621,"alert":6622,"algebra":6623,"##ersal":6624,"at_for":6625,"unsh":6626,"unpooling":6627,"use_distributed":6628,"use_static_dispatch":6629,"cuda10":6630,"cuda_version":6631,"##istance":6632,"##ildcard":6633,"##elu":6634,"##elta":6635,"::*":6636,"##pow":6637,"##poolop":6638,"build_all":6639,"build_env":6640,"build_android":6641,"build_aten":6642,"build_libtorch":6643,"##extra":6644,"##expect":6645,"##ards":6646,"caffe2_benchmark":6647,"caffe2_use":6648,"##_table":6649,"##_tbb":6650,"erron":6651,"intarray":6652,"pytorch_linux":6653,"shm":6654,"shader":6655,"shallow":6656,"shift":6657,"##endencies":6658,"##lowfin":6659,"is_tensor":6660,"is_contiguous":6661,"backed":6662,"##_dnnlowp":6663,"convention":6664,"convrelu":6665,"##obias":6666,"##pret":6667,"beef":6668,"log2":6669,"sets":6670,"set_grad":6671,"cpu_serial_kernel":6672,"##_fallback":6673,"##_files":6674,"reser":6675,"response":6676,"##_ms":6677,"##_man":6678,"##_main":6679,"coming":6680,"##_ne":6681,"##_nearest":6682,"##factory":6683,"non_blocking":6684,"contbuild":6685,"contiguity":6686,"distribute":6687,"cmake_":6688,"autogradmeta":6689,"memcpy":6690,"output_padding":6691,"##thog":6692,"cleaning":6693,"cleaned":6694,"getter":6695,"rocblas":6696,"kernel_size":6697,"regarding":6698,"libth":6699,"libsh":6700,"libaten":6701,"libstdc":6702,"##ailability":6703,"init_rpc":6704,"device_id":6705,"deviceoption":6706,"##convert":6707,"##dequantize":6708,"##encoder":6709,"cppd":6710,"test_ops":6711,"test_quantize":6712,"overri":6713,"indextensor":6714,"size_t":6715,"typofix":6716,"##leted":6717,"##_l1":6718,"##_limit":6719,"##_launch":6720,"boot":6721,"max_un":6722,"backendselect":6723,"##_inline":6724,"##_invalid":6725,"done":6726,"commits":6727,"avoiding":6728,"recog":6729,"recomm":6730,"orthog":6731,"no_cuda":6732,"reducel":6733,"ncclcomm":6734,"binomial":6735,"loaded":6736,"##_wait":6737,"printout":6738,"##_glow":6739,"plain":6740,"##recurs":6741,"thcstorage":6742,"nativefunction":6743,"##_rnn":6744,"##_raw":6745,"##cost":6746,"##coptions":6747,"ddp_comm":6748,"##iterabledataset":6749,"migration":6750,"##clear":6751,"expm1":6752,"##uck":6753,"aggreg":6754,"zero_dim":6755,"constantfill":6756,"setup_helpers":6757,"conserv":6758,"customized":6759,"grouped":6760,"irsimpl":6761,"parallelization":6762,"transformations":6763,"##proc":6764,"faithful":6765,"writes":6766,"channelshuffle":6767,"computed":6768,"actual":6769,"##qualified":6770,"should_run":6771,"##onehot":6772,"##_rem":6773,"##_counter":6774,"math_cpu":6775,"divid":6776,"normalized":6777,"fakequant":6778,"insert_quant":6779,"insertquantdequant":6780,"raised":6781,"raising":6782,"reported":6783,"elementsize":6784,"losses":6785,"striding":6786,"separately":6787,"overloaded":6788,"##_type_h":6789,"edits":6790,"find_unused":6791,"gcc5":6792,"duplication":6793,"##_to_num":6794,"common_distributed":6795,"iterable":6796,"iterabledataset":6797,"##compat":6798,"##compare":6799,"presence":6800,"accepts":6801,"resize_dim":6802,"templated":6803,"analyt":6804,"fused8bitrowwise":6805,"##_search":6806,"##unner":6807,"##parameter":6808,"baseline":6809,"##_unique":6810,"magic":6811,"precedence":6812,"incremental":6813,"engines":6814,"##istribution":6815,"behaviour":6816,"##logy":6817,"globalinit":6818,"##_forward":6819,"agents":6820,"breakpad":6821,"distributiontemplates":6822,"directories":6823,"currently":6824,"piece":6825,"nan_to_num":6826,"test_distributions":6827,"##_with_indices":6828,"invocation":6829,"corrup":6830,"existence":6831,"clamp_min":6832,"reduced":6833,"goog":6834,"determination":6835,"sinc":6836,"timed":6837,"##batched":6838,"fbsourcego":6839,"absolute":6840,"counts":6841,"##_equal":6842,"externalcall":6843,"##_metadata":6844,"impls":6845,"compare_set":6846,"vs20":6847,"underly":6848,"factorization":6849,"descriptive":6850,"archs":6851,"infra":6852,"##legacy":6853,"enumerate":6854,"hashstore":6855,"grucell":6856,"higher":6857,"##000":6858,"averagepool":6859,"checkpointing":6860,"maxpool3d":6861,"maxpool1d":6862,"extracted":6863,"segfaults":6864,"##_extensions":6865,"##_dirs":6866,"convtranspose3d":6867,"prune":6868,"##_prob":6869,"##_qconfig":6870,"##_job":6871,"dirty":6872,"savedvariable":6873,"minimize":6874,"ctc_loss":6875,"seeding":6876,"manual_seed":6877,"lowerings":6878,"persons":6879,"alph":6880,"weightedsum":6881,"##oglejava":6882,"marginrank":6883,"term":6884,"terms":6885,"central":6886,"##_attr":6887,"processgroupnccltest":6888,"##_batchnorm":6889,"explaining":6890,"deserialize":6891,"typechecks":6892,"##_deprecated":6893,"translation":6894,"exponent":6895,"snap":6896,"dataptr":6897,"previously":6898,"refinement":6899,"##ingspec":6900,"preprocessor":6901,"finished":6902,"googlejava":6903,"gcd":6904,"##nected":6905,"slash":6906,"##lrn":6907,"##itten":6908,"smooth_l1":6909,"deletion":6910,"conditionals":6911,"nllloss2d":6912,"inheritance":6913,"ssa":6914,"##_fusion":6915,"##arguments":6916,"restriction":6917,"ceil_mode":6918,"##accessor":6919,"##_nonzero":6920,"continu":6921,"##toolset":6922,"world_size":6923,"##_post":6924,"##_power":6925,"concretemodule":6926,"predict":6927,"plugin":6928,"terminate":6929,"greater":6930,"indentation":6931,"##_resize":6932,"##_executable":6933,"highlighting":6934,"rtti":6935,"##_alias":6936,"##inferencefunction":6937,"grammatically":6938,"pixelshuffle":6939,"effects":6940,"migrating":6941,"rowwisesparseadam":6942,"lambdas":6943,"##fakequantize":6944,"ownerrref":6945,"throughputbenchmark":6946,"develo":6947,"develop":6948,"choose":6949,"warmup":6950,"subtree":6951,"manipulation":6952,"tripletmarginloss":6953,"enforc":6954,"##_matching":6955,"regenerate":6956,"spatialdilatedconvolution":6957,"smoothl1loss":6958,"gfx":6959,"hierarchy":6960,"aliasanalysiskind":6961,"speed_benchmark_torch":6962,"sourcerange":6963,"heuristic":6964,"unreachable":6965,"shellcheck":6966,"##_macos":6967,"prefetch":6968,"recompute":6969,"primitive":6970,"meshgrid":6971,"emulation":6972,"epsilon":6973,"javad":6974,"encoding":6975,"build_pytorch_libs":6976,"gen_variable_type":6977,"new_zeros":6978,"trigonometric":6979,"assertraisesregex":6980,"_wait_all_workers":6981,"__constants__":6982,"mobilenet":6983,"solves":6984,"cudacontext":6985,"compliant":6986,"measure":6987,"ssarewrite":6988,"__call__":6989,"escape":6990,"gumbel":6991,"hinge":6992,"kldiv":6993,"liveness":6994,"yellowfin":6995,"##rngstate":6996,"##secutive":6997,"at_forall":6998,"erroneous":6999,"intarrayref":7000,"libshm":7001,"recogn":7002,"##recursive":7003,"conservative":7004,"irsimplifier":7005,"insert_quant_dequant":7006,"fbsourcegooglejava":7007,"marginranking":7008,"googlejavaformat":7009,"fbsourcegooglejavaformatlinter":7010,"${":7011,"(\"":7012,"(*":7013,"))":7014,"*.":7015,".\"":7016,"256":7017,"_m":7018,"_un":7019,"_load":7020,"_torch":7021,"_script":7022,"_cat":7023,"__dir":7024,"bar":7025,"ban":7026,"band":7027,"cit":7028,"cif":7029,"celu":7030,"dra":7031,"dtor":7032,"dangling":7033,"est":7034,"got":7035,"hs":7036,"hug":7037,"held":7038,"holder":7039,"kn":7040,"kron":7041,"mu":7042,"mil":7043,"mmap":7044,"nlu":7045,"oth":7046,"omit":7047,"overs":7048,"pb":7049,"piv":7050,"qscheme":7051,"rer":7052,"rfactor":7053,"ratio":7054,"sg":7055,"sur":7056,"tb":7057,"tip":7058,"tight":7059,"v3":7060,"van":7061,"wildcard":7062,"xray":7063,"yield":7064,"##f8":7065,"##fro":7066,"##laster":7067,"##a3":7068,"##action":7069,"##glo":7070,"##gath":7071,"##sed":7072,"##sop":7073,"##sub":7074,"##supported":7075,"##_1":7076,"##_4":7077,"##_an":7078,"##_val":7079,"##_plan":7080,"##_packed":7081,"##_image":7082,"##nable":7083,"##nance":7084,"##next":7085,"##nection":7086,"##mas":7087,"##ek":7088,"##empty":7089,"##elements":7090,"##c6":7091,"##c7":7092,"##cent":7093,"##cud":7094,"##cudnn":7095,"##collect":7096,"##categorical":7097,"##rand":7098,"##rusive_ptr":7099,"##tent":7100,"##top":7101,"##ii":7102,"##iency":7103,"##uilt":7104,"##d2":7105,"##det":7106,"##dynamic":7107,"##dog":7108,"##diff":7109,"##ox":7110,"##yaml":7111,"##hy":7112,"##han":7113,"##high":7114,"##b6":7115,"##b8":7116,"##broadcast":7117,"##qparam":7118,"##vmap":7119,"##2n":7120,"##23":7121,"##orb":7122,"##orith":7123,"##ereg":7124,"##onum":7125,"##atenormal":7126,"##en__":7127,"inacc":7128,"##aring":7129,"forb":7130,"##andd":7131,"toward":7132,"totensor":7133,"toget":7134,"toivalue":7135,"##alr":7136,"##alance":7137,"##already":7138,"add_h":7139,"add_scalar":7140,"rein":7141,"reas":7142,"rewriting":7143,"##stats":7144,"##uting":7145,"##mpool":7146,"##estamp":7147,"##estroy":7148,"th_api":7149,"##acity":7150,"##entry":7151,"##adelta":7152,"##icon":7153,"##icol":7154,"opens":7155,"test1":7156,"testnn":7157,"test_nccl":7158,"test_namedtensor":7159,"##orted":7160,"##upsampling":7161,"##izetensor":7162,"##pep":7163,"##pext":7164,"pyrref":7165,"pyyaml":7166,"##amm":7167,"##amd":7168,"##amily":7169,"conform":7170,"confus":7171,"connection":7172,"decode":7173,"##abil":7174,"tensorflow":7175,"tensorutils":7176,"tensorlib":7177,"stray":7178,"##agers":7179,"torchconfig":7180,"torch_sh":7181,"remap":7182,"##acket":7183,"excl":7184,"exposed":7185,"##igrid":7186,"cudade":7187,"##otest":7188,"atend":7189,"union":7190,"unordered":7191,"use_cudnn":7192,"use_gloo":7193,"function_wrapper":7194,"cuda_home":7195,"##url":7196,"##idel":7197,"##existent":7198,"##exception":7199,"why":7200,"whole":7201,"##ults":7202,"onnx_aten":7203,"make_variable":7204,"##isf":7205,"##opk":7206,"scan":7207,"scub":7208,"scales":7209,"trunk":7210,"pytorch_j":7211,"client":7212,"party":7213,"modifier":7214,"atenop":7215,"is_test":7216,"iscontiguous":7217,"codepath":7218,"##_dig":7219,"##_docs":7220,"conv_op":7221,"convpoolop":7222,"##_src":7223,"disc":7224,"notification":7225,"notice":7226,"nothing":7227,"usr":7228,"asci":7229,"gen_python":7230,"logadd":7231,"log_normal":7232,"setter":7233,"set_names":7234,"set_num_threads":7235,"set_rng_state":7236,"all_reduce":7237,"all_gather":7238,"distkl":7239,"distingu":7240,"runnable":7241,"prediction":7242,"##_fun":7243,"##_fused":7244,"fxdiv":7245,"##eader":7246,"resizes":7247,"resizing":7248,"resolver":7249,"resnext":7250,"redes":7251,"redis":7252,"redux":7253,"redispatch":7254,"##_mem":7255,"##_math":7256,"seper":7257,"dataclass":7258,"gradinput":7259,"grad_output":7260,"gradoutput":7261,"indicate":7262,"call_raw":7263,"c10_cuda":7264,"batchgather":7265,"cmd":7266,"newlines":7267,"new_empty":7268,"cmake3":7269,"interest":7270,"intermit":7271,"##throw":7272,"get_default":7273,"getargument":7274,"getnum":7275,"get_attr":7276,"##ivity":7277,"rocks":7278,"libuv":7279,"subtype":7280,"subtra":7281,"deviceindex":7282,"device_guard":7283,"##default":7284,"test_st":7285,"test_rpc":7286,"weird":7287,"overwrite":7288,"sparse_to_dense":7289,"##oketest":7290,"static_runtime":7291,"num_workers":7292,"scalar_tensor":7293,"maxpooling":7294,"adap":7295,"adadelta":7296,"formats":7297,"##ite_interpreter":7298,"crema":7299,"cudnnf":7300,"teach":7301,"##_inplace":7302,"##_inverse":7303,"fusing":7304,"fusions":7305,"dispatching":7306,"##maxpool2d":7307,"data_workers":7308,"##finition":7309,"recording":7310,"##ll_loss":7311,"ports":7312,"ord":7313,"no_":7314,"##tensors":7315,"reduce_range":7316,"reducefront":7317,"handled":7318,"bincount":7319,"##normal":7320,"##_wh":7321,"##_win":7322,"##_width":7323,"embed":7324,"##quantizer":7325,"##wiselinear":7326,"mklmemory":7327,"##keep":7328,"float2":7329,"float32":7330,"##_pass":7331,"thccachingallocator":7332,"requested":7333,"##_stack":7334,"##_strides":7335,"##casting":7336,"rnn_cell":7337,"serializer":7338,"dependence":7339,"##coverage":7340,"##_head":7341,"##ensional":7342,"bash":7343,"circu":7344,"runtimeerror":7345,"appl":7346,"conditions":7347,"important":7348,"inspect":7349,"##atible":7350,"optionals":7351,"valueerror":7352,"protect":7353,"zero_grad":7354,"##minmax":7355,"irprinter":7356,"doubles":7357,"spatialfullconvolution":7358,"spatialdepthwise":7359,"##_depthwise":7360,"writ":7361,"##shot":7362,"computel":7363,"##errors":7364,"sumop":7365,"sumelements":7366,"trim":7367,"triage":7368,"shouldn":7369,"syncbn":7370,"##irection":7371,"image_input_op":7372,"normal_":7373,"catarray":7374,"inserting":7375,"insert_observer":7376,"insert_observers":7377,"##algorith":7378,"restoring":7379,"batchnorm2d":7380,"bumping":7381,"##_except":7382,"workspaces":7383,"processgroupglo":7384,"overloading":7385,"qui":7386,"quote":7387,"##_tracing":7388,"edges":7389,"expandas":7390,"rrefcontext":7391,"saveop":7392,"thnn_conv":7393,"accepting":7394,"fastpath":7395,"##withhigh":7396,"globally":7397,"levels":7398,"consistently":7399,"clarification":7400,"##maplrn":7401,"decoder":7402,"##parameters":7403,"masked_copy":7404,"extends":7405,"extended":7406,"##_unboxed":7407,"leaks":7408,"applying":7409,"##_compute":7410,"ignore_index":7411,"generators":7412,"eigval":7413,"perfkernels":7414,"breakup":7415,"matrix_rank":7416,"lu_unpack":7417,"##_all_types_and":7418,"expecttest":7419,"looking":7420,"##erived":7421,"enforcement":7422,"##_with_log":7423,"invoke":7424,"invocations":7425,"modifying":7426,"generalized":7427,"upsample_nearest":7428,"timestamp":7429,"avx512":7430,"wait_all":7431,"absorb":7432,"##_set_to":7433,"##_eager":7434,"##ivescript":7435,"##ironment":7436,"pipelines":7437,"##_once":7438,"sliceop":7439,"bracket":7440,"sequencemask":7441,"downgrad":7442,"poll":7443,"recursivescript":7444,"##_parameter":7445,"descriptions":7446,"environments":7447,"archive":7448,"folders":7449,"hypothesis_test":7450,"forked":7451,"track_running_stats":7452,"##_workflow":7453,"later":7454,"alignment":7455,"align_to":7456,"align_cor":7457,"##divcriterion":7458,"logical_xor":7459,"dumping":7460,"pad_packed":7461,"##inputs":7462,"tagged":7463,"srcs":7464,"##_extension":7465,"##xxx":7466,"devtoolset":7467,"positional":7468,"movedim":7469,"semicol":7470,"thctensormath":7471,"configurations":7472,"grid_sampler":7473,"ranks":7474,"cholesky_inverse":7475,"amount":7476,"instance_norm":7477,"2019":7478,"2017":7479,"limitations":7480,"##_qat":7481,"permutation":7482,"bcewithlogits":7483,"dirs":7484,"##urces":7485,"##_average":7486,"profiled":7487,"minimal":7488,"lengthsrange":7489,"filtering":7490,"problematic":7491,"capacity":7492,"shortcut":7493,"##ramming":7494,"datasets":7495,"followup":7496,"##lopen":7497,"http":7498,"ones_like":7499,"##_batch_norm":7500,"moments":7501,"explan":7502,"expression":7503,"closer":7504,"##_intrusive_ptr":7505,"downloading":7506,"slots":7507,"),(":7508,"pairs":7509,"sanitize":7510,"plan_executor":7511,"tolerances":7512,"##outputsize":7513,"preprocessing":7514,"feedback":7515,"descending":7516,"describe":7517,"tutorials":7518,"_six":7519,"fetching":7520,"##devicetype":7521,"__getstate__":7522,"regularizer":7523,"bottleneck":7524,"criteriontest":7525,"uint8_t":7526,"cudagenerator":7527,"program":7528,"##_common":7529,"retries":7530,"autocasting":7531,"spectral_norm":7532,"l1cost":7533,"tileop":7534,"decompose":7535,"##predictornet":7536,"momentumsgd":7537,"funct":7538,"instantiate":7539,"adaptive_avg_pool":7540,"ambiguity":7541,"ptrdiff":7542,"##_xenial":7543,"collap":7544,"collision":7545,"##_results":7546,"##properties":7547,"##_request":7548,"##_requires":7549,"cycle":7550,"dagnet":7551,"routine":7552,"##_kineto":7553,"chain_matmul":7554,"at_parallel_openmp":7555,"ndk":7556,"stmts":7557,"##_handling":7558,"protocol":7559,"architectures":7560,"dist_autograd_test":7561,"unrolled":7562,"accidental":7563,"##_failure":7564,"cuda_tensor_apply3":7565,"comprehensive":7566,"##_decay":7567,"replication_pad":7568,"at_dispatch_all_types_and":7569,"is_signed":7570,"beginning":7571,"maintain":7572,"/*.":7573,"frozen":7574,"ensuring":7575,"##_custom_config":7576,"##_registration":7577,"accelerate":7578,"##_spawn":7579,"acosh":7580,"quotes":7581,"cyclic":7582,"curand":7583,"tuning":7584,"deallocation":7585,"starting":7586,"prof_dag":7587,"scopes":7588,"##_disable":7589,"set_default_dtype":7590,"skipifn":7591,"cosineannealinglr":7592,"__len__":7593,"##_array_interface":7594,"##closure":7595,"##crossentropy":7596,"##_features":7597,"integrated":7598,"multidimensional":7599,"##lacklist":7600,"topological":7601,"pytorchstreamreader":7602,"acquire":7603,"immediately":7604,"shareexternalpointer":7605,"##_differentiable":7606,"##_root_dir":7607,"affinity":7608,"naive":7609,"##nvrtc":7610,"##replicationpadding":7611,"excessive":7612,"##expected":7613,"cppdocs":7614,"orthogonal":7615,"ddp_comm_hooks":7616,"underlying":7617,"snapshot":7618,"concretemoduletype":7619,"kldivloss":7620,"marginrankingloss":7621,"__dir__":7622,"ciflow":7623,"others":7624,"pivot":7625,"tighten":7626,"##lasterror":7627,"inaccur":7628,"together":7629,"##igridhash":7630,"scuba":7631,"pytorch_jni":7632,"ascii":7633,"gen_python_functions":7634,"logaddexp":7635,"distkldivcriterion":7636,"distinguish":7637,"dataclasses":7638,"intermittent":7639,"rocksdb":7640,"cremainder":7641,"spatialdepthwiseconvolution":7642,"processgroupglootest":7643,"##withhighlight":7644,"##_with_logits":7645,"align_corners":7646,"pad_packed_sequence":7647,"semicolon":7648,"lengthsrangefill":7649,"ptrdiff_t":7650,"*,":7651,"*)":7652,"**":7653,"..":7654,"/.":7655,"//":7656,"01":7657,"21":7658,"28":7659,"40":7660,"4d":7661,"8bit":7662,">>":7663,"]]":7664,"_re":7665,"__n":7666,"_sh":7667,"_conv":7668,"__torch":7669,"_apply":7670,"__all":7671,"_assert":7672,"__assert":7673,"_aligned":7674,"_flat":7675,"_dequantize":7676,"ao":7677,"amax":7678,"bm":7679,"bat":7680,"bulk":7681,"bwd":7682,"clob":7683,"cred":7684,"care":7685,"cdiv":7686,"crop":7687,"dy":7688,"dere":7689,"dunder":7690,"duration":7691,"dlopen":7692,"ec":7693,"eith":7694,"eintr":7695,"fd":7696,"fmax":7697,"fma":7698,"facing":7699,"gold":7700,"guts":7701,"hon":7702,"han":7703,"home":7704,"hcc":7705,"jet":7706,"kick":7707,"l0":7708,"lex":7709,"lars":7710,"likely":7711,"mav":7712,"nod":7713,"nobias":7714,"pending":7715,"plot":7716,"paper":7717,"qparam":7718,"qembedding":7719,"rad":7720,"ranges":7721,"rshift":7722,"sfin":7723,"six":7724,"solution":7725,"sampl":7726,"samples":7727,"socket":7728,"sudo":7729,"safer":7730,"tq":7731,"tk":7732,"til":7733,"tindex":7734,"tts":7735,"tabs":7736,"vary":7737,"wall":7738,"wno":7739,"wipe":7740,"xxx":7741,"zoo":7742,"##fs":7743,"##f2":7744,"##f7":7745,"##func":7746,"##fractional":7747,"##lab":7748,"##lce":7749,"##lers":7750,"##last":7751,"##lint":7752,"##a1":7753,"##gers":7754,"##gure":7755,"##sd":7756,"##schema":7757,"##sistency":7758,"##_z":7759,"##_ab":7760,"##_pt":7761,"##_cl":7762,"##_pos":7763,"##_valid":7764,"##_optim":7765,"##_iss":7766,"##_values":7767,"##_lookup":7768,"##_analysis":7769,"##_update":7770,"##_loop":7771,"##_assign":7772,"##_url":7773,"##m_man":7774,"##e6":7775,"##efined":7776,"##por":7777,"##cg":7778,"##rs":7779,"##rd":7780,"##ratch":7781,"##rument":7782,"##ton":7783,"##task":7784,"##iation":7785,"##ua":7786,"##uator":7787,"##uide":7788,"##01":7789,"##dn":7790,"##dm":7791,"##d5":7792,"##dire":7793,"##oir":7794,"##ogen":7795,"##ycle":7796,"##hints":7797,"##hapes":7798,"##window":7799,"##ware":7800,"##warn":7801,"##width":7802,"##wised":7803,"##warm":7804,"##xor":7805,"##61":7806,"##654":7807,"##bias":7808,"##bilinear":7809,"##viz":7810,"##kip":7811,"##kthvalue":7812,"##97":7813,"##4d":7814,"##73":7815,"##8f":7816,"##5d":7817,"##57":7818,"##53":7819,"##ji":7820,"##join":7821,"##3x3":7822,"##orview":7823,"##oreturn":7824,"##orpor":7825,"##erg":7826,"##erov":7827,"##inned":7828,"##once":7829,"##atensor":7830,"##atmap":7831,"##esum":7832,"##esstest":7833,"##level":7834,"##arter":7835,"##ane":7836,"to_h":7837,"to_dense":7838,"figure":7839,"rece":7840,"reprod":7841,"rethrow":7842,"fixture":7843,"##utex":7844,"##ros":7845,"##cth":7846,"##ctiv":7847,"##oded":7848,"##odiff":7849,"##estig":7850,"##eta":7851,"thri":7852,"th_tensor_apply":7853,"thgenerator":7854,"thgenerate":7855,"these":7856,"##rew":7857,"##seed":7858,"##sequ":7859,"##adropout":7860,"##ili":7861,"##ilox":7862,"##unpooling":7863,"opa":7864,"opbench":7865,"test_backward":7866,"testautograd":7867,"test_num":7868,"testapp":7869,"test_backend":7870,"online":7871,"onto":7872,"pyc":7873,"pyre":7874,"dequeue":7875,"deleter":7876,"tensorbase":7877,"tensorinferencefunction":7878,"ste":7879,"strate":7880,"stored":7881,"stddev":7882,"##agnet":7883,"##odevice":7884,"torch_cpu":7885,"exceed":7886,"pytext":7887,"##econ":7888,"##ecomp":7889,"caught":7890,"alive":7891,"atanh":7892,"##rome":7893,"enc":7894,"enough":7895,"##imal":7896,"unc":7897,"unmatch":7898,"unimplemented":7899,"uncond":7900,"use_aten":7901,"use_rocm":7902,"quantfusion":7903,"##ession":7904,"##asp":7905,"cuda_kernel":7906,"cudahost":7907,"##urity":7908,"##ides":7909,"build_test":7910,"build_split":7911,"##andler":7912,"##export":7913,"##izeas":7914,"##omics":7915,"propos":7916,"##vernance":7917,"make_unique":7918,"##isc":7919,"##opies":7920,"caffe2_gpu":7921,"scratch":7922,"##ialize":7923,"tran":7924,"trtrs":7925,"())":7926,"shim":7927,"ship":7928,"shrink":7929,"sheb":7930,"aren":7931,"##clone":7932,"##claim":7933,"##ubgraph":7934,"##pare":7935,"##ippet":7936,"modul":7937,"aten_op":7938,"is_sparse":7939,"is_floating":7940,"is_set_to":7941,"##_col":7942,"##_com":7943,"##_callback":7944,"##_cxx":7945,"operator_schema":7946,"operatorentry":7947,"nnq":7948,"python_print":7949,"##_doc":7950,"##_dot":7951,"##_diff":7952,"##_dropout":7953,"convnd":7954,"##_s3":7955,"##_same":7956,"##_save":7957,"##_sgd":7958,"##_simple":7959,"##_spec":7960,"##_schedul":7961,"discu":7962,"notation":7963,"notify":7964,"usability":7965,"assemb":7966,"##amegpu":7967,"##ary_op":7968,"instability":7969,"instrument":7970,"logcum":7971,"log_prob":7972,"logdet":7973,"lognormal":7974,"##ileop":7975,"set_device":7976,"set_data":7977,"set_sizes":7978,"##ired":7979,"distutils":7980,"distautograd":7981,"runner":7982,"cpuid":7983,"cpu_tensor_apply":7984,"##ferenced":7985,"##101":7986,"##_fr":7987,"##_free":7988,"##_false":7989,"##_fp32":7990,"worknccl":7991,"autogen":7992,"autoformat":7993,"residual":7994,"##pyobject":7995,"##pyobj":7996,"sections":7997,"##_null":7998,"##_nll_loss":7999,"##ynchron":8000,"grad_mode":8001,"generates":8002,"##pping":8003,"allowed":8004,"indirection":8005,"bypass":8006,"multigpu":8007,"nonlinear":8008,"nonexistent":8009,"callfunction":8010,"callmethod":8011,"callgrind":8012,"c10_mobile":8013,"c10_deprecated":8014,"contents":8015,"scripted":8016,"cmath":8017,"handlers":8018,"availability":8019,"##_based":8020,"##_buffers":8021,"version_counter":8022,"##tran":8023,"##track":8024,"##traces":8025,"++.":8026,"new_tensor":8027,"newcriterion":8028,"newcontiguous":8029,"cmake_prefix":8030,"autogradzero":8031,"preview":8032,"##ertensor":8033,"interop":8034,"interval":8035,"interpret":8036,"documents":8037,"##through":8038,"##threads":8039,"getn":8040,"dimtype":8041,"minutes":8042,"##placement":8043,"libc":8044,"##found":8045,"##pool3d":8046,"##consum":8047,"##encer":8048,"test_q":8049,"test_in":8050,"test_all":8051,"test_py":8052,"test_stream":8053,"overrid":8054,"##oscalar":8055,"perchannel":8056,"percent":8057,"indexed":8058,"indexlinear":8059,"indexhash":8060,"##typeproperties":8061,"sparselookup":8062,"modelhelper":8063,"class_":8064,"gpu_kernel":8065,"listunpack":8066,"memoryformat":8067,"memoryplan":8068,"distributed_c10d":8069,"variableimpl":8070,"variableversion":8071,"##ftmarginloss":8072,"##_lay":8073,"##_location":8074,"##_lua":8075,"max_pool3d":8076,"clang9":8077,"##filing":8078,"##maxunpooling":8079,"pack_sequence":8080,"##finitions":8081,"filecheck":8082,"##erializer":8083,"sym":8084,"spacing":8085,"##extension":8086,"noq":8087,"no_batch":8088,"reduceop":8089,"reduceops":8090,"reduce_scatter":8091,"nccl_async":8092,"norms":8093,"##timeout":8094,"correcting":8095,"namescope":8096,"processor":8097,"processors":8098,"embedd":8099,"##_grid":8100,"##_guide":8101,"empty_strided":8102,"rand_like":8103,"floatto":8104,"genericize":8105,"thc_api":8106,"##_stat":8107,"assertnot":8108,"##criptor":8109,"splitter":8110,"##_ranges":8111,"netbase":8112,"net_printer":8113,"##_hist":8114,"##_html":8115,"##iterdatapipe":8116,"##_tensorpipe":8117,"##_tensor_type":8118,"##_tensor_metadata":8119,"smi":8120,"smarter":8121,"layer_model":8122,"multiprocess":8123,"cirlce":8124,"application":8125,"neural":8126,"deletekey":8127,"exp2":8128,"binary_macos":8129,"imported":8130,"##illa":8131,"numba":8132,"wrapdim":8133,"createcommonworld":8134,"broadcasts":8135,"broadcast_coalesced":8136,"swa":8137,"constantof":8138,"##ordiv":8139,"incorpor":8140,"setup_caffe2":8141,"register_buffer":8142,"dynamically":8143,"dynamic_cast":8144,"parallel_apply":8145,"##ronplate":8146,"multipl":8147,"multi_dot":8148,"transformedd":8149,"spatialadaptive":8150,"vector_norm":8151,"stateful":8152,"manif":8153,"managers":8154,"tensorpipeagent":8155,"tensorpipe_agent":8156,"##_consecutive":8157,"##_consistency":8158,"##profiler":8159,"material":8160,"##uredense":8161,"converters":8162,"convert_sync":8163,"refs":8164,"legacytyped":8165,"##urrency":8166,"offline":8167,"halfway":8168,"##groups":8169,"onehot":8170,"masks":8171,"##softmarginloss":8172,"##ogil":8173,"opencl":8174,"divis":8175,"fakequantize":8176,"##ata_parallel":8177,"bools":8178,"dictconstruct":8179,"insertobserver":8180,"insert_prepack":8181,"raii":8182,"igamma":8183,"reporter":8184,"batchnorm1d":8185,"##rcnn":8186,"##_extra":8187,"##_experi":8188,"##_exception":8189,"toolkit":8190,"tempfile":8191,"tracingstate":8192,"full_like":8193,"full_caffe2":8194,"##metadata":8195,"##_tracer":8196,"trace_module":8197,"gcc9":8198,"expands":8199,"expanded":8200,"expand_as":8201,"expand_utils":8202,"int8quant":8203,"top_k":8204,"##complex":8205,"##complete":8206,"##completed":8207,"hasattr":8208,"tensoriteratorconfig":8209,"notebook":8210,"true_divide":8211,"##ispatchbe":8212,"scatterweightedsum":8213,"##flag":8214,"argsort":8215,"fbgemm_linear":8216,"tupletype":8217,"##tofloat":8218,"decre":8219,"marked":8220,"maskedselect":8221,"##result":8222,"##entials":8223,"leaking":8224,"released":8225,"releasing":8226,"increasing":8227,"##autodiff":8228,"##dimension":8229,"##logsoftmax":8230,"annotation_str":8231,"mul_scalar":8232,"unique_consecutive":8233,"async_schedul":8234,"hacks":8235,"preserved":8236,"assigned":8237,"job_base":8238,"concatdataset":8239,"production":8240,"subgraphmatch":8241,"##_and_strides":8242,"##worker":8243,"matrix_exp":8244,"crf":8245,"hyper":8246,"hybrid":8247,"expect_contiguous":8248,"macosx":8249,"csub":8250,"select_compute":8251,"filters":8252,"reshapeop":8253,"##contig":8254,"##aviside":8255,"test_data_parallel":8256,"##amesizeas":8257,"finite":8258,"going":8259,"governance":8260,"travisci":8261,"determinism":8262,"fewer":8263,"thdtensor":8264,"thdisk":8265,"##_dims":8266,"##_init_net":8267,"calculating":8268,"crossmaplrn":8269,"waiting":8270,"##batch_norm":8271,"repeats":8272,"hypot":8273,"##_eig":8274,"##_epoch":8275,"strt":8276,"_cuda":8277,"flattening":8278,"volumetricmaxpooling":8279,"volumetricfullconvolution":8280,"prefixes":8281,"crashes":8282,"destruct":8283,"heatmap":8284,"heaviside":8285,"systems":8286,"descriptors":8287,"catch2":8288,"replay":8289,"hypothesis_utils":8290,"forks":8291,"utility_ops":8292,"_thnn":8293,"mostly":8294,"chunked":8295,"resubmission":8296,"softmin":8297,"pad_sequence":8298,"checkpoints":8299,"##_device_type":8300,"extractpredictornet":8301,"requires_grad_":8302,"flop":8303,"contained":8304,"differentiability":8305,"channelslast":8306,"addresses":8307,"chartensor":8308,"charact":8309,"bitwise_and":8310,"everything":8311,"reverted":8312,"transformerencoder":8313,"dimensionality":8314,"patching":8315,"semi":8316,"##_proto":8317,"##_profiling":8318,"weak_intrusive_ptr":8319,"proto_utils":8320,"axes":8321,"such":8322,"##library":8323,"ami":8324,"amend":8325,"##_scalars":8326,"##_scalar_types":8327,"autodispatchbe":8328,"##_namespace":8329,"histogramobserver":8330,"2020":8331,"cummax":8332,"cummin":8333,"multiline":8334,"permiss":8335,"##_methods":8336,"##_copy_and":8337,"##fromth":8338,"##_activ":8339,"postnightly":8340,"##_complex_and":8341,"128":8342,"piped":8343,"persist":8344,"qualifiers":8345,"wasn":8346,"unpackrecord":8347,"##expand":8348,"weightedrandom":8349,"namedtuples":8350,"frequ":8351,"##_error_handling":8352,"completion":8353,"##backendoptions":8354,"differentiablegraph":8355,"aws":8356,"sugar":8357,"##_batched":8358,"networks":8359,"networkx":8360,"multilabelsoftmarginloss":8361,"mvn":8362,"badge":8363,"guar":8364,"##_integ":8365,"##items":8366,"##_dependencies":8367,"exponents":8368,"omp_num_threads":8369,"win32":8370,"ampere":8371,"mentioned":8372,"narrowing":8373,"snippet":8374,"recordfunctioncallback":8375,"finalize":8376,"##_override":8377,"##manual":8378,"##ofbgemm":8379,"test_c10d_spawn":8380,"resizend":8381,"variabletypemanual":8382,"_save":8383,"##_nnpi":8384,"##etrained":8385,"unpickling":8386,"unpickle":8387,"items":8388,"dispatchkeyset":8389,"64bit":8390,"##_jit_sign":8391,"truncation":8392,"programming":8393,"int32_t":8394,"reflectionpad":8395,"##compatibility":8396,"calculate_qparams":8397,"efficiency":8398,"fns":8399,"##_channels":8400,"affine_grid":8401,"equation":8402,"rot90":8403,"##quantizedtofloat":8404,"deadlocks":8405,"hacky_wrapper":8406,"mse_loss":8407,"torch_cuda_api":8408,"tril_indices":8409,"predefined":8410,"producing":8411,"rounding_mode":8412,"occurs":8413,"philox":8414,"rtol":8415,"routines":8416,"##_align":8417,"todos":8418,"datachannelgloo":8419,"providing":8420,"##_leak":8421,"##ufunc":8422,"##_symbol":8423,"migrates":8424,"concurrent":8425,"concurrency":8426,"exprs":8427,"component":8428,"discover":8429,"combining":8430,"sparselengthssumsparse":8431,"_distributed":8432,"cuda_tensor_apply4":8433,"comprehensions":8434,"view_as_real":8435,"##_blocking_wait":8436,"fallthrough":8437,"fractional_max":8438,"nuclear":8439,"replicate":8440,"is_same":8441,"newwithstorage":8442,"newwithsize":8443,"##attributes":8444,"diagnose":8445,"##_optional":8446,"ensuredense":8447,"conv_transpose2d":8448,"flat_hash":8449,"##deploy":8450,"spatialdilatedmaxpooling":8451,"contribution_guide":8452,"##_offsets":8453,"sparsetodensemask":8454,"mlp":8455,"nesterov":8456,"##functor":8457,"##product":8458,"asinh":8459,"matches_jit_sign":8460,"##_gradients":8461,"at_parallel_native_tbb":8462,"##dispatchkey":8463,"excluded":8464,"uniqueness":8465,"multivariate":8466,"multivariatenormal":8467,"thcudatensor":8468,"ordereddict":8469,"reflection_pad1d":8470,"parametrizations":8471,"__cuda_array_interface":8472,"harness":8473,"infinity":8474,"reinitializetensor":8475,"##standing":8476,"differences":8477,"cudamem":8478,"appear":8479,"observation":8480,"official":8481,"invoking":8482,"entirely":8483,"producer_version":8484,"clip_grad_norm_":8485,"violation":8486,"gemv":8487,"lightweight":8488,"sensitive":8489,"test_nested":8490,"divergence":8491,"torch_warn_once":8492,"##_drawer":8493,"##_mkldnn":8494,"periodic":8495,"assume":8496,"##_patterns":8497,"templatize":8498,"fastrnns":8499,"grain_size":8500,"##_multiprocessing":8501,"describes":8502,"cudagetlasterror":8503,"equivalent":8504,"substitute":8505,"##descriptor":8506,"##ouble":8507,"##atomicadd":8508,"toggle":8509,"##adowed":8510,"unshadowed":8511,"pytorch_linux_xenial":8512,"set_grad_enabled":8513,"reserve":8514,"reducelronplate":8515,"should_run_job":8516,"##_remote":8517,"fused8bitrowwisequantizedtofloat":8518,"piecewiselinear":8519,"vs2017":8520,"centralize":8521,"##_post_process":8522,"enforces":8523,"javadoc":8524,"assertraisesregexwithhighlight":8525,"hingeembeddingloss":8526,"at_forall_scalar_types":8527,"huge":8528,"sgn":8529,"vanilla":8530,"forbid":8531,"towards":8532,"add_hparams":8533,"confusing":8534,"torch_shm_man":8535,"exclusive":8536,"cudadevice":8537,"##idelines":8538,"##_digamma":8539,"redesign":8540,"getargumentnames":8541,"cudnnfind":8542,"applied":8543,"quiet":8544,"recursivescriptmodule":8545,"##_workflows":8546,"devtoolset7":8547,"bcewithlogitsloss":8548,"explanation":8549,"##_custom_config_dict":8550,"skipifnofbgemm":8551,"pivoting":8552,"_convnd":8553,"__all__":8554,"__assert_fail":8555,"_flat_weights":8556,"bmuf":8557,"clobber":8558,"either":8559,"sfinae":8560,"samplers":8561,"tqdm":8562,"tiling":8563,"varying":8564,"##fractionalmaxpooling":8565,"to_here":8566,"reproduc":8567,"thrift":8568,"strategy":8569,"build_split_cuda":8570,"proposal":8571,"shebang":8572,"discuss":8573,"logcumsumexp":8574,"set_sizes_and_strides":8575,"nonlinearity":8576,"newcriteriontest":8577,"cmake_prefix_path":8578,"no_batch_dim":8579,"nccl_async_error_handling":8580,"embedded":8581,"cirlceci":8582,"constantofshape":8583,"legacytypedispatch":8584,"insert_prepack_unpack":8585,"async_scheduling":8586,"job_base_name":8587,"subgraphmatcher":8588,"select_compute_arch":8589,"thdiskfile":8590,"autodispatchbelow":8591,"weightedrandomsampler":8592,"snippets":8593,"flat_hash_map":8594,"__cuda_array_interface__":8595,"reducelronplateau":8596,"piecewiselineartransform":8597,"torch_shm_manager":8598,"!!":8599,"(~":8600,",-":8601,"19":8602,"2g":8603,"24":8604,"31":8605,"3x3":8606,"3rd":8607,"5x":8608,"655":8609,"80":8610,">,":8611,"__d":8612,"__f":8613,"_min":8614,"_comp":8615,"_variable":8616,"_functions":8617,"__reduce":8618,"__str":8619,"_over":8620,"__config":8621,"__host":8622,"__hip":8623,"_export":8624,"aud":8625,"aid":8626,"aib":8627,"amin":8628,"aux":8629,"ams":8630,"aars":8631,"bcast":8632,"ct":8633,"c0":8634,"c4":8635,"cup":8636,"calle":8637,"criter":8638,"ctypes":8639,"coded":8640,"dt":8641,"dx":8642,"deter":8643,"dill":8644,"dte":8645,"emp":8646,"ess":8647,"eme":8648,"fine":8649,"fmin":8650,"fmt":8651,"family":8652,"gn":8653,"gid":8654,"gdb":8655,"ho":8656,"hum":8657,"heter":8658,"here":8659,"htrace":8660,"harm":8661,"ipc":8662,"iomp":8663,"irecv":8664,"kv":8665,"ln":8666,"live":8667,"lift":8668,"lik":8669,"lshift":8670,"latex":8671,"mk":8672,"ming":8673,"mim":8674,"mand":8675,"malloc":8676,"mangling":8677,"nms":8678,"nbytes":8679,"ngram":8680,"ow":8681,"odd":8682,"pen":8683,"pod":8684,"pse":8685,"pil":8686,"pay":8687,"popen":8688,"qpl":8689,"qps":8690,"qbatch_norm":8691,"rud":8692,"rccl":8693,"rtc":8694,"rhs":8695,"sr":8696,"somet":8697,"tar":8698,"tit":8699,"tst":8700,"tak":8701,"teg":8702,"tern":8703,"uint":8704,"v6":8705,"v4":8706,"vit":8707,"vend":8708,"vestig":8709,"ws":8710,"won":8711,"wording":8712,"wider":8713,"xt":8714,"xor":8715,"xlap":8716,"xlogy":8717,"zf":8718,"})":8719,"##f4":8720,"##lain":8721,"##lapack":8722,"##large":8723,"##a2":8724,"##gg":8725,"##gil":8726,"##gable":8727,"##gput":8728,"##gem":8729,"##sp":8730,"##spar":8731,"##sures":8732,"##sical":8733,"##_ar":8734,"##_qu":8735,"##_rec":8736,"##_rate":8737,"##_iter":8738,"##_1d":8739,"##_old":8740,"##_attention":8741,"##_implemented":8742,"##_argument":8743,"##_queue":8744,"##_axis":8745,"##_eps":8746,"##_vec":8747,"##_legacy":8748,"##_amd":8749,"##_algorith":8750,"##nam":8751,"##needed":8752,"##nostic":8753,"##mine":8754,"##mov":8755,"##mix":8756,"##magma":8757,"##e9":8758,"##pm":8759,"##pickler":8760,"##pancy":8761,"##cs":8762,"##c8":8763,"##cal":8764,"##col":8765,"##camp":8766,"##cov":8767,"##current":8768,"##cores":8769,"##ren":8770,"##rest":8771,"##rang":8772,"##runner":8773,"##ten":8774,"##tated":8775,"##tensort":8776,"##iment":8777,"##uite":8778,"##1f":8779,"##d1":8780,"##destroy":8781,"##offset":8782,"##yor":8783,"##ymmetric":8784,"##war":8785,"##wargs":8786,"##wersgd":8787,"##xp":8788,"##xi":8789,"##xlarge":8790,"##bot":8791,"##brew":8792,"##void":8793,"##variant":8794,"##kineto":8795,"##ktop":8796,"##27":8797,"##9a":8798,"##4e":8799,"##4c":8800,"##413":8801,"##4x2":8802,"##7f":8803,"##8e":8804,"##88":8805,"##3f":8806,"##oration":8807,"##orrow":8808,"##oretest":8809,"##eres":8810,"##ination":8811,"##inplace":8812,"##inline":8813,"##inery":8814,"##inbytes":8815,"##onzero":8816,"##atured":8817,"##enan":8818,"inject":8819,"inception":8820,"##lear":8821,"##lease":8822,"forcing":8823,"fortran":8824,"##anet":8825,"##annot":8826,"tol":8827,"to_copy":8828,"touch":8829,"##edy":8830,"##ed_tensor":8831,"##aler":8832,"##alfa":8833,"##alty":8834,"##align":8835,"##algebra":8836,"##almost":8837,"##iton":8838,"##chang":8839,"##chandler":8840,"##chalfa":8841,"add_graph":8842,"addconstant":8843,"addpadding":8844,"reint":8845,"requantization":8846,"##st1":8847,"##stri":8848,"##strap":8849,"##utdown":8850,"##utonum":8851,"##ropping":8852,"##ctype":8853,"##veyor":8854,"##estodense":8855,"##etic":8856,"##etime":8857,"##etth":8858,"##etypes":8859,"ths":8860,"therror":8861,"thsize":8862,"those":8863,"thmemory":8864,"thchalfa":8865,"##acyn":8866,"##ently":8867,"##entially":8868,"##repe":8869,"##reference":8870,"##reautograd":8871,"##rewriter":8872,"##relements":8873,"##replacement":8874,"##repancy":8875,"##unary":8876,"##icker":8877,"tester":8878,"testjit":8879,"testcuda":8880,"test_conv":8881,"test_multi":8882,"test_multiprocessing":8883,"##izait":8884,"##pelling":8885,"##ocache":8886,"coo":8887,"coer":8888,"##mentation":8889,"deg":8890,"##abb":8891,"##lopt":8892,"tensorfrom":8893,"tensorcpu":8894,"tensor_impl":8895,"tensorindexing":8896,"tensoraccessor":8897,"##udata":8898,"##ssian":8899,"didn":8900,"stage":8901,"stay":8902,"##agation":8903,"##agmas":8904,"torchdeploy":8905,"##antly":8906,"remem":8907,"exiting":8908,"##appy":8909,"supress":8910,"##eco":8911,"##eces":8912,"removeops":8913,"casing":8914,"typ":8915,"##ersigridhash":8916,"at_":8917,"atlas":8918,"at_warn":8919,"enque":8920,"entering":8921,"##terror":8922,"##imer":8923,"unres":8924,"unmask":8925,"untyped":8926,"unqualified":8927,"use_f":8928,"use_vulkan":8929,"use_openmp":8930,"use_kineto":8931,"functiontype":8932,"quantizable":8933,"##asion":8934,"##asics":8935,"cudaall":8936,"cudaextension":8937,"##istream":8938,"##istics":8939,"##istry":8940,"##uru":8941,"::{":8942,"##atory":8943,"build_dir":8944,"build_deps":8945,"lost":8946,"##andtypes":8947,"whose":8948,"proof":8949,"proposals":8950,"profd":8951,"##verter":8952,"##pler":8953,"onnxop":8954,"onnx_namespace":8955,"update_s3":8956,"##iscard":8957,"##ardingspec":8958,"##arded_tensor":8959,"caffe2_test":8960,"caffe2_main":8961,"##fast":8962,"##_te":8963,"##_ty":8964,"##_task":8965,"trav":8966,"trick":8967,"trust":8968,"int16":8969,"jit_log":8970,"pytorch_ci":8971,"():":8972,"##ubtype":8973,"##part":8974,"modular":8975,"is_p":8976,"is_cuda":8977,"is_script":8978,"isclose":8979,"##_code":8980,"##_criterion":8981,"##_collect":8982,"##_create":8983,"operator_test":8984,"operator_benchmark":8985,"backup":8986,"backcompat":8987,"codecov":8988,"##ibrary":8989,"pythonrp":8990,"##typer":8991,"##ively":8992,"##_det":8993,"##_dyn":8994,"##_dire":8995,"conv_test":8996,"conv_fused":8997,"##_sigmoid":8998,"##orked":8999,"disk":9000,"disamb":9001,"##astream":9002,"as_tuple":9003,"asynchron":9004,"##integ":9005,"##intfill":9006,"##int4x2":9007,"logo":9008,"graphtask":9009,"graphviz":9010,"set_deterministic":9011,"set_print":9012,"setoutputsize":9013,"##iring":9014,"distill":9015,"distengine":9016,"run_method":9017,"##quer":9018,"##100":9019,"pract":9020,"pragmas":9021,"##_fan":9022,"const_cast":9023,"fx_glow":9024,"bugbe":9025,"buggy":9026,"autopep":9027,"resend":9028,"reserv":9029,"##_mul":9030,"##_mutable":9031,"##_message":9032,"##_nr":9033,"##_nan":9034,"##_nms":9035,"##_ninja":9036,"##_nhwc":9037,"##ynonzero":9038,"grad_input":9039,"gradsc":9040,"##pped":9041,"multic":9042,"call_method":9043,"callunboxed":9044,"poolop":9045,"containing":9046,"refactors":9047,"batchonehot":9048,"cmin":9049,"cmax":9050,"##pcadd":9051,"optimal":9052,"##_bind":9053,"##_bound":9054,"##_bfloat":9055,"##_barrier":9056,"##_blacklist":9057,"##_borrow":9058,"##ationship":9059,"versioned":9060,"##egetth":9061,"##trl":9062,"++/":9063,"newmodule":9064,"cmake_c":9065,"cmakelist":9066,"cmakefile":9067,"preproc":9068,"defaulttensor":9069,"if_true":9070,"if_false":9071,"thatomic":9072,"##ertest":9073,"interaction":9074,"output_nr":9075,"export_op":9076,"get_f":9077,"getstream":9078,"getters":9079,"miniz":9080,"##bsite":9081,"##ugate":9082,"libcuda":9083,"libkineto":9084,"rpcs":9085,"rpcbackendoptions":9086,"subdire":9087,"init_params":9088,"device_type":9089,"device_option":9090,"##conf":9091,"##connected":9092,"valued":9093,"test_is":9094,"test_avg":9095,"test_rref":9096,"test_rand":9097,"website":9098,"##available":9099,"per_sample":9100,"indexadd":9101,"size_":9102,"sizeaverage":9103,"sparse_csr":9104,"model_name":9105,"classification":9106,"issubtype":9107,"listing":9108,"listptr":9109,"##letest":9110,"specifier":9111,"complex32":9112,"##_lstm":9113,"##_label":9114,"##_layer":9115,"boiler":9116,"skip_if":9117,"cudnn7":9118,"leave":9119,"fusible":9120,"##maxkey":9121,"##itionally":9122,"fbfc":9123,"fbcollect":9124,"fblear":9125,"##_test_results":9126,"##ideep":9127,"quantization_patterns":9128,"filelists":9129,"replacewith":9130,"portal":9131,"portable":9132,"spent":9133,"##iased":9134,"fixedqparams":9135,"noop":9136,"no_python":9137,"utf":9138,"reducemean":9139,"nccl_blocking_wait":9140,"normall":9141,"##umption":9142,"binning":9143,"gloocache":9144,"##addmm":9145,"functionalities":9146,"load_inline":9147,"load_save":9148,"lints":9149,"##_warning":9150,"prints":9151,"printed":9152,"##_op_to":9153,"##_gc":9154,"##_gamma":9155,"empty_cpu":9156,"plural":9157,"pathlib":9158,"##geometry":9159,"mobile_module":9160,"above":9161,"float64":9162,"weight_norm":9163,"weight_decay":9164,"thcp":9165,"thcstream":9166,"##_stop":9167,"##_stub":9168,"##_step":9169,"##_stddev":9170,"assertexpected":9171,"assertwarn":9172,"assertalmost":9173,"depends":9174,"##_return":9175,"net_test":9176,"net_pos":9177,"net_drawer":9178,"annotated":9179,"kepler":9180,"sm_":9181,"smoketest":9182,"##eref":9183,"checkscript":9184,"multiproc":9185,"circum":9186,"fp16_comp":9187,"elab":9188,"pools":9189,"##iguate":9190,"binaryopskernel":9191,"structures":9192,"observe":9193,"##engines":9194,"##roduce":9195,"broadcasted":9196,"matcher":9197,"matched":9198,"stdall":9199,"stdout":9200,"std_mean":9201,"unnamed":9202,"parameterdict":9203,"argumentspec":9204,"agnostic":9205,"zero_":9206,"##rowwisesparse":9207,"incref":9208,"console":9209,"customize":9210,"custom_module":9211,"register_":9212,"register_module":9213,"dynamicrendezvous":9214,"##_parity":9215,"##ificantly":9216,"##interpreter":9217,"spatialbatchnorm":9218,"spatialaveragepooling":9219,"spatialupsampling":9220,"partitions":9221,"##_converter":9222,"##prot":9223,"##project":9224,"##profile":9225,"##alog":9226,"operate":9227,"matlab":9228,"##_dealloc":9229,"significantly":9230,"written":9231,"##_vis":9232,"active":9233,"convert_custom_config_dict":9234,"random_split":9235,"callsites":9236,"##convbatchnorm":9237,"legacyth":9238,"hardcode":9239,"##urrences":9240,"sumreduce":9241,"sumsq":9242,"offload":9243,"##_reference":9244,"featured":9245,"desktop":9246,"schema_matching":9247,"defines":9248,"placehold":9249,"masking":9250,"##source":9251,"local_":9252,"normal_me":9253,"switches":9254,"infos":9255,"booltensor":9256,"c2_pt":9257,"lstmwith":9258,"lstm_benchmark":9259,"lstmunit":9260,"mish":9261,"batchnorm3d":9262,"bits":9263,"element_size":9264,"map_location":9265,"##insert":9266,"contexts":9267,"declared":9268,"##_examples":9269,"##_exporter":9270,"processgroupmpi":9271,"hipstream":9272,"boundaries":9273,"##graphexecutor":9274,"quickl":9275,"quint4x2":9276,"optionsguard":9277,"##reduction":9278,"find_pack":9279,"findcudnn":9280,"int8_t":9281,"##_to_tensor":9282,"iterate":9283,"gatherrang":9284,"has_full":9285,"tensoriteratorbase":9286,"turned":9287,"fast_nvcc":9288,"fastatomicadd":9289,"##_out_cpu":9290,"accessors":9291,"records":9292,"record_stream":9293,"biases":9294,"##points":9295,"scatteradd":9296,"varall":9297,"varargs":9298,"var_mean":9299,"directive":9300,"appveyor":9301,"clarified":9302,"##_sequ":9303,"##mapping":9304,"decoding":9305,"markdown":9306,"markcompleted":9307,"behave":9308,"maskedcopy":9309,"devicec":9310,"precise":9311,"##_compare":9312,"##_compatible":9313,"propagating":9314,"pybind_utils":9315,"##istribute":9316,"##linalg":9317,"##_as_tensor":9318,"##logging":9319,"mutations":9320,"mulgradient":9321,"##arts":9322,"unique_dim":9323,"asyncif":9324,"throughout":9325,"perfmodel":9326,"preserving":9327,"preserves":9328,"fallbacks":9329,"vol2col":9330,"##bits":9331,"assign_":9332,"gitmodules":9333,"informative":9334,"concatop":9335,"subgraphrewriter":9336,"transposeop":9337,"myself":9338,"##_and_complex":9339,"direction":9340,"matrix_power":9341,"engineering":9342,"inlineable":9343,"lowercase":9344,"selecting":9345,"selected":9346,"activation_post_process":9347,"cwrap_files":9348,"test_dispatch":9349,"undef":9350,"inversion":9351,"##umulator":9352,"utilize":9353,"inferring":9354,"infer_size":9355,"probability":9356,"##policy":9357,"upsample_b":9358,"gomp":9359,"undefinedtensorimpl":9360,"unaryopskernel":9361,"scale_factor":9362,"calculated":9363,"##_kernel_launch":9364,"##_c10_ops":9365,"abscriterion":9366,"##_setup":9367,"##_event":9368,"external_input":9369,"keeps":9370,"executors":9371,"batchedtensorimpl":9372,"multinomial_alias":9373,"_cudnn":9374,"_calcul":9375,"##_quantization":9376,"impl_unboxed":9377,"flattened":9378,"sparsifier":9379,"##_dispatch__":9380,"##_dispatch_key":9381,"relaxed":9382,"volumetricaveragepooling":9383,"volumetricreplicationpadding":9384,"history":9385,"mayb":9386,"tanh_backward":9387,"crashing":9388,"recursion":9389,"destination":9390,"height":9391,"sampled":9392,"sample_n":9393,"##guardimpl":9394,"##before":9395,"constructs":9396,"catching":9397,"catchall":9398,"inlinecall":9399,"folded":9400,"foldconvbatchnorm":9401,"##legacyn":9402,"eigenvector":9403,"put_":9404,"invalidarguments":9405,"chunky":9406,"chunking":9407,"chunkdataset":9408,"##_shapes":9409,"##_sharing":9410,"softsign":9411,"softmargincriterion":9412,"test_jit_fuser":9413,"##_gpu_test":9414,"logical_and":9415,"logical_or":9416,"communicator":9417,"##_groups":9418,"floordiv":9419,"sender":9420,"##_addmm":9421,"##_interest":9422,"propagate_names":9423,"visit":9424,"started":9425,"clipping":9426,"##_contain":9427,"patches":9428,"security":9429,"##ypeset":9430,"##_profile":9431,"##_reduc":9432,"elementwiselinear":9433,"lazy_dyn":9434,"thctensorrandom":9435,"atomiciter":9436,"controlled":9437,"shadowed":9438,"standard_gamma":9439,"amenable":9440,"thresholds":9441,"histograms":9442,"limitation":9443,"##_conversion":9444,"##_convbn":9445,"bce_with_logits":9446,"##128":9447,"##_so_version":9448,"##_sources":9449,"##_aot":9450,"showing":9451,"minimizer":9452,"hotpatch":9453,"locks":9454,"locking":9455,"##_caffe2_op_to":9456,"bernoulli_":9457,"capit":9458,"quality":9459,"thpfunction":9460,"thpgenerator":9461,"unpacksegments":9462,"codeowner":9463,"request_callback":9464,"share_memory":9465,"captured":9466,"margincriterion":9467,"##_errors":9468,"##bytype":9469,"stores":9470,"storing":9471,"completing":9472,"completed":9473,"armv":9474,"stricter":9475,"pushing":9476,"sparselengthsum":9477,"kwarg_only":9478,"##906":9479,"uniform_":9480,"learningrate":9481,"rendered":9482,"render_test_results":9483,"grained":9484,"thvector_":9485,"statistics":9486,"##deviceoption":9487,"labels":9488,"##nllloss":9489,"cudatool":9490,"##_multigpu":9491,"guess":9492,"##_into":9493,"##_build_type":9494,"##_construct":9495,"accumulate_grad":9496,"btriunpack":9497,"winograd":9498,"##activity":9499,"##_flag":9500,"friends":9501,"snpe":9502,"unblock":9503,"unbiased":9504,"planning":9505,"refinements":9506,"##_overflow":9507,"##_overhead":9508,"identify":9509,"finishing":9510,"projects":9511,"##_dense_backward":9512,"dispatchkeyextra":9513,"masked_fill_":9514,"(...)'":9515,"machinery":9516,"sleep":9517,"##field":9518,"truncated":9519,"recently":9520,"landing":9521,"ndimension":9522,"queues":9523,"##attr__":9524,"##segment":9525,"retain_grad":9526,"inherited":9527,"lpnorm":9528,"l1loss":9529,"##_avx":9530,"##_avx2":9531,"##cpuallocator":9532,"##_local_dispatch_key":9533,"##queueblobs":9534,"prioritize":9535,"specializations":9536,"triggered":9537,"equations":9538,"rebuilding":9539,"##backwardbackward":9540,"partitioning":9541,"etcd":9542,"msecriterion":9543,"##_xla":9544,"##_powersgd":9545,"collate":9546,"parenth":9547,"max_pool1d":9548,"##_include_dir":9549,"triu_indices":9550,"produced":9551,"termination":9552,"cells":9553,"##packedparams":9554,"randn_like":9555,"rnncellbase":9556,"dedupe":9557,"sparsetensorimpl":9558,"occasion":9559,"occurrences":9560,"route":9561,"##_kwargs":9562,"##_rocm_arch":9563,"##numerics":9564,"bufhandle":9565,"cloned":9566,"qualifiedname":9567,"##_constants":9568,"pixel_shuffle":9569,"psimd":9570,"##_level":9571,"connected":9572,"multimarginloss":9573,"serializedpyobj":9574,"##_handle":9575,"##_handler":9576,"migrated":9577,"##shift__":9578,"sharded_tensor":9579,"##_context_debug_info":9580,"lambdalr":9581,"underscores":9582,"foo":9583,"fouri":9584,"foxi":9585,"monkey":9586,"succeed":9587,"incompatibility":9588,"##_byte":9589,"##_bytes":9590,"deviceguardimpl":9591,"avgpool3d":9592,"combinations":9593,"poisson_nll_loss":9594,"aarch32":9595,"##tospace":9596,"depthtospace":9597,"##_source_dir":9598,"##_linker":9599,"##importer":9600,"view_as_complex":9601,"roipool":9602,"roi_align":9603,"##_transformer":9604,"cppt":9605,"fractionalmaxpool":9606,"##texture":9607,"fixups":9608,"choice":9609,"listener":9610,"listenloop":9611,"##_of_interest":9612,"diagnostic":9613,"scheduling":9614,"tls_local_dispatch_key":9615,"enforcing":9616,"##_deterministic_algorith":9617,"convbnrelu":9618,"##_link_libraries":9619,"##_define":9620,"adaptiveavgpool2d":9621,"##_libtorch_2":9622,"smoothl1criterion":9623,"_all_gather":9624,"nansum":9625,"watchdog":9626,"##funcoptions":9627,"conjugate":9628,"build_ios":9629,"##_spatial":9630,"resolved":9631,"resolving":9632,"##conds":9633,"test_lite_interpreter":9634,"index_copy_":9635,"threadlocaldebug":9636,"monitored_barrier":9637,"heuristics":9638,"_find":9639,"_fork":9640,"emerg":9641,"lcm":9642,"purge":9643,"purposes":9644,"tune":9645,"##_accumulator":9646,"forgotten":9647,"relying":9648,"seems":9649,"precompiled":9650,"##_windows":9651,"unsafegetth":9652,"##reducering":9653,"lengthstileop":9654,"cosineannealingwarm":9655,"giventensorfill":9656,"reflection_pad2d":9657,"functors":9658,"augmented":9659,"_jit_internal":9660,"_jit_pass":9661,"_rendezvousstate":9662,"fqn":9663,"##aussian":9664,"##_zero_dim":9665,"reinitialization":9666,"exhaustive_search":9667,"redefinition":9668,"multithreading":9669,"reliability":9670,"index_fill_":9671,"##_global_deps":9672,"observable":9673,"officially":9674,"interned_string":9675,"adaptive_max_pool2d":9676,"adaptive_max_pool3d":9677,"_foreach_add":9678,"bbox_transform":9679,"paste":9680,"qint32":9681,"sdl":9682,"sdk":9683,"squeezing":9684,"udfs":9685,"##_rowwise_offsets":9686,"##momentum":9687,"##decoder":9688,"cuda_nvcc_flags":9689,"cuda_nvcc_executable":9690,"backpropagation":9691,"constantpadnd":9692,"adaptivemaxpool1d":9693,"calc_digamma":9694,"volumetricdilatedconvolution":9695,"volumetricdilatedmaxpooling":9696,"samplemultinomialwith":9697,"samplemultinomialonce":9698,"cliprangesgath":9699,"test_cpp_extensions":9700,"cfg":9701,"happens":9702,"##enotfound":9703,"rectified":9704,"##_table_":9705,"##_dnnlowp_op":9706,"##_neon":9707,"overridden":9708,"bootcamp":9709,"recommend":9710,"aggregate":9711,"dividing":9712,"insertquantdequanthelper":9713,"elementsizeinbytes":9714,"find_unused_parameters":9715,"analytical":9716,"corruption":9717,"googletest":9718,"externalcalls":9719,"enumerate_support":9720,"persons_of_interest":9721,"alphab":9722,"smooth_l1_loss":9723,"developer":9724,"gumbel_softmax":9725,"_make":9726,"_unique":9727,"_torch_docs":9728,"_cat_out_cpu":9729,"bandwidth":9730,"citation":9731,"draft":9732,"muji":9733,"milstm":9734,"surface":9735,"wildcards":9736,"##eregex":9737,"reinforce":9738,"reasons":9739,"##abilities":9740,"atendispatch":9741,"onnx_aten_fallback":9742,"discrepancy":9743,"seperate":9744,"getnumkeys":9745,"circuit":9746,"##_depthwise2d":9747,"eigvalsh":9748,"upsample_nearest2d":9749,"downgrade":9750,"collapse":9751,"##crossentropywithlogits":9752,"__torch_dispatch__":9753,"credentials":9754,"honor":9755,"homebrew":9756,"lexer":9757,"##ogeneous":9758,"##hapesandtypes":9759,"##esstestcase":9760,"receive":9761,"##sequent":9762,"test_numer":9763,"unmatched":9764,"unconditionally":9765,"tranpose":9766,"is_floating_point":9767,"assembly":9768,"##_based_partition":9769,"##consumed":9770,"memoryplanner":9771,"floattohalf":9772,"assertnotequal":9773,"##_htmls":9774,"neuralnet":9775,"transformeddistribution":9776,"convert_sync_batchnorm":9777,"crossmaplrn2d":9778,"##_eigen":9779,"strtod":9780,"destructing":9781,"heatmapmaxkey":9782,"unpackrecordsop":9783,"frequency":9784,"guarant":9785,"##_symbols":9786,"matches_jit_signature":9787,"pytorch_linux_xenial_cuda":9788,"autodispatchbelowautograd":9789,"_variablefunctions":9790,"__reduce__":9791,"__str__":9792,"__config__":9793,"__host__":9794,"audit":9795,"aibench":9796,"determine":9797,"emeb":9798,"human":9799,"mandatory":9800,"owning":9801,"penalty":9802,"pseudo":9803,"rudiment":9804,"tegra":9805,"ternary":9806,"vendor":9807,"xlapreautograd":9808,"zfnet":9809,"##_argument_list":9810,"##mixin":9811,"##anetdef":9812,"reintroduce":9813,"##utonumerics":9814,"thmemoryfile":9815,"thchalfautonumerics":9816,"tensorfromblob":9817,"remember":9818,"removeopsbytype":9819,"use_fbgemm":9820,"##istreamguard":9821,"onnxopcoverage":9822,"traversal":9823,"trusty":9824,"modularize":9825,"is_pinned":9826,"is_scripting":9827,"pythonrpchandler":9828,"disambiguate":9829,"asynchronous":9830,"set_printoptions":9831,"bugbear":9832,"autopep8":9833,"reservoir":9834,"gradscaler":9835,"##_bfloat16":9836,"newmoduletest":9837,"defaulttensoroptions":9838,"export_opnames":9839,"test_rref_context_debug_info":9840,"per_sample_weights":9841,"boilerplate":9842,"fbfcpacked":9843,"fbcollective":9844,"fblearner":9845,"replacewithcopy":9846,"##_stddevs":9847,"smoketests":9848,"multiprocesstestcase":9849,"fp16_compress":9850,"dynamicrendezvoushandler":9851,"sumreducelike":9852,"sumsqrelements":9853,"featuredropout":9854,"placeholders":9855,"normal_means":9856,"c2_pt_converter":9857,"lstmwithattention":9858,"quicklint":9859,"gatherrangestodense":9860,"has_full_argument_list":9861,"_calculate":9862,"foldconvbatchnorm2d":9863,"##_caffe2_op_to_c10":9864,"cudatoolkit":9865,"dispatchkeyextractor":9866,"##queueblobsop":9867,"fourier":9868,"tls_local_dispatch_key_set":9869,"##_deterministic_algorithms":9870,"threadlocaldebuginfo":9871,"emergency":9872,"cosineannealingwarmrest":9873,"cliprangesgathersigridhash":9874,"##enotfounderror":9875,"rudimentary":9876,"!)":9877,"\"\"":9878,"##":9879,"''":9880,"']":9881,"(.":9882,"(`":9883,"((":9884,"(-":9885,"('":9886,"({":9887,"*]":9888,",)":9889,".)":9890,".[":9891,".`":9892,"/)":9893,"/`":9894,"0000":9895,"1e":9896,"29":9897,"27":9898,"200":9899,"2nd":9900,"262":9901,"3x":9902,"39":9903,"42":9904,"44":9905,"4bit":9906,"50":9907,"5d":9908,"512":9909,"70":9910,":\"":9911,"='":9912,"?)":9913,"[[":9914,"[-":9915,"]`":9916,"_r":9917,"_b":9918,"_am":9919,"__s":9920,"_fin":9921,"_check":9922,"__st":9923,"__de":9924,"_set":9925,"_ops":9926,"_convolution":9927,"_indices":9928,"_quantized":9929,"__func":9930,"_convert":9931,"_recursive":9932,"_join":9933,"__contain":9934,"acl":9935,"ahead":9936,"aabb":9937,"bt":9938,"bw":9939,"ben":9940,"bes":9941,"bise":9942,"body":9943,"cd":9944,"car":9945,"css":9946,"cis":9947,"ctype":9948,"cere":9949,"curs":9950,"carri":9951,"cdata":9952,"cdf":9953,"ctx":9954,"coding":9955,"cinv":9956,"da":9957,"ds":9958,"dr":9959,"dq":9960,"dyn":9961,"dcheck":9962,"dynam":9963,"denormal":9964,"et":9965,"ele":9966,"eos":9967,"fw":9968,"fac":9969,"fread":9970,"fres":9971,"f40":9972,"fabs":9973,"gm":9974,"gle":9975,"gif":9976,"grow":9977,"gating":9978,"gflag":9979,"gaussian":9980,"hor":9981,"hit":9982,"hud":9983,"hpt":9984,"hex":9985,"hgemm":9986,"huff":9987,"hparam":9988,"holding":9989,"happy":9990,"ic":9991,"ire":9992,"ice":9993,"iinfo":9994,"iost":9995,"ipython":9996,"jo":9997,"jsd":9998,"kil":9999}}}