{"version":"1.0","truncation":null,"padding":null,"added_tokens":[{"id":0,"special":true,"content":"[UNK]","single_word":false,"lstrip":false,"rstrip":false,"normalized":false},{"id":1,"special":true,"content":"[CLS]","single_word":false,"lstrip":false,"rstrip":false,"normalized":false},{"id":2,"special":true,"content":"[SEP]","single_word":false,"lstrip":false,"rstrip":false,"normalized":false},{"id":3,"special":true,"content":"[PAD]","single_word":false,"lstrip":false,"rstrip":false,"normalized":false},{"id":4,"special":true,"content":"[MASK]","single_word":false,"lstrip":false,"rstrip":false,"normalized":false}],"normalizer":{"type":"Sequence","normalizers":[{"type":"NFD"},{"type":"Lowercase"},{"type":"StripAccents"}]},"pre_tokenizer":{"type":"Whitespace"},"post_processor":{"type":"TemplateProcessing","single":[{"SpecialToken":{"id":"[CLS]","type_id":0}},{"Sequence":{"id":"A","type_id":0}},{"SpecialToken":{"id":"[SEP]","type_id":0}}],"pair":[{"SpecialToken":{"id":"[CLS]","type_id":0}},{"Sequence":{"id":"A","type_id":0}},{"SpecialToken":{"id":"[SEP]","type_id":0}},{"Sequence":{"id":"B","type_id":1}},{"SpecialToken":{"id":"[SEP]","type_id":1}}],"special_tokens":{"[CLS]":{"id":"[CLS]","ids":[1],"tokens":["[CLS]"]},"[SEP]":{"id":"[SEP]","ids":[2],"tokens":["[SEP]"]}}},"decoder":null,"model":{"type":"WordPiece","unk_token":"[UNK]","continuing_subword_prefix":"##","max_input_chars_per_word":100,"vocab":{"[UNK]":0,"[CLS]":1,"[SEP]":2,"[PAD]":3,"[MASK]":4,"!":5,"\"":6,"#":7,"$":8,"%":9,"&":10,"'":11,"(":12,")":13,"*":14,"+":15,",":16,"-":17,".":18,"/":19,"0":20,"1":21,"2":22,"3":23,"4":24,"5":25,"6":26,"7":27,"8":28,"9":29,":":30,";":31,"<":32,"=":33,">":34,"?":35,"@":36,"[":37,"\\":38,"]":39,"^":40,"_":41,"`":42,"a":43,"b":44,"c":45,"d":46,"e":47,"f":48,"g":49,"h":50,"i":51,"j":52,"k":53,"l":54,"m":55,"n":56,"o":57,"p":58,"q":59,"r":60,"s":61,"t":62,"u":63,"v":64,"w":65,"x":66,"y":67,"z":68,"{":69,"|":70,"}":71,"~":72,"##l":73,"##d":74,"##_":75,"##m":76,"##o":77,"##u":78,"##e":79,"##a":80,"##p":81,"##\"":82,"##:":83,"##s":84,"##i":85,"##r":86,"##t":87,"##z":88,"##c":89,"##k":90,"##g":91,"##n":92,"##w":93,"##0":94,"##b":95,"##h":96,"##q":97,"##f":98,"##5":99,"##(":100,"##'":101,"##v":102,"##[":103,"##y":104,"##,":105,"##2":106,"##j":107,"##)":108,"##;":109,"##`":110,"##.":111,"##x":112,"##7":113,"##4":114,"##3":115,"##1":116,"##-":117,"##6":118,"##]":119,"##\\":120,"##$":121,"##{":122,"##}":123,"##^":124,"##>":125,"##+":126,"##9":127,"##8":128,"##/":129,"##*":130,"##!":131,"##<":132,"##@":133,"##=":134,"###":135,"##%":136,"##|":137,"##~":138,"##or":139,"##er":140,"##at":141,"##es":142,"##on":143,"##in":144,"##en":145,"##el":146,"##ch":147,"##ut":148,"##et":149,"##ar":150,"##al":151,"in":152,"de":153,"##le":154,"##an":155,"##elf":156,"self":157,"##ed":158,"##od":159,"##as":160,"##orch":161,"##pe":162,"##ion":163,"##ce":164,"th":165,"##t_":166,"torch":167,"):":168,"##am":169,"##put":170,"##ad":171,"##ro":172,"def":173,"##st":174,"##ing":175,"##iz":176,"##ty":177,"the":178,"##e_":179,"##ens":180,"##ct":181,"##tr":182,"##im":183,"##lo":184,"##it":185,"##mp":186,"##se":187,"##un":188,"##re":189,"##ue":190,"tes":191,"##ul":192,"##ck":193,"##vi":194,"##ensor":195,"()":196,"##_d":197,"##ur":198,"is":199,"op":200,"##ent":201,"##_s":202,"##ser":203,"for":204,"##ip":205,"##type":206,"##ort":207,"##ot":208,"##il":209,"input":210,"mod":211,"##ig":212,"devi":213,"as":214,"if":215,"##rad":216,"tr":217,"##um":218,"##ize":219,"',":220,"##ass":221,"##_m":222,"##and":223,"device":224,"tensor":225,"cl":226,"ret":227,"##_n":228,"##_in":229,"##ist":230,"st":231,"##ule":232,"##urn":233,"imp":234,"class":235,"return":236,"##id":237,"##ap":238,"##gs":239,"##ex":240,"##_p":241,"##ation":242,"##up":243,"import":244,"##ame":245,"test":246,"))":247,"re":248,"##qu":249,"##ol":250,"),":251,"ar":252,"##rom":253,"##ud":254,"con":255,"to":256,"('":257,"of":258,"##is":259,"non":260,"an":261,"##_c":262,"##ter":263,"##om":264,"],":265,"ex":266,"out":267,"asser":268,"lo":269,"##if":270,"dtype":271,"##op":272,"##atch":273,"##_f":274,"##ult":275,"##ic":276,"sh":277,"##ace":278,"true":279,"str":280,"none":281,"##_t":282,"int":283,"not":284,"##ble":285,"##ath":286,"##ver":287,"##loat":288,"from":289,"##ith":290,"##grad":291,"##aram":292,"test_":293,"##eck":294,"##kip":295,"##ff":296,"##ag":297,"assert":298,"##th":299,"##uda":300,"skip":301,"##_b":302,"##alse":303,"dim":304,"##ard":305,"##_size":306,"##ant":307,"##),":308,"##igh":309,"false":310,"##ers":311,"(\"":312,"##ction":313,"and":314,"at":315,"ch":316,"defa":317,"##ack":318,"##ate":319,"##est":320,"##eigh":321,"``":322,"##arg":323,"##pes":324,"float":325,"##ata":326,"args":327,"##types":328,"##ay":329,"##tim":330,"##ase":331,"##\"\"":332,"model":333,"##ib":334,"get":335,"on":336,"##rap":337,"##con":338,"##odule":339,"output":340,":`":341,"##ment":342,"##iv":343,"fun":344,"grad":345,"sc":346,"##ode":347,"val":348,"##able":349,"##ir":350,"##add":351,"default":352,"##_l":353,"be":354,"module":355,"##out":356,"ty":357,"##sp":358,"##00":359,"##ape":360,"with":361,"##pl":362,"##ess":363,"##eight":364,"or":365,"\",":366,"##pu":367,"##ork":368,"##all":369,"bu":370,"##equ":371,"check":372,"##ext":373,"param":374,"##nel":375,"al":376,"un":377,"##ator":378,"\"\"\"":379,"##ss":380,"##lob":381,"##fo":382,"##ple":383,"##ile":384,"##raph":385,"##em":386,"##ain":387,"##_h":388,"\")":389,"ad":390,"##end":391,"list":392,"nn":393,"##ias":394,"##],":395,"##adding":396,"batch":397,"wh":398,"##rip":399,"##roc":400,"##_input":401,"type":402,"rand":403,"el":404,"##fig":405,"num":406,"py":407,"##ror":408,"qu":409,"##it_":410,"##tion":411,"##ict":412,"##_grad":413,"##equal":414,"([":415,"add":416,"##ample":417,"##ero":418,").":419,"ob":420,"##_w":421,"targ":422,"target":423,"==":424,"####":425,"cuda":426,"##ool":427,"##ide":428,"assertequal":429,"res":430,"run":431,"##_r":432,"attr":433,"en":434,"##_name":435,"padding":436,"##ou":437,"##orm":438,"##args":439,"=[":440,"ma":441,"##cl":442,"##ript":443,"')":444,"co":445,"])":446,"##test":447,"weight":448,"##ension":449,"quant":450,"name":451,"se":452,"work":453,"##av":454,"conv":455,"len":456,"np":457,"##info":458,"_c":459,"##error":460,"##ank":461,"##uple":462,"##config":463,"##_g":464,"##ach":465,"##ial":466,"##case":467,"shape":468,"value":469,"':":470,"((":471,"zero":472,"##int":473,"##val":474,"##edu":475,"##ill":476,"stride":477,"##port":478,"##_out":479,"##roup":480,"##timiz":481,"function":482,"##ub":483,"pro":484,"##dex":485,"else":486,"bias":487,"math":488,"##ari":489,"ker":490,"ne":491,"##age":492,"kernel":493,"com":494,"data":495,"##ly":496,"##eth":497,"##ine":498,"##ast":499,"##_de":500,"node":501,"size":502,"##pec":503,"pr":504,"##per":505,"##ow":506,"set":507,"##module":508,"##aff":509,"(),":510,"option":511,"##_module":512,"testcase":513,"##rocess":514,"group":515,"##_op":516,"this":517,"quantiz":518,"##ps":519,"##ward":520,"##ore":521,"['":522,"iter":523,"##dp":524,"##torch":525,"##co":526,"##space":527,"all":528,"##_lo":529,"##ibut":530,"sample":531,"##par":532,"scal":533,"each":534,"pre":535,"##erator":536,"arg":537,"##ate_":538,"##ect":539,"skipc":540,"dist":541,"##ance":542,"##odel":543,"log":544,"shard":545,"dtypes":546,"tuple":547,"##pp":548,"##cal":549,"##cket":550,"##ument":551,"are":552,"caff":553,"ke":554,"##ult_":555,"##_init_":556,"lay":557,"##e2":558,"##gth":559,"form":560,"it":561,"##tern":562,"())":563,"##_tensor":564,"::":565,"net":566,"path":567,"##16":568,"##check":569,"workspace":570,"##ench":571,"by":572,"graph":573,"##ix":574,"inputs":575,"requ":576,"##place":577,"numb":578,"=(":579,"##_data":580,"##ethod":581,"caffe2":582,"sup":583,"##der":584,"optional":585,"##ep":586,"##cor":587,"##arn":588,"##_co":589,"='":590,"qconfig":591,"##ac":592,"##ary":593,"state":594,"##_output":595,"##_re":596,"##ging":597,"func":598,"layer":599,"optimiz":600,"number":601,"min":602,"redu":603,"##',":604,"##ang":605,"cont":606,"sy":607,"##oo":608,"##ient":609,"##ize_":610,"dimension":611,"##_st":612,"##ated":613,"loss":614,"##_inputs":615,"10":616,"##ames":617,"##_log":618,"format":619,"requir":620,"os":621,"text":622,"us":623,"##cript":624,"##lement":625,"##pect":626,"obser":627,"kw":628,"##2d":629,"##**":630,"bucket":631,"##_con":632,"pytorch":633,"max":634,"**":635,"so":636,"##_type":637,"##os":638,"##ise":639,"call":640,"##_o":641,"##ject":642,"##ory":643,"unit":644,"##ializ":645,">>":646,"no":647,"##ribut":648,"that":649,"##_dim":650,">>>":651,"']":652,"bool":653,"mas":654,"##nn":655,"##hape":656,"##ved":657,"##tra":658,"train":659,"##andl":660,"##thon":661,"requires":662,"__init_":663,"do":664,"##den":665,"##emp":666,"##set":667,"##32":668,"##idden":669,")),":670,"######":671,"__init__":672,"bro":673,"pl":674,"{}":675,"##fer":676,"##annel":677,"kwargs":678,"##tensor":679,"inst":680,"par":681,"##ma":682,"##que":683,"##low":684,"object":685,"ra":686,"##__":687,"##process":688,"##net":689,"load":690,"distribut":691,"cre":692,"hidden":693,"rank":694,"##gn":695,"##udaif":696,"##ouble":697,"skipcudaif":698,"unittest":699,"requires_grad":700,"can":701,"dict":702,"ign":703,"##blob":704,"##ode_":705,"expect":706,"jit":707,"##dic":708,"##ues":709,"##uff":710,"##ke":711,"##est_":712,"##ctiv":713,"##_logging":714,"core":715,"vari":716,"##dim":717,"##ark":718,"python":719,"##_and":720,"##inst":721,"##ther":722,"##_len":723,"##000":724,"##dexing":725,"_s":726,"other":727,"will":728,"##eg":729,"##chem":730,")))":731,"##ave":732,"##dp_logging":733,"##dp_logging_data":734,"dat":735,"element":736,"##ere":737,"##ans":738,"##ules":739,"##_dict":740,"stat":741,"##clud":742,"expected":743,"app":744,"we":745,"##us":746,"##adc":747,"##unc":748,"##inear":749,"sample_inputs":750,"##instance":751,"di":752,"size_":753,"##ab":754,"##ind":755,"exp":756,"##time":757,"script":758,"new":759,"comm":760,"place":761,"raise":762,"cpu":763,"fil":764,"sum":765,"##mark":766,"##fa":767,"##uld":768,"opinfo":769,"##romot":770,"##verage":771,"##chema":772,"##_ch":773,"##gist":774,"##e__":775,"().":776,"##old":777,"##enchmark":778,"##ange":779,"##dices":780,"[[":781,"gen":782,"##_tr":783,"##_types":784,"##ob":785,"##average":786,"ones":787,"comp":788,"append":789,"##ead":790,"##iter":791,"##unction":792,"observed":793,"]]":794,"ac":795,"tim":796,"use":797,"##ose":798,"##ez":799,"##ew":800,"##ces":801,"##form":802,"():":803,"##opy":804,"buff":805,"random":806,"##_graph":807,"##_channel":808,"12":809,"over":810,"schema":811,"##file":812,"isinstance":813,"skipif":814,"when":815,"##rocm":816,"scalar":817,"optimizer":818,"##base":819,"init":820,"##str":821,"##rect":822,"any":823,"integ":824,"result":825,"groups":826,"size_average":827,"back":828,"eps":829,"##ong":830,"##ence":831,"##ansp":832,"##true":833,"##ild":834,"skipinfo":835,"reduce":836,"activ":837,"##spec":838,"##inal":839,"##elu":840,"##e_f":841,"##_map":842,"key":843,"##andler":844,"broadc":845,"ignor":846,"variable":847,"]',":848,"##bias":849,"only":850,"paramet":851,"kernel_size":852,"argument":853,"support":854,"##_length":855,"'),":856,"..":857,"fc":858,"pack":859,"spec":860,"warn":861,"##model":862,"##ould":863,"dep":864,"##ingle":865,"operator":866,"##ilation":867,"see":868,"->":869,"]),":870,"},":871,"##_val":872,"##pack":873,"##float":874,"##yn":875,"##3d":876,"##{}":877,"##eta":878,"##lex":879,"##aset":880,"##sec":881,"##_model":882,"##_param":883,"##ive":884,"##ients":885,"cur":886,"sub":887,"##dat":888,"##_a":889,"##param":890,"##sion":891,"##tt":892,"##andle":893,"##_indexing":894,"##ist_":895,"example":896,"local":897,"##_blob":898,"distributed":899,"placement":900,"fe":901,"##de":902,"##ump":903,"##attern":904,"##enc":905,"decor":906,"##_shape":907,"forward":908,"asserttrue":909,"##avg":910,"##cope":911,"keep":912,"_g":913,"er":914,"##ied":915,"inplace":916,"ref":917,"consec":918,"should":919,"##_test":920,"grad_output":921,"where":922,"##_defa":923,"htt":924,"pad":925,"##ds":926,"##_id":927,"##_arg":928,"##pc":929,"##tx":930,"##bu":931,"##))":932,"##ils":933,"std":934,"##quant":935,"##ibatch":936,"##_rank":937,"minibatch":938,"##_cont":939,":/":940,"=\"":941,"ctx":942,"dilation":943,"gith":944,"linear":945,"##ant_":946,"##ast_":947,"##_buff":948,"##eight_":949,"check_indexing":950,"##ook":951,"##ost_":952,"instead":953,"://":954,"github":955,"copy":956,"fl":957,"has":958,"mat":959,"##pr":960,"##--":961,"##alf":962,"##vice":963,"modules":964,"devices":965,"returns":966,"##ations":967,"('[":968,"values":969,"##ialization":970,"mask":971,"##romotion":972,"##gister":973,"https":974,"].":975,"__f":976,"file":977,"##ke_":978,"##one":979,"iss":980,"device_type":981,"qconfig_dict":982,"training":983,"integers":984,"activation":985,"decorator":986,"##_default_":987,"'],":988,"]],":989,"blob":990,"gpu":991,"half":992,"})":993,"##ress":994,"##name":995,"##_dtypes":996,"star":997,"batch_size":998,"##ous":999,"length":1000,"##_channels":1001,"specif":1002,")`":1003,"_f":1004,"have":1005,"##dtype":1006,"##_i":1007,"##se_":1008,"##script":1009,"##ies":1010,"##iel":1011,"##ich":1012,"##to":1013,"##no":1014,"##input":1015,"##ent_":1016,"##etch":1017,"##rop":1018,"##stant":1019,"rem":1020,"which":1021,"need":1022,"##_comp":1023,"used":1024,"time":1025,"##rectory":1026,"_get":1027,"100":1028,"giv":1029,"mu":1030,"##uct":1031,"##cep":1032,"##urce":1033,"##andal":1034,"##_to":1035,"default_":1036,"gradcheck":1037,"##extension":1038,"randn":1039,"quantized":1040,"does":1041,"##umpy":1042,"given":1043,"0000":1044,"[]":1045,"aut":1046,"le":1047,"range":1048,"rpc":1049,"##\")":1050,"##test_":1051,"##ft":1052,"##77":1053,"then":1054,"##ull":1055,"##ures":1056,"##oth":1057,"##iffer":1058,":`(":1059,"super":1060,"##****":1061,"gener":1062,"decorators":1063,"][":1064,"ddp_logging_data":1065,"fetch":1066,"method":1067,"same":1068,"##path":1069,"##nom":1070,"##elper":1071,"##ross":1072,"tensors":1073,"##_nam":1074,"runtime":1075,"scale":1076,"graph_module":1077,"##_types_and":1078,"##inalg":1079,"##_default_dtype":1080,",),":1081,"long":1082,"numpy":1083,"##_z":1084,"##oint":1085,"##com":1086,"##names":1087,"##utur":1088,"##otal":1089,"##upport":1090,"##ises":1091,"##verag":1092,"att":1093,"elif":1094,"##_device":1095,"##traises":1096,"##sets":1097,"##indow":1098,"curr":1099,"keepdim":1100,"__futur":1101,"##ifferent":1102,"__future__":1103,"av":1104,"averag":1105,"match":1106,"ser":1107,"ut":1108,"##ld":1109,"##_args":1110,"##_extension":1111,"##ograd":1112,"##rit":1113,"##rix":1114,"##ced":1115,"##fn":1116,"##)),":1117,"##ell":1118,"indices":1119,"register":1120,"assertraises":1121,"aten":1122,"build":1123,"params":1124,"##_gradgrad":1125,"##int8":1126,"##########":1127,"buffer":1128,"##_lengths":1129,"error":1130,"double":1131,"mom":1132,"per":1133,"single":1134,"##ure":1135,"##pool":1136,"##1d":1137,"##ates":1138,"init_":1139,"##_db":1140,"op_b":1141,"op_db":1142,"##ention":1143,"input_size":1144,"##_info":1145,"##_padding":1146,"##_post_":1147,"##_func":1148,"iterable":1149,"prepar":1150,"skipcudaifrocm":1151,"##ansform":1152,"##anspose":1153,"##e_fx":1154,"depend":1155,"fetchblob":1156,"op_bench":1157,"##_post_process":1158,"`,":1159,"gc":1160,"temp":1161,"vers":1162,"weight_":1163,"##da":1164,"##_v":1165,"##med":1166,"##cum":1167,"##bda":1168,"##ampl":1169,"##ambda":1170,"##loss":1171,"##_set":1172,"##api":1173,"##_path":1174,"##_point":1175,"##_cl":1176,"##_for":1177,"##puif":1178,"##ally":1179,"##_res":1180,"##clar":1181,"functional":1182,"quantization":1183,"skipcpuif":1184,"divi":1185,"##ield":1186,"version":1187,"1e":1188,"emp":1189,"h_":1190,"lr":1191,"pattern":1192,"relu":1193,"sig":1194,"##ll":1195,"##mod":1196,"##oin":1197,"##ity":1198,"##ron":1199,"##cis":1200,"##nol":1201,"##bs":1202,"##e_s":1203,"trac":1204,"##_method":1205,"##apack":1206,"##_file":1207,"##agma":1208,"``,":1209,"coun":1210,"weights":1211,"contain":1212,"callable":1213,"master":1214,"skipcudaifnom":1215,"common":1216,"feat":1217,"##ency":1218,"autograd":1219,"runtimeerror":1220,"skipcpuifnol":1221,"##cision":1222,"skipcudaifnomagma":1223,"skipcpuifnolapack":1224,"\"]":1225,"_b":1226,"fir":1227,"lib":1228,"process":1229,"{'":1230,"##ean":1231,"##ha":1232,"##ort_":1233,"##ename":1234,"##als":1235,"##ings":1236,"##umer":1237,"constant":1238,"##version":1239,"##gradients":1240,"float16":1241,"##_list":1242,"##endez":1243,"##educe":1244,"##timizer":1245,"##_ops":1246,"losses":1247,"##_off":1248,"##max":1249,"##_buffer":1250,"activation_post_process":1251,"##indows":1252,"moment":1253,"empty":1254,"##endezv":1255,"\":":1256,"@@":1257,"`.":1258,"id":1259,"join":1260,"lambda":1261,"mult":1262,"w_":1263,"##\",":1264,"##cuda":1265,"##hard":1266,"##ype":1267,"##64":1268,"##ord":1269,"##attr":1270,"##one_":1271,"##lean":1272,"##its":1273,"##server":1274,"##_mode":1275,"##_net":1276,"##_py":1277,"##_fn":1278,"float32":1279,"##ript_":1280,"make_":1281,"hidden_size":1282,"##_offsets":1283,".,":1284,":]":1285,"[\"":1286,"_p":1287,"bfloat":1288,"cud":1289,"total":1290,"up":1291,"##dict":1292,"##ope":1293,"##ping":1294,"##gd":1295,"##qconfig":1296,"declar":1297,"##_dtype":1298,"optim":1299,"##_norm":1300,"testing":1301,"extra":1302,"skips":1303,"##conv":1304,"scope":1305,"]):":1306,"seq":1307,"##comp":1308,"sym":1309,"##ference":1310,"128":1311,"broadcast":1312,"##ync":1313,"start":1314,"##andalone_":1315,"momentum":1316,"bfloat16":1317,"20":1318,"ce":1319,"may":1320,"ro":1321,"sequ":1322,"ver":1323,"##_on":1324,"##_ex":1325,"##_iter":1326,"##_avg":1327,"##irectory":1328,"##tes":1329,"##graph":1330,"##work":1331,"##ative":1332,"##env":1333,"includ":1334,"##odes":1335,"##imple":1336,"open":1337,"##sert_":1338,"##_node_":1339,"##_test_":1340,"outputs":1341,"item":1342,"##ternal":1343,"sys":1344,"##observer":1345,"backward":1346,"parameter":1347,"##_complex":1348,"##upported":1349,"averaged":1350,"##amples":1351,"containing":1352,"first":1353,"ceil":1354,"cross":1355,"fn":1356,"linalg":1357,"man":1358,"nam":1359,"rendezv":1360,"spl":1361,"tod":1362,"##ax":1363,"##ags":1364,"##pha":1365,"##benchmark":1366,"##yp":1367,"##_mat":1368,"##_min":1369,"##_names":1370,"testgradients":1371,"##olut":1372,"##argument":1373,"unbias":1374,"##emory":1375,"valueerror":1376,"proto":1377,"precision":1378,"##_ref":1379,"##queue":1380,"##key":1381,"stats":1382,"filter":1383,"observed_graph":1384,"attention":1385,"##apipe":1386,"todo":1387,"unbiased":1388,"\".":1389,"_test_":1390,"ap":1391,"dt":1392,"den":1393,"eval":1394,"rnn":1395,"##_un":1396,"##ec":1397,"##aun":1398,"##po":1399,"##promotion":1400,"##\".":1401,"##res":1402,"##ken":1403,"##func":1404,"##ink":1405,"##elp":1406,"##eters":1407,"index":1408,"##rol":1409,"orig":1410,"print":1411,"source":1412,"create_":1413,"##_trace":1414,"##othes":1415,"##_zero":1416,"root":1417,"##ypothes":1418,"##aunch":1419,"!=":1420,"drop":1421,"different":1422,"ev":1423,"glob":1424,"slow":1425,"zip":1426,"##lic":1427,"##min":1428,"##ail":1429,"##ta":1430,"##ten":1431,"##gex":1432,"##01":1433,"##99":1434,"##e_in":1435,"##ref":1436,"##idth":1437,"##isc":1438,"##ome":1439,"excep":1440,"##ops":1441,"##_function":1442,"##allel":1443,"alpha":1444,"##_weight":1445,"env":1446,"##placement":1447,"create":1448,"sample_inputs_func":1449,"issue":1450,"##rite":1451,"mayb":1452,"ceil_mode":1453,"named":1454,"##_matrix":1455,"\"],":1456,"cal":1457,"des":1458,"fx":1459,"fout":1460,"hu":1461,"pass":1462,"var":1463,"}}":1464,"##md":1465,"##ov":1466,"##gen":1467,"##gine":1468,"##qa":1469,"##vari":1470,"##73":1471,"##etr":1472,"##_double":1473,"##_ddp_logging_data":1474,"##_directory":1475,"is_w":1476,"##_scal":1477,"##typepromotion":1478,"cls":1479,"testtypepromotion":1480,"##ics":1481,"test_fn":1482,"##_batch":1483,"floating":1484,"float_double":1485,"##irs":1486,"conv2d":1487,"zero_point":1488,"##_opt":1489,"iteration":1490,"sampleinput":1491,"dtypesif":1492,"noqa":1493,"##queez":1494,"summed":1495,"##dataset":1496,"##params":1497,"features":1498,"float_double_default_dtype":1499,"ax":1500,"but":1501,"benchmark":1502,"beta":1503,"nc":1504,"##late":1505,"##_qu":1506,"##rt":1507,"##ner":1508,"##with":1509,"##elta":1510,"##ed_module":1511,"##t_in":1512,"##repack":1513,"ops":1514,"##ility":1515,"##_indices":1516,"assert_":1517,"##_tuple":1518,"test_s":1519,"one":1520,"##plic":1521,"##_hook":1522,"##_work":1523,"attribut":1524,"##cord":1525,"syn":1526,"parser":1527,"dataset":1528,"##clude_":1529,"observed_node_":1530,"broadcast_":1531,"parameters":1532,"##bug":1533,"##quantize":1534,"##names_set":1535,"##cumul":1536,"test_fn_gradgrad":1537,"nccl":1538,"observed_node_names_set":1539,"\"),":1540,"_in":1541,"bn":1542,"code":1543,"hip":1544,"height":1545,"hypothes":1546,"ms":1547,"mul":1548,"que":1549,"spar":1550,"save":1551,"width":1552,"##method":1553,"##ost":1554,"##oid":1555,"##ray":1556,"##reduce":1557,"##cay":1558,"##handler":1559,"##fin":1560,"##function":1561,"##xy":1562,"##orary":1563,"##orld":1564,"##inator":1565,"debug":1566,"##ason":1567,"mode":1568,"device_id":1569,"##optimizer":1570,"struct":1571,"##cond":1572,"gradient":1573,"order":1574,"##_handler":1575,"second":1576,"zero_de":1577,"##ether":1578,"['[":1579,"shard_offsets":1580,"##derr":1581,"ignores":1582,"local_rank":1583,"##ression":1584,"must":1585,"utils":1586,"##andalone_module":1587,"namedt":1588,"##queeze":1589,"zero_debias":1590,"999":1591,"]:":1592,"__nam":1593,"bs":1594,"cpp":1595,"ddp":1596,"disc":1597,"mess":1598,"node_":1599,"##uss":1600,"##ufunc":1601,"##eam":1602,"##ak":1603,"##pad":1604,"##size":1605,"##ick":1606,"##not":1607,"##b2":1608,"##back":1609,"##}],":1610,"in_channels":1611,"##oder":1612,"##ized":1613,"##und":1614,"##_script":1615,"##_sync":1616,"##_new":1617,"step":1618,"##_per":1619,"##_prepack":1620,"repo":1621,"ext":1622,"get_":1623,"##cont":1624,"##spar":1625,"##_handle":1626,"nnq":1627,"run_test":1628,"quantize_":1629,"all_types_and":1630,"##_init_net":1631,"dimensions":1632,"##_of":1633,"##ialized":1634,"broken":1635,"distribution":1636,"elements":1637,"buffers":1638,"packag":1639,"##_context":1640,"flat":1641,"##ftmax":1642,"##comment":1643,"cudnn":1644,"items":1645,"rendezvous":1646,"issuecomment":1647,"is_windows":1648,"##_workers":1649,"__name__":1650,"(*":1651,")]":1652,"]\",":1653,"bet":1654,"cand":1655,"foo":1656,"field":1657,"nll":1658,"uint8":1659,"##des":1660,"##mul":1661,"##st_":1662,"##ian":1663,"##')":1664,"##473":1665,"##61":1666,"##stm":1667,"##viron":1668,"##_ddp":1669,"##_max":1670,"tests":1671,")):":1672,"##olle":1673,"out_channels":1674,"loc":1675,"##option":1676,"##operator":1677,"##_fil":1678,"##ager":1679,"##_bu":1680,"output_size":1681,"checkscript":1682,"##figs":1683,"engine":1684,"shard_lengths":1685,"##aryufunc":1686,"layer_data":1687,"##andles":1688,"##abel":1689,"ignored":1690,"warnings":1691,"remot":1692,"dependency":1693,"count_in":1694,"sequence":1695,"device_ids":1696,"message":1697,"candid":1698,"count_include_":1699,"({":1700,".\")":1701,"477":1702,"7473":1703,"_j":1704,"_module":1705,"action":1706,"cor":1707,"mean":1708,"norm":1709,"names":1710,"nodes":1711,"pull":1712,"rh":1713,"vi":1714,"##lags":1715,"##dir":1716,"##_en":1717,"##_se":1718,"##supported":1719,"##norm":1720,"##fix":1721,"##ytes":1722,"##10":1723,"##int_":1724,"##eter":1725,"##etensor":1726,"##ared":1727,"##arallel":1728,"##izes":1729,"##ense":1730,"##regex":1731,"##serialization":1732,"##_pb2":1733,"testspar":1734,"array":1735,"##_cuda":1736,"##_from":1737,"##ical":1738,"note":1739,"##ayers":1740,":`\\":1741,"##mented":1742,"valid":1743,"whether":1744,"##ools":1745,"attrs":1746,"worker":1747,"_cre":1748,"zeros":1749,"##valid":1750,"##1677":1751,"caffe2_pb2":1752,"##_stat":1753,"##emporary":1754,"load_arg":1755,"skipifrocm":1756,"supported":1757,"gradchecks":1758,"avg":1759,"assertraisesregex":1760,"idx":1761,"##ordinator":1762,"split":1763,"##olution":1764,"axis":1765,"namedtemporary":1766,"discuss":1767,"count_include_pad":1768,"47761":1769,"74731677":1770,"testsparse":1771,"namedtemporaryfile":1772,"discussion":1773,"747316775":1774,"+=":1775,"--":1776,"[:":1777,"cu":1778,"cmd":1779,"hook":1780,"label":1781,"t_co":1782,"{{":1783,"##linear":1784,"##_as":1785,"##_ct":1786,"##ux":1787,"##ry":1788,"##top":1789,"##cript_":1790,"##ked":1791,"##nx":1792,"##bol":1793,"##${":1794,"##utils":1795,"##ctu":1796,"##ition":1797,"##unt":1798,"##read":1799,"implement":1800,"##_cpu":1801,"##ict_":1802,"##_th":1803,"int64":1804,"model_ddp":1805,"##_link":1806,"module_name":1807,"typing":1808,"num_l":1809,"seed":1810,"pred":1811,"##cords":1812,"optimization":1813,"##criptor":1814,"filename":1815,"##anspos":1816,"operators":1817,"##_params":1818,"placementspec":1819,"##decay":1820,"##_argument":1821,"devicescope":1822,"specified":1823,"##********":1824,"declaration":1825,"symbol":1826,"##implemented":1827,"##sert_observer":1828,"queue":1829,"ddp_model":1830,"packaging":1831,"rho":1832,"symbolic":1833,"__g":1834,"ast":1835,"bas":1836,"case":1837,"fin":1838,"n_dim":1839,"##les":1840,"##oc":1841,"##ef":1842,"##cd":1843,"##node":1844,"##hold":1845,"##`.":1846,"##inue":1847,"##ely":1848,"##elect":1849,"##are_":1850,"dequantize":1851,"thres":1852,"##reference":1853,"##ilder":1854,"##aparallel":1855,"read":1856,"replic":1857,"examples":1858,"stream":1859,"into":1860,"##verr":1861,"##_bytes":1862,"##ctions":1863,"channel":1864,"once":1865,"##rapper":1866,"output_padding":1867,"grad_tensor":1868,"gradients":1869,"buf":1870,"##_with":1871,"]))":1872,"proxy":1873,"##arity":1874,"prod":1875,"reduced":1876,"continue":1877,"##_configs":1878,"max_buffer":1879,"softmax":1880,"doc":1881,"parse_":1882,"_shard":1883,"static":1884,"##ability":1885,"generator":1886,"##obile":1887,"complex":1888,"backend":1889,"keys":1890,"flag":1891,"##_device_opt":1892,"serialization":1893,"division":1894,"##_pytorch":1895,"##ailable":1896,"##descriptor":1897,"_jit_":1898,"__get":1899,"astype":1900,"threshold":1901,"reduced_grad":1902,"''":1903,"16":1904,"br":1905,"cnn":1906,"clean":1907,"dst_":1908,"ele":1909,"fill":1910,"last":1911,"my":1912,"memory":1913,"sp":1914,"sort_":1915,"squeeze":1916,"tan":1917,"you":1918,"##data":1919,"##uc":1920,"##pro":1921,"##sum":1922,"##ible":1923,"##run":1924,"##cus":1925,"##ning":1926,"##helper":1927,"##fter":1928,"##12":1929,"##orage":1930,"##elem":1931,"info":1932,"##log":1933,"##unsupported":1934,"##iple":1935,"stderr":1936,"##olver":1937,"config":1938,"##ibr":1939,"get_tensor":1940,"##_launch":1941,"numel":1942,"add_argument":1943,"enumer":1944,"make":1945,"##class":1946,"zero_dim":1947,"##per_tensor":1948,"##parse":1949,"##_str":1950,"ignore":1951,"datapipe":1952,"##gistry":1953,"##packed":1954,"##nocus":1955,"learn":1956,"rpc_sync":1957,"##_name_":1958,"##################":1959,"iterabledataset":1960,"##_class":1961,"##_forward":1962,"##_only":1963,"attention_weight":1964,"denied":1965,"global":1966,"dtypesifcuda":1967,"extension":1968,"namescope":1969,"num_layers":1970,"parse_args":1971,"elem":1972,"##nocusolver":1973,",))":1974,"25":1975,"_tr":1976,"_un":1977,"_check":1978,"ab":1979,"abs":1980,"b_h":1981,"cast":1982,"colle":1983,"est":1984,"hat":1985,"how":1986,"help":1987,"map":1988,"ple":1989,"pick":1990,"sm":1991,"s1":1992,"sort":1993,"ur":1994,"write":1995,"##det":1996,"##_old":1997,"##_3d":1998,"##_qconfig":1999,"##_queue":2000,"##act":2001,"##rank":2002,"##way":2003,"##wise":2004,"##handle":2005,"##..":2006,"##xt":2007,"##atter":2008,"##once":2009,"##edblob":2010,"##e_tr":2011,"is_pytorch":2012,"oper":2013,"##ents":2014,"##_so":2015,"##_sh":2016,"##_sub":2017,"try":2018,"##_num":2019,"##_node":2020,"##_pro":2021,"##olv":2022,"top":2023,"exist":2024,"int32":2025,"test_in":2026,"model_name_":2027,"param_init_net":2028,"allow":2029,"quant_":2030,"##_wrapper":2031,"target_g":2032,"running":2033,"covari":2034,"##testbase":2035,"##_gpu":2036,"probs":2037,"comput":2038,"print_":2039,"##ult_type":2040,"context":2041,"loaded":2042,"##_and_complex":2043,"_size":2044,"files":2045,"##_transpose":2046,"times":2047,"supports":2048,"stdout":2049,"##_control":2050,"masked":2051,"issues":2052,"current":2053,"prepare_fx":2054,"tempfile":2055,"sign":2056,"##modules":2057,"activation_post_process_map":2058,"_pre":2059,"upd":2060,"optimize":2061,"exception":2062,"##generator":2063,"floating_and_complex":2064,"flatten":2065,"candidates":2066,"_create_":2067,"get_tensor_input":2068,"estim":2069,"please":2070,"'.":2071,",)":2072,".\"":2073,"]`":2074,"b_i":2075,"ctypes":2076,"f4":2077,"main":2078,"native":2079,"tw":2080,"tmp":2081,"}\\":2082,"##list_":2083,"##ded":2084,"##_al":2085,"##_is":2086,"##_error":2087,"##_key":2088,"##mon":2089,"##mix":2090,"##cur":2091,"##wn":2092,"##fill":2093,"##'.":2094,"##vations":2095,"##):":2096,"##onnx":2097,"##ellow":2098,"intern":2099,"indexing":2100,"##anc":2101,"##eddict":2102,"##transform":2103,"##unaryufunc":2104,"##_sizes":2105,"##_mod":2106,"##_numer":2107,"##_pr":2108,"testonnx":2109,"testunaryufunc":2110,"##_cell":2111,"##opset":2112,"test_reference":2113,"##ight":2114,"##estcase":2115,"models":2116,"output_directory":2117,"grad_co":2118,"valu":2119,"check_batch":2120,"randint":2121,"target_h":2122,"environ":2123,"quantize":2124,"proper":2125,"##_option":2126,"preprocess":2127,"prefix":2128,"shards":2129,"##checks":2130,"##_logits":2131,"using":2132,"observations":2133,"##_ob":2134,"##uffers":2135,"]]]":2136,"accumul":2137,"skipifunsupported":2138,"initial":2139,"...":2140,"subprocess":2141,"##dataparallel":2142,"filepath":2143,"remov":2144,"current_":2145,"manager":2146,"appl":2147,"##licing":2148,"maybe_":2149,"##_quant_":2150,"sync":2151,"sparse_":2152,"quantize_per_tensor":2153,"##_files":2154,"##cript_module":2155,"optimization_b":2156,"replica":2157,"channels":2158,"tanh":2159,"##runtime":2160,"f401":2161,"nativeargument":2162,"##ellowfin":2163,"##_numerics":2164,"testonnxruntime":2165,"testunaryufuncs":2166,"##opsetversion":2167,"test_reference_numerics":2168,"grad_coef":2169,"check_batched":2170,"32":2171,"64":2172,"_r":2173,"_conv":2174,"`:":2175,"cd":2176,"don":2177,"lin":2178,"line":2179,"rel":2180,"sq":2181,"sin":2182,"squ":2183,"user":2184,"##li":2185,"##liter":2186,"##_k":2187,"##_j":2188,"##_version":2189,"##_elem":2190,"##ound":2191,"##use":2192,"##een":2193,"##ever":2194,"##air":2195,"##pand":2196,"##rel":2197,"##ween":2198,"##fil":2199,"##ors":2200,"##erm":2201,"##ater":2202,"##enorm":2203,"##util":2204,"inter":2205,"##anch":2206,"##ases":2207,"##transpose":2208,"##loo":2209,"##unk":2210,"##view":2211,"##_select":2212,"trans":2213,"##_mu":2214,"##andnocusolver":2215,"##_no":2216,"arange":2217,"##_fold":2218,"##icode_":2219,"chunk":2220,"##ive_":2221,"##_lr":2222,"##_last":2223,"unicode_":2224,"##_input_padding":2225,"([\"":2226,"([[":2227,"added":2228,"targets":2229,"result_type":2230,"runnet":2231,"##_run":2232,"enc":2233,"cos":2234,"quants":2235,"conv_transpose":2236,"pretr":2237,"group_size":2238,"graphmodule":2239,"qconfig_map":2240,"instant":2241,"parent":2242,"expand":2243,"compression":2244,"distributeddataparallel":2245,"feedblob":2246,"##_buffers":2247,"weight_decay":2248,"##_var":2249,"common_dtype":2250,"skipcudaifnomagmaandnocusolver":2251,"drop_last":2252,"fout_path":2253,"ordereddict":2254,"##_scripted_module":2255,"##context":2256,"between":2257,"nllmodel":2258,"##_ctx":2259,"clean_ctx":2260,"b_hh":2261,"collections":2262,"##ways":2263,"##_source":2264,"_prepar":2265,"b_ih":2266,"unicode_liter":2267,"'{}":2268,":,":2269,"]}],":2270,"_all":2271,"ag":2272,"actu":2273,"cases":2274,"dc":2275,"dist_":2276,"fr":2277,"fol":2278,"full":2279,"gloo":2280,"handle":2281,"io":2282,"li":2283,"old":2284,"x_t":2285,"##lag":2286,"##dent":2287,"##_e":2288,"##_av":2289,"##_check":2290,"##mm":2291,"##mult":2292,"##af":2293,"##ake":2294,"##patch":2295,"##pattern":2296,"##iable":2297,"##ret":2298,"##bose":2299,"##vrt":2300,"##ating":2301,"##atype":2302,"##adam":2303,"##ingspec":2304,"##ree":2305,"()),":2306,"##_dir":2307,"op_info":2308,"##_sparse":2309,"##sert":2310,"##ign":2311,"device_option":2312,"##_inter":2313,"##istestcase":2314,"##_pool":2315,"constr":2316,"##ispatch":2317,"##_fx":2318,"##ically":2319,"show":2320,"##ather":2321,"test_n":2322,"child":2323,"##ateg":2324,"get_ddp_logging_data":2325,"get_forward":2326,"script_":2327,"##_helper":2328,"##_handles":2329,"batch_shape":2330,"typeerror":2331,"ens":2332,"=[\"":2333,"provi":2334,"##ance_matrix":2335,"##calar":2336,"()):":2337,"##_count":2338,"min_val":2339,"##ang_launch":2340,"{}\".":2341,"##dims":2342,"otherwise":2343,"datatype":2344,"directory":2345,"distributedtest":2346,"ref_m":2347,"_get_ddp_logging_data":2348,"gradcheck_wrapper":2349,"method_name":2350,"##common":2351,"##pool2d":2352,"##_clang_launch":2353,"traced":2354,"verbose":2355,"##worker":2356,"filters":2357,"##ect_":2358,"original":2359,"##minopsetversion":2360,"##e_index":2361,"desc":2362,"attribute":2363,"_internal":2364,"hip_clang_launch":2365,"hypothesistestcase":2366,"dependency_graph":2367,"##sert_observer_for":2368,"packagingerror":2369,"branch":2370,"myscript":2371,"pickle":2372,"##handled":2373,"##e_tril":2374,"is_pytorch_extension":2375,"operation":2376,"covariance_matrix":2377,"print_function":2378,"flatten_indices":2379,"##list_no":2380,"##mixin":2381,"property":2382,"skipifunsupportedminopsetversion":2383,"check_batched_gradgrad":2384,"instanti":2385,"unicode_literals":2386,"##_available":2387,"##vrtc":2388,")(":2389,".\"\"":2390,"//":2391,">=":2392,"[],":2393,"_w":2394,"_re":2395,"__m":2396,"dr":2397,"det":2398,"delta":2399,"metr":2400,"n_iter":2401,"post":2402,"wrap":2403,"x_":2404,"yield":2405,"}.":2406,"##match":2407,"##az":2408,"##awn":2409,"##io":2410,"##cre":2411,"##ng":2412,"##num":2413,"##yellowfin":2414,"int_":2415,"insert":2416,"##ask":2417,"thir":2418,"##stat":2419,"##e_if":2420,"##lose":2421,"##lock":2422,"##unex":2423,"##_different":2424,"##_spec":2425,"##_slicing":2426,"trace":2427,"transpos":2428,"##_match":2429,"##_index":2430,"##_pack":2431,"repr":2432,"replacement":2433,"recur":2434,"##_float":2435,"test_f":2436,"(\"[":2437,"getattr":2438,"output_blob":2439,"##iled":2440,"##ain__":2441,"##_help":2442,"##_warn":2443,"reset":2444,"##_rate":2445,"enum":2446,"'):":2447,"conv3d":2448,"_cuda":2449,"prob":2450,"neg":2451,"##own":2452,"##_module_map":2453,"quantizer":2454,"logging":2455,"##_output_of":2456,"control":2457,"use_":2458,"##ializer":2459,"part":2460,"scriptmodule":2461,"accep":2462,"##rectly":2463,"'),)),":2464,"seek":2465,"##ynam":2466,"##_parameters":2467,"##_tests":2468,"##builder":2469,"generate_":2470,"generated":2471,"register_quant_":2472,"libr":2473,"processes":2474,"multi":2475,"make_tensor":2476,"sym_help":2477,"backward_cell":2478,"event_":2479,"test_shape":2480,"msg":2481,"##orld_size":2482,"all_types_and_complex":2483,"##10d":2484,"##_link_args":2485,"##implementederror":2486,"symbolic_trace":2487,"##verride":2488,"serializationmixin":2489,"##ibration":2490,"##_controls":2491,"two":2492,"apply":2493,"maybe_unex":2494,"##lice":2495,"follow":2496,"##sert_observer_for_output_of":2497,"__main__":2498,"##azy":2499,"third":2500,"repres":2501,"accept":2502,"register_quant_pattern":2503,"backward_cell_net":2504,"maybe_unexpand":2505,")}":2506,"001":2507,"50":2508,"_l":2509,"_i":2510,"_as":2511,"_grad":2512,"bin":2513,"boo":2514,"cfloat":2515,"div":2516,"dill":2517,"et":2518,"equ":2519,"fb":2520,"find":2521,"gre":2522,"hard":2523,"hparam":2524,"k0":2525,"last_":2526,"launch":2527,"mo":2528,"mobile":2529,"pip":2530,"pow":2531,"rff":2532,"sw":2533,"some":2534,"windows":2535,"y_n":2536,"##lstm":2537,"##_it":2538,"##_add":2539,"##_utils":2540,"##og":2541,"##our":2542,"##user":2543,"##ped":2544,"##relu":2545,"##cess":2546,"##cast":2547,"##cpp":2548,"##nd":2549,"##batch":2550,"##fore":2551,"##flags":2552,"##24":2553,"##ese":2554,"##art_":2555,"##ed_":2556,"##ed_model":2557,"##ed_batch":2558,"##ed_params":2559,"thro":2560,"these":2561,"##roadc":2562,"##e_spec":2563,"##e_node":2564,"##tre":2565,"##local":2566,"##seq":2567,"##registry":2568,"is_st":2569,"##ipfile":2570,"##_mean":2571,"##_memory":2572,"clone":2573,"classes":2574,"reason":2575,"records":2576,"contr":2577,"##ish":2578,"##_code":2579,"logs":2580,"##_tol":2581,"int8":2582,"notimplementederror":2583,"##vert":2584,"##gradient":2585,"test_p":2586,"test_util":2587,"##_back":2588,"dims":2589,"(\"--":2590,"``.":2591,"grads":2592,"##_linalg":2593,"before":2594,"ort":2595,"check_error":2596,"check_slicing":2597,"union":2598,"pytest":2599,"enable":2600,"could":2601,"works":2602,"##configs":2603,"##_group":2604,"zero_":2605,"##value":2606,"functions":2607,"iterator":2608,"allreduce":2609,"logits":2610,"its":2611,"##_tensors":2612,"observer":2613,"bucket_sizes":2614,"{},":2615,"created":2616,"cannot":2617,"##use_fx":2618,"[[[":2619,"optimizertestbase":2620,"active_if":2621,"##e_for":2622,"ignore_index":2623,"package":2624,"packed_module":2625,"##_parameter":2626,"##_idx":2627,"##bucket":2628,"mat2":2629,"mat1":2630,"matrix":2631,"filecheck":2632,"})`":2633,"specify":2634,"_function":2635,"needed":2636,"##andalone":2637,"##_zipfile":2638,"avoid":2639,"aten_name":2640,"patterns":2641,"tracer":2642,"constantfill":2643,":]',":2644,"declarations":2645,"seq_len":2646,"include":2647,"attention_logits":2648,"dt2":2649,"dt1":2650,"except":2651,"maybe_in":2652,"hypothesis":2653,"##backend":2654,"loc_":2655,"##_bucket":2656,"view":2657,"##reads":2658,"predict_":2659,"max_buffered_batch":2660,"staticmethod":2661,"fill_":2662,"sort_key":2663,"however":2664,"topk":2665,"target_g_norm":2666,"##ancenorm":2667,"##_prod":2668,"preprocessor":2669,"sparse_dims":2670,"encoder":2671,"pretransform":2672,"again":2673,"actual":2674,"metric":2675,"posttransform":2676,"##ynamic":2677,"rff_output":2678,"##cpp_extension":2679,"is_standalone_module":2680,"check_slicing_tuple":2681,"max_buffered_batches":2682,",)),":2683,"19":2684,"5000":2685,"<=":2686,">)":2687,"_ac":2688,"_input":2689,"_placement":2690,"after":2691,"bre":2692,"both":2693,"cach":2694,"cell":2695,"del":2696,"fa":2697,"found":2698,"go":2699,"gather":2700,"h_n":2701,"helper":2702,"ji":2703,"k3":2704,"k1":2705,"lstm":2706,"next":2707,"ptr":2708,"row":2709,"txt":2710,"take":2711,"your":2712,"}^":2713,"##_1d":2714,"##oad":2715,"##uous":2716,"##pen":2717,"##pass":2718,"##p16":2719,"##:,":2720,"##so":2721,"##sist":2722,"##sible":2723,"##iary":2724,"##rc":2725,"##tetensor":2726,"##tools":2727,"##cpu":2728,"##wrap":2729,"##word":2730,"##50":2731,"##vd":2732,"##var":2733,"##jac":2734,"##atform":2735,"##utex":2736,"##etad":2737,"##ales":2738,"internal":2739,"than":2740,"torch_test_":2741,"them":2742,"##e_d":2743,"##e_im":2744,"##ctools":2745,"opspec":2746,"##iliary":2747,"input_blob":2748,"##iguous":2749,"##_meta":2750,"deviceoption":2751,"implic":2752,"return_indices":2753,"##apes":2754,"##_par":2755,"##_promotion":2756,"testcommon":2757,"replace":2758,"record":2759,"arch":2760,"##_cast":2761,"exec":2762,"low":2763,"##ify":2764,"##_flags":2765,"##ace_module_map":2766,"##_torch":2767,"##_bn":2768,"##_benchmark":2769,"(\"\"\"":2770,"##ayer":2771,"get_a":2772,"##conds":2773,"functools":2774,"being":2775,"typ":2776,"unhandled":2777,"\"\"\")":2778,"##_home":2779,"type_as":2780,"typevar":2781,"numer":2782,"(['":2783,"add_":2784,"addition":2785,"reshape":2786,"##_rel":2787,"##_reduce":2788,"=['":2789,"'))":2790,"conv1d":2791,"conv_3d":2792,"convolv":2793,"convtranspose":2794,"data_workers":2795,"##_optimizer":2796,"itertools":2797,"logdir":2798,"logdet":2799,"bytetensor":2800,"='{}":2801,"##acing":2802,"##_outputs":2803,"##_record":2804,"layer_name":2805,"dimensional":2806,"##_start_":2807,"1024":2808,"bucket_bytes":2809,"##_constant":2810,"max_val":2811,"##empty":2812,"##tensors":2813,"_single":2814,"statregistry":2815,"##clude":2816,"sample_inputs_linalg":2817,"##ables":2818,"sum_":2819,"]]}],":2820,"act_":2821,"warning":2822,"##modelhelper":2823,"depth":2824,"##_valid":2825,"##parameters":2826,"##encoder":2827,"err":2828,"##quantized":2829,":`(\\":2830,"serialized":2831,"depending":2832,"gcs":2833,"##medi":2834,"divisible":2835,"h_0":2836,"##e_size":2837,"_buffers":2838,"activation_post_process_index":2839,"##hardingspec":2840,"extra_link_args":2841,"starts":2842,"cross_prod":2843,"manu":2844,"precision_matrix":2845,"filtered":2846,"calibration":2847,"##_scale":2848,"##_scalar":2849,"##_qual":2850,"##optimizertype":2851,"##_per_channel":2852,"normal":2853,"via":2854,"##uxiliary":2855,"##_threads":2856,"reader":2857,"grad_tensor2":2858,"_jit_pass":2859,"attention_weights":2860,"_trace_module_map":2861,"##_subgraph":2862,"compute":2863,"signal":2864,"updated":2865,"##_always":2866,"current_env":2867,"cdouble":2868,"linux":2869,"since":2870,"runnetonce":2871,"frac":2872,"like":2873,"ensure":2874,"provided":2875,".\"\"\"":2876,"recurr":2877,"_cudabase":2878,"control_input":2879,"all_types_and_complex_and":2880,"following":2881,"_as_parameter":2882,"binary":2883,"mobileoptimizertype":2884,"##_iters":2885,"maybe_insert_observer_for_output_of":2886,"##etadata":2887,"torch_test_cpp_extension":2888,"implicit":2889,"get_auxiliary":2890,"conv_3d_configs":2891,"convolving":2892,"logdetjac":2893,"activation_post_process_indexes":2894,"_as_parameter_":2895,"get_auxiliary_parameters":2896,"(-":2897,"({}":2898,".],":2899,"05":2900,"30":2901,"_m":2902,"_a":2903,"_valid":2904,"c3":2905,"cod":2906,"categ":2907,"dot":2908,"f_dtypes":2909,"fail":2910,"handler":2911,"h_min":2912,"handles":2913,"me":2914,"pos":2915,"promot":2916,"promotion":2917,"qint8":2918,"qconv":2919,"rate":2920,"rref":2921,"su":2922,"sim":2923,"sgd":2924,"simple":2925,"samples":2926,"saf":2927,"tags":2928,"was":2929,"way":2930,"world_size":2931,"yet":2932,"##line":2933,"##dep":2934,"##_one":2935,"##_yellowfin":2936,"##most_":2937,"##metadata":2938,"##override":2939,"##ue_":2940,"##eat":2941,"##pt_":2942,"##pag":2943,"##ri":2944,"##cul":2945,"##copy":2946,"##close":2947,"##gh":2948,"##gress":2949,"##nvrtc":2950,"##ore_":2951,"##onent":2952,"##init":2953,"##etemp":2954,"##almost_":2955,"dedent":2956,"##leans":2957,"defin":2958,"##storage":2959,"##e_types":2960,"##itian":2961,"##reason":2962,"##entrop":2963,"##ilit":2964,"tensor_meta":2965,"standalone":2966,"##apt":2967,"##export":2968,"##_pl":2969,"##ationcontext":2970,"##uples":2971,"tool":2972,"##_cap":2973,"##_com":2974,"exit":2975,"export":2976,"##_fork":2977,"##_flag":2978,"short":2979,"shapes":2980,"string":2981,"test_tensor":2982,"test_serialization":2983,"dim_out":2984,"##ested":2985,"model0":2986,"get_default_dtype":2987,":`~":2988,"scatter":2989,"defaults":2990,"types":2991,"##spadd":2992,"check_n":2993,"check_name":2994,"check_trace":2995,"##ained":2996,"\"):":2997,"adapt":2998,"nnz":2999,"batchnorm":3000,"##_input_workers":3001,"##oub":3002,"maked":3003,"_co":3004,"propag":3005,"kernel32":3006,"options":3007,"##_optim":3008,"##coales":3009,"##_load":3010,"##parser":3011,"shardmetadata":3012,"formals":3013,"bytes":3014,"##_records":3015,"reduction":3016,"no_args":3017,"##queues":3018,"##ctive":3019,"_scalar":3020,"statist":3021,"weak":3022,"exponent":3023,"acc":3024,"operator_benchmark":3025,"subgraph":3026,"##datapipe":3027,"example_inputs":3028,"matmul":3029,"mask_select":3030,")`.":3031,"_for":3032,"default_generator":3033,"##test_args":3034,"matches":3035,"error_context":3036,"##pool3d":3037,"init_ops":3038,"init_data":3039,"prepare_":3040,"template":3041,"##llloss":3042,"master_grad":3043,"master_device_opt":3044,"##compare_":3045,"vert":3046,"##_exp":3047,"##workspace":3048,"##benchmarkbase":3049,"##olute_im":3050,"precisionoverride":3051,"##_zero_point":3052,"event":3053,"calcul":3054,"deser":3055,"dtypesifcpu":3056,"assert_almost_":3057,"attributes":3058,"debug_records":3059,"['[:,":3060,"get_all":3061,"remote":3062,"##_enable":3063,"##_from_mod":3064,"##_stats":3065,"avg_pool":3066,"[:,":3067,"implementation":3068,"##****************":3069,"_shard_lengths":3070,"_shard_offsets":3071,"'''":3072,"stderr_handle":3073,"learning":3074,"learnable":3075,"extensions":3076,"256":3077,"absolute_im":3078,"small":3079,"url":3080,"##_short":3081,"exists":3082,"model_name_0":3083,"stdout_handle":3084,"floating_and_complex_types_and":3085,"##_key_fn":3086,"optimization_block":3087,"sqrt":3088,"##ermitian":3089,"cosin":3090,"##_source_name":3091,"_prepare_fx":3092,"'{}'":3093,"packagingerrorreason":3094,"myscriptmodule":3095,"##list_no_prepack":3096,"instantiationcontext":3097,"##_packed_params":3098,"resetworkspace":3099,"negative":3100,"generate_pt_":3101,"library":3102,"##roadcast":3103,"##local_rank":3104,"int8_dtypes":3105,"##mediates":3106,"_mask":3107,"_validate_":3108,"codetemp":3109,"##entropy":3110,"makedirs":3111,"bytesio":3112,"mask_selected":3113,"init_data_input_workers":3114,"assert_almost_equal":3115,"debug_records_from_mod":3116,"absolute_import":3117,"generate_pt_test":3118,"codetemplate":3119,"\"'":3120,"\"--":3121,"${":3122,"'/":3123,"(<":3124,"15":3125,"__new":3126,"_modules":3127,"bmm":3128,"c_":3129,"c1":3130,"dn":3131,"dur":3132,"dump":3133,"fix":3134,"fuse_fx":3135,"h_max":3136,"mem":3137,"meta":3138,"ndim":3139,"ow":3140,"po":3141,"qsize":3142,"right":3143,"rng":3144,"s2":3145,"suc":3146,"tu":3147,"tuples":3148,"w3":3149,"}),":3150,"##lap":3151,"##lib":3152,"##dist_":3153,"##_ow":3154,"##_2d":3155,"##_empty":3156,"##man":3157,"##eps":3158,"##aco":3159,"##ause":3160,"##sw":3161,"##son":3162,"##code":3163,"##catter":3164,"##c10d":3165,"##cause":3166,"##ger":3167,"##gput":3168,"##qat":3169,"##false":3170,"##fect_":3171,"##ycl":3172,"##ored":3173,"##ele":3174,"##etcd":3175,"##are":3176,"invalid":3177,"deb":3178,"##led":3179,"##left":3180,"##edd":3181,"##edim":3182,"there":3183,"##t_configs":3184,"torchbenchmarkbase":3185,"##amp":3186,"##stom":3187,"##ime":3188,"##lopen":3189,"##item":3190,"##unter":3191,"##_dist_":3192,"##_dispatch":3193,"##_sum":3194,"##_script_module":3195,"##ilt":3196,"##ilter":3197,"##igraph":3198,"##_math":3199,"##_mobile":3200,"##_mutex":3201,"##andcast":3202,"device_opt":3203,"tensor2":3204,"##_nodes":3205,"standalone_":3206,"standalone_module":3207,"steps":3208,"##ext_":3209,"testtop":3210,"off":3211,"##ismatch":3212,"##_cop":3213,"##_call":3214,"##_clean":3215,"##omial":3216,"assertre":3217,"##iff":3218,"##ication":3219,"##ither":3220,"test_str":3221,"assertin":3222,"assertfalse":3223,"dim_in":3224,"```":3225,"floattensor":3226,"model_helper":3227,"onedim":3228,"##consist":3229,"##ively":3230,"##_lib":3231,"because":3232,"param_cpu":3233,"param_bucket":3234,"alias":3235,"also":3236,"##_hermitian":3237,"while":3238,"type_start_":3239,"quint8":3240,"##_world":3241,"target_mu":3242,"target_lr":3243,"target_dist_":3244,"resize_":3245,"ends":3246,"coordinator":3247,"##ialize":3248,"(()),":3249,"pres":3250,"setup":3251,"set_warn":3252,"##affe2":3253,"scale_tril":3254,"arg_name":3255,"distance":3256,"caffe_":3257,"layers":3258,"optimize_for":3259,"##anged":3260,"##_state":3261,"uses":3262,"call_module":3263,"call_method":3264,"call_function":3265,"']))":3266,"platform":3267,"{}'.":3268,"instancenorm":3269,"directly":3270,"comm_world":3271,"##fact":3272,"##_train":3273,"compile":3274,"]]],":3275,"random_":3276,"initializer":3277,"integer":3278,"results":3279,"##e_filter":3280,"warns":3281,"##_value":3282,"cur_subgraph":3283,"##_blobs":3284,"##device":3285,"##_contiguous":3286,"copygput":3287,"hasattr":3288,"('[-":3289,"values_ref":3290,"##ke_quant":3291,"##ields":3292,"100000":3293,"##_to_clean":3294,"]['":3295,"##namescope":3296,"curr_buffer":3297,"indices_ref":3298,"build_directory":3299,"weight_blob":3300,"version_info":3301,"tracing":3302,"##_file_handles":3303,"count":3304,"common_utils":3305,"\"])":3306,"multiple":3307,"##_python":3308,"##ferencechecks":3309,"include_filter":3310,"##_zero_dim":3311,"dropout":3312,"differentiable":3313,"benchmark_run":3314,"##cumulate":3315,"node_rank":3316,"step_rate":3317,"repo_name":3318,"repo_ow":3319,"##options":3320,"_module_cop":3321,"##_seconds":3322,"custom":3323,"cmd_flag":3324,"predi":3325,"##ocpu":3326,"stream_buffer":3327,"max_buffer_size":3328,"cnnmodelhelper":3329,"##data_fn":3330,"##uct_configs":3331,"##classes":3332,"attention_weighted_":3333,"urlopen":3334,"##...":3335,"existing":3336,"model_name_1":3337,"currently":3338,"floating_and_complex_types":3339,"target_h_min":3340,"target_h_max":3341,"environment":3342,"accumulate":3343,"subprocess_file_handles":3344,"remove":3345,"_convolution":3346,"linearity":3347,"##_fold_scripted_module":3348,"_all_buffers":3349,"construct":3350,"test_nllloss":3351,"_weight":3352,"int_tensor":3353,"inserted":3354,"##stats":3355,"use_env":3356,"event_dim":3357,"_grad_input_padding":3358,"dill_function":3359,"etcd":3360,"##_backward":3361,"grads_group":3362,"_accumulate":3363,"additional":3364,"startswith":3365,"cross_product_configs":3366,"_jit_pass_in":3367,"maybe_insert_observer_for_output_of_model":3368,"##ilities":3369,"##oubl":3370,"get_all_math":3371,"__new__":3372,"owner":3373,"success":3374,"##swish":3375,"##fect_model":3376,"##andcastle":3377,"stepsize":3378,"testtopk":3379,"assertreferencechecks":3380,"param_buckets":3381,"target_dist_avg":3382,"set_warn_always":3383,"optimize_for_mobile":3384,"copygputocpu":3385,"curr_buffer_size":3386,"benchmark_runner":3387,"repo_owner":3388,"_module_copies":3389,"attention_weighted_encoder":3390,"get_all_math_dtypes":3391,"'--":3392,".),":3393,"/'":3394,"14":3395,"1000":3396,":-":3397,"=-":3398,"={}":3399,">`.":3400,"__":3401,"__d":3402,"_us":3403,"_log":3404,"bess":3405,"bind":3406,"c4":3407,"cycl":3408,"d_":3409,"either":3410,"f_":3411,"f_b":3412,"f_a":3413,"f_new":3414,"f_old":3415,"fp16":3416,"gr":3417,"g_norm":3418,"here":3419,"home":3420,"iw":3421,"ih":3422,"ls":3423,"l_n":3424,"mic":3425,"nv":3426,"next_":3427,"ppr":3428,"qat":3429,"sem":3430,"sure":3431,"sandcastle":3432,"tens":3433,"v3":3434,"wl":3435,"wa":3436,"x1":3437,"##len":3438,"##lack":3439,"##dest":3440,"##_or":3441,"##_le":3442,"##_all":3443,"##_us":3444,"##ok":3445,"##ugh":3446,"##ev":3447,"##action":3448,"##sh":3449,"##sing":3450,"##spect":3451,"##squeeze":3452,"##sign":3453,"##slice":3454,"##s_memory":3455,"##iability":3456,"##ren":3457,"##rid":3458,"##rib":3459,"##rpath":3460,"##ts":3461,"##cer":3462,"##cated":3463,"##gp":3464,"##gre":3465,"##non":3466,"##npu":3467,"##new":3468,"##nown":3469,"##nigraph":3470,"##warn":3471,"##bedd":3472,"##500":3473,"##33":3474,"##order":3475,"##erated":3476,"##erno":3477,"##ative_":3478,"##ondet":3479,"##ination":3480,"##inomial":3481,"##elist":3482,"##eless":3483,"##chron":3484,"##ute":3485,"##art":3486,"inform":3487,"dev":3488,"deep":3489,"##as_":3490,"##ce_out":3491,"three":3492,"thnvrtc":3493,"##adelta":3494,"##roy":3495,"##state_":3496,"##ization":3497,"##loor":3498,"##load":3499,"##rection":3500,"##ular":3501,"##vider":3502,"##vious":3503,"##_dirs":3504,"##_delta":3505,"is_per_channel":3506,"##enting":3507,"##_squ":3508,"##served":3509,"forked":3510,"##iprocess":3511,"##ilon":3512,"input2":3513,"input1":3514,"input_one":3515,"deviation":3516,"assum":3517,"transform":3518,"transpose":3519,"##andard":3520,"tensoroptions":3521,"##_nondet":3522,"##_init":3523,"##istribut":3524,"still":3525,"store_":3526,"standard":3527,"returned":3528,"##ide_":3529,"##expr":3530,"importors":3531,"testmult":3532,"))]":3533,"reg":3534,"convert":3535,"nonline":3536,"##_cflags":3537,"exact":3538,"dtype_str":3539,"shared":3540,"##_txt":3541,"##arameters":3542,"test_c":3543,"test_cuda":3544,"test_top":3545,"assertgradient":3546,"##ersgd":3547,"andro":3548,"##ests":3549,"model1":3550,"modelhelper":3551,"output_dim":3552,"output_device":3553,"output_different":3554,"grad_name":3555,"grad_input_padding":3556,"##abledataset":3557,"##_long":3558,"been":3559,"##output":3560,"##sparameters":3561,"with_size":3562,"org":3563,"##allclose":3564,"param_tuple":3565,"unaryufunc":3566,"unsqueeze":3567,"##ile__":3568,"\"))":3569,"batched":3570,"num_iters":3571,"##_weight_":3572,"target_var":3573,"res2":3574,"res1":3575,"##ousparameters":3576,"')]":3577,"convolution":3578,"value2":3579,"value1":3580,"function_name":3581,"biased":3582,"##per_channel":3583,"set_":3584,"group_key_fn":3585,"all_files":3586,"##ibute":3587,"prev":3588,"previous":3589,"##ate_pr":3590,"()))":3591,"paths":3592,"##ixel":3593,"requests":3594,"numbers":3595,"caffe2lstm":3596,"##acy":3597,"##_report":3598,"##_registry":3599,"func2":3600,"func4":3601,"func3":3602,"optimized":3603,"##_std":3604,"required":3605,"buckets":3606,"maxsize":3607,"train_init_net":3608,"instance":3609,"rais":3610,"##blobs":3611,"##ctivation":3612,"variance":3613,"expected_out":3614,"new_net":3615,"comm_hook":3616,"##_transpos":3617,"##iterabledataset":3618,"accum":3619,"overw":3620,"resulting":3621,"epsilon":3622,"arguments":3623,"argumentparser":3624,"fc4":3625,"fc1":3626,"packed":3627,"##float32":3628,"submodule":3629,"submod":3630,"##def":3631,"##defin":3632,"##avgpool":3633,"keep_inter":3634,"ref_res":3635,"__file__":3636,"start_":3637,"lengths":3638,"specific":3639,"specifies":3640,"_feat":3641,"##ent_size":3642,"_get_test_":3643,"_get_valid":3644,"default_set":3645,"gradcheck_nondet":3646,"doesn":3647,"least":3648,"##ulli":3649,"matched":3650,"register_sub":3651,"build_en":3652,"functional_optim":3653,"pattern_info":3654,"##mods":3655,"##ront":3656,"##e_script_module":3657,"##_methods":3658,"_batch":3659,"_b_size":3660,"_back":3661,"make_rel":3662,"_pair":3663,"seq_lengths":3664,"broadcasts":3665,"rendezvousparameters":3666,"split_":3667,"##benchmarks":3668,"_test_spadd":3669,"api":3670,"createoperator":3671,"floating_types_and":3672,"assert_allclose":3673,"broadcast_bucket":3674,"##quantizehandler":3675,"bn_scripted_module":3676,"hipify":3677,"msnpu":3678,"node_local_rank":3679,"##contain":3680,"run_tests":3681,"distributions":3682,"flat_buffers":3683,"cudnndest":3684,"rendezvoushandler":3685,"##vironment":3686,"##operators":3687,"##_filename":3688,"remote_script_module":3689,"_modulepro":3690,"_module_class":3691,"correl":3692,"correction":3693,"##ared_avg":3694,"##ical_controls":3695,"##_stateless":3696,"hooks":3697,"product":3698,"docs":3699,"dst_rank":3700,"dst_worker":3701,"spacing":3702,"enumerate":3703,"##packedparams":3704,"##################################":3705,"element_size":3706,"_triple":3707,"_unimplemented":3708,"update":3709,"estimation":3710,"estimator":3711,"##_is_txt":3712,"##_obj":3713,"##_observed":3714,"optimization_black":3715,"##_k_":3716,"chunks":3717,"conv_transpose2d":3718,"##_interval":3719,"gradcheck_wrapper_hermitian":3720,"describ":3721,"transpose_":3722,"probability":3723,"partial":3724,"representing":3725,"_lazy":3726,"booleans":3727,"equal":3728,"hardswish":3729,"hparam_dict":3730,"mock":3731,"##relu2d":3732,"contribute":3733,"packed_module_list":3734,"predict_net":3735,"target_g_norm_squ":3736,"against":3737,"metric_dict":3738,"archive":3739,"##_reload":3740,"manual":3741,"##_qualname":3742,"attention_weights_3d":3743,"recurrent":3744,"conv_3d_configs_short":3745,"({})":3746,"handler_registry":3747,"means":3748,"##_place":3749,"model0_res":3750,"check_trace_method":3751,"##coalesced":3752,"acc_delta":3753,"_force_out":3754,"##compare_dict":3755,"during":3756,"standalone_modules":3757,"offsets":3758,"resize_as_":3759,"endswith":3760,"test_nllloss_2d":3761,"attention_weighted_encoder_context":3762,"bessel":3763,"bind_ref":3764,"cyclical_controls":3765,"f_x":3766,"g_norm2":3767,"micro":3768,"pprint":3769,"wait":3770,"##length":3771,"##ernoulli":3772,"##ative_rpath":3773,"information":3774,"##state__":3775,"##videraction":3776,"##iprocessing":3777,"store_true":3778,"importorskip":3779,"nonlinearity":3780,"exactly":3781,"test_top_k_":3782,"assertgradientchecks":3783,"output_differentiability":3784,"unaryufuncinfo":3785,"##ate_pred":3786,"new_netdef":3787,"##_transposed":3788,"accum_blob":3789,"submod_qualname":3790,"##defined":3791,"keep_intermediates":3792,"_features":3793,"_get_test_tensor":3794,"_get_valid_constant":3795,"gradcheck_nondet_tol":3796,"register_submods":3797,"build_environment":3798,"make_relative_rpath":3799,"_test_spadd_shape":3800,"broadcast_bucket_size":3801,"cudnndestroy":3802,"_moduleprovideraction":3803,"correlation":3804,"dst_worker_name":3805,"gradcheck_wrapper_hermitian_input":3806,"described":3807,"target_g_norm_squared_avg":3808,"_force_outplace":3809,"'\\":3810,".]":3811,"1d":3812,"17":3813,"43":3814,"512":3815,"={":3816,">\"":3817,"[-":3818,"\\\"":3819,"\\\\":3820,"]+":3821,"__module":3822,"_loss":3823,"_builder":3824,"_queues":3825,"_avgpool":3826,"`(":3827,"b1":3828,"base":3829,"bernoulli":3830,"cap":3831,"c_v":3832,"dst":3833,"date":3834,"dyn":3835,"deter":3836,"dword":3837,"diff":3838,"doubl":3839,"em":3840,"eq":3841,"fut":3842,"few":3843,"fuse":3844,"got":3845,"h_t":3846,"hav":3847,"kind":3848,"let":3849,"lead":3850,"lazy":3851,"mark":3852,"omp":3853,"padd":3854,"pool":3855,"pair":3856,"pixel":3857,"rpath":3858,"s0":3859,"sil":3860,"sav":3861,"sizes":3862,"svd":3863,"term":3864,"tseq":3865,"v2":3866,"vect":3867,"ws":3868,"w1":3869,"win":3870,"want":3871,"window":3872,"well":3873,"x2":3874,"z_":3875,"}(":3876,"}\".":3877,"##lat":3878,"##let":3879,"##list":3880,"##dog":3881,"##distribut":3882,"##_ac":3883,"##_env":3884,"##_adam":3885,"##ox":3886,"##ood":3887,"##ust":3888,"##pace":3889,"##p32":3890,"##:-":3891,"##shape":3892,"##sgd":3893,"##ire":3894,"##ique":3895,"##ral":3896,"##rand":3897,"##ture":3898,"##cing":3899,"##col":3900,"##colle":3901,"##kill":3902,"##known":3903,"##gin":3904,"##bers":3905,"##bian":3906,"##buffers":3907,"##broadcast":3908,"##52":3909,"##'),":3910,"##vel":3911,"##20":3912,"##2seq":3913,"##{\\":3914,"##ery":3915,"##atically":3916,"##en_sparse":3917,"##etime":3918,"##aring":3919,"inf":3920,"intra":3921,"indic":3922,"##leep":3923,"##edloss":3924,"##ed_scal":3925,"##ody":3926,"##ash":3927,"thnn":3928,"those":3929,"##state":3930,"##stem":3931,"##standalone_module":3932,"##ty_path":3933,"they":3934,"##e_t":3935,"##loc":3936,"##ite":3937,"##itive":3938,"##ream":3939,"##recision":3940,"##recated":3941,"##ul_spec":3942,"()[":3943,"##_dense":3944,"##_doc":3945,"is_available":3946,"op_func":3947,"##ential":3948,"##_size_":3949,"##_support":3950,"##_sgd":3951,"##_scatter":3952,"##ilar":3953,"input_tensor":3954,"input_source_name":3955,"assign":3956,"tri":3957,"##_mul_spec":3958,"clamp":3959,"retri":3960,"stop":3961,"##ides":3962,"##_pid":3963,"testop":3964,"testgp":3965,"arm":3966,"##udense":3967,"conc":3968,"annot":3969,"##_cach":3970,"##_copy":3971,"##_cross":3972,"##_cmd":3973,"##omain":3974,"explic":3975,"exclude":3976,"out_c":3977,"out_size":3978,"##iform":3979,"##ified":3980,"##ification":3981,"##atchdog":3982,"ints":3983,"int16":3984,"##verse":3985,"test_b":3986,"test_add":3987,"test_out":3988,"test_comp":3989,"test_vari":3990,"##agent":3991,"assertion":3992,"assertnet":3993,"skip_o":3994,"##ayq":3995,"##time_":3996,"output_source":3997,"##ives":3998,"##ival":3999,"##ived":4000,"grad_val":4001,"without":4002,"##equant":4003,"checks":4004,"check_file":4005,"alive_":4006,"under":4007,"undefined":4008,"uniform":4009,"##emm":4010,"##_hard":4011,"##_height":4012,"adam":4013,"adadelta":4014,"##roc_per":4015,"elu":4016,"num_controls":4017,"([],":4018,"add_doc":4019,"##_write":4020,"cuda_home":4021,"respect":4022,"run_name":4023,"runoperator":4024,"##_redu":4025,"mach":4026,"work_handles":4027,"nproc_per":4028,"_cw":4029,"##_good":4030,"zero_grad":4031,"profil":4032,"data_p":4033,"##astic":4034,"prelu":4035,"##per_elem":4036,"set_default_dtype":4037,"thisargument":4038,"iters":4039,"##coordinator":4040,"##count":4041,"all_reduce":4042,"##_loop":4043,"##_loss":4044,"##parse_":4045,"scale_spec":4046,"##ate_names":4047,"logic":4048,"()).":4049,"=()":4050,"=(),":4051,"##_repr":4052,"##_regex":4053,"func5":4054,"minim":4055,"reducing":4056,"contents":4057,"##_stream":4058,"formatter":4059,"textwrap":4060,"calling":4061,"unittest_args":4062,"'])":4063,"'].":4064,"do_write":4065,"##empt":4066,"parallel":4067,"##processes":4068,"##network":4069,"##uffix":4070,"datetime":4071,"##usion":4072,"size_per_elem":4073,"##abilities":4074,"summ":4075,"##old_prepack":4076,"##eaders":4077,"scalars_memory":4078,"initialized":4079,"integral":4080,"keyerror":4081,"fc_cpu":4082,"deprecated":4083,"##etailed":4084,"placements":4085,"##encies":4086,"_gen_sparse":4087,"refle":4088,"ref_w":4089,"##pc_sync":4090,"##ant_consist":4091,"mat_mul_spec":4092,"gpus":4093,"})`.":4094,"needs":4095,"_get_method":4096,"10000":4097,"default_s":4098,"generic":4099,"generate":4100,"attempt":4101,"keepdim_dim":4102,"available":4103,"matching":4104,"utility":4105,"##ritten":4106,"errors":4107,"perfect_model":4108,"##pool1d":4109,"init_value":4110,"prepared_model":4111,"dependencies":4112,"##ampler":4113,"divided":4114,"version_regex":4115,"lrmod":4116,"sigkill":4117,"counter":4118,"master_add":4119,"activation_post_process_ct":4120,"ident":4121,"multinomial":4122,"make_arg":4123,"total_num":4124,"seq2seq":4125,"2020":4126,"sequential":4127,"##_iteration":4128,"rnnbase":4129,"##_unit":4130,"##result":4131,"create_backend":4132,"##_weights":4133,"called":4134,"fout_old":4135,"passed":4136,"##ove":4137,"##generated":4138,"##_hooks":4139,"broadcast_buffers":4140,"mul_":4141,"##oid_p":4142,"cpp_extension":4143,"betas":4144,"nllloss":4145,"candidate_names":4146,"##_seq":4147,"##fixture":4148,"##ctuals":4149,"implemented":4150,"base_node":4151,"fin_path":4152,"finally":4153,"streams":4154,"complex64":4155,"complex12":4156,"_jit_set":4157,"__get__":4158,"__getitem":4159,"spawn":4160,"sort_data_fn":4161,"##proxy":4162,"config_list":4163,"enumerables":4164,"zero_dim_dispatch":4165,"##_classes":4166,"_unbroadcast":4167,"_check_code":4168,"##_num_threads":4169,"##_progress":4170,"##olve":4171,"test_inplace":4172,"allow_empty":4173,"quant_func":4174,"quant_min":4175,"target_g_avg":4176,"supports_out":4177,"masked_scatter":4178,"tmpstr":4179,"valuetensor":4180,"quantizehandler":4181,"_rpc_sync":4182,"related":4183,"##_jit":4184,"##_elems":4185,"##filter":4186,"##_not_":4187,"([[[":4188,"compression_stats":4189,"_allreduce":4190,"##_eval":4191,"##rete":4192,"show_progress":4193,"original_w":4194,"_internal_queue":4195,"_register":4196,"drawn":4197,"delta_seconds":4198,"##_differentiable":4199,"transposed":4200,"(\"[:":4201,"probabilities":4202,"multi_dim":4203,"third_par":4204,"represents":4205,"fbcolle":4206,"grep":4207,"throw":4208,"attention_logits_transposed":4209,"encoder_length":4210,"_inputs":4211,"break":4212,"cache_size":4213,"jiayq":4214,"execut":4215,"lower":4216,"##_torchscript":4217,"typename":4218,"numerical":4219,"bucket_bytes_cap":4220,"statregistryexport":4221,"logdetjacs":4222,"positive":4223,"promote_types":4224,"similar":4225,"tools":4226,"statistics":4227,"weakref":4228,"prepare_qat":4229,"##_enabled":4230,"cosine_spec":4231,"members":4232,"##acobian":4233,"##etcd_handler":4234,"tensor2_size":4235,"preser":4236,"caffe_op":4237,"prediction":4238,"_weightedloss":4239,"nvpack":4240,"##_uses":4241,"raised":4242,"start_time":4243,"##containops":4244,"_avgpoolnd":4245,"c_void_p":4246,"dyndep":4247,"having":4248,"omp_num_threads":4249,"padded":4250,"##latten":4251,"##distributed":4252,"##random":4253,"##ed_scale_tril":4254,"##standalone_module_fx":4255,"testopinfo":4256,"testgpudense":4257,"annotated":4258,"explicit":4259,"##ificationtestbase":4260,"test_variant_consist":4261,"assertnetcontainops":4262,"alive_processes":4263,"add_docstr":4264,"respectively":4265,"runoperatoronce":4266,"nproc_per_node":4267,"profiler":4268,"reducing_device_opt":4269,"size_per_elem_bytes":4270,"scalars_memory_blob":4271,"lrmodificationtestbase":4272,"sigkill_handler":4273,"master_addr":4274,"activation_post_process_ctr":4275,"complex128":4276,"__getitem__":4277,"enumerableshardingspec":4278,"_unbroadcasted_scale_tril":4279,"_rpc_sync_torchscript":4280,"third_party_path":4281,"prepare_qat_fx":4282,"test_variant_consistency":4283,"\"/":4284,"'{":4285,"'|":4286,"'',":4287,"(%":4288,"*=":4289,",-":4290,"/{":4291,"1c":4292,"11":4293,"4d":4294,"7500":4295,":\\":4296,":],":4297,">/":4298,">',":4299,"]}":4300,"_th":4301,"_con":4302,"_per":4303,"_set":4304,"__len":4305,"_utils":4306,"__class":4307,"_parameters":4308,"__call":4309,"_namescope":4310,"__repr":4311,"bit":4312,"b_un":4313,"bound":4314,"body":4315,"car":4316,"cma":4317,"c10":4318,"c10d":4319,"der":4320,"did":4321,"dir":4322,"done":4323,"ft":4324,"fuser":4325,"fields":4326,"gm":4327,"high":4328,"hub":4329,"job":4330,"json":4331,"just":4332,"kh":4333,"l2":4334,"later":4335,"mismatch":4336,"now":4337,"nvrtc":4338,"nele":4339,"nclasses":4340,"od":4341,"pi":4342,"pin":4343,"pen":4344,"pop":4345,"rt":4346,"rq":4347,"re_":4348,"rules":4349,"sing":4350,"schem":4351,"sized":4352,"src":4353,"t3":4354,"wq":4355,"w2":4356,"w4":4357,"xq":4358,"x_new":4359,"zer":4360,"{\\":4361,"}`":4362,"}\")":4363,"##lin":4364,"##lel":4365,"##libr":4366,"##later":4367,"##layer":4368,"##directory":4369,"##down":4370,"##dequant":4371,"##_ip":4372,"##_end":4373,"##_aff":4374,"##_view":4375,"##_entropy":4376,"##moid":4377,"##py":4378,"##pct":4379,"##prop":4380,"##port_":4381,"##sampler":4382,"##tom":4383,"##tention":4384,"##c3":4385,"##c1":4386,"##cput":4387,"##cop":4388,"##core":4389,"##cell":4390,"##kelist":4391,"##gemm":4392,"##ns":4393,"##08":4394,"##bn":4395,"##bb":4396,"##bination":4397,"##hip":4398,"##hol":4399,"##flow":4400,"##floor":4401,"##fold_prepack":4402,"##53":4403,"##v_handler":4404,"##yoptimizer":4405,"##jor":4406,"##).":4407,"##xiv":4408,"##45":4409,"##80":4410,"##@/":4411,"##==":4412,"##orical":4413,"##erance":4414,"##erialization":4415,"##attention":4416,"##esc":4417,"##es_tensor":4418,"##insum":4419,"##ences":4420,"##chw":4421,"##aris":4422,"##alc":4423,"##alty":4424,"##aladam":4425,"intr":4426,"in_c":4427,"insert_":4428,"indent":4429,"deque":4430,"decay":4431,"##oding":4432,"##astr":4433,"##peat":4434,"##pute_":4435,"##stest":4436,"##stant_":4437,"##e_z":4438,"##e_new":4439,"##e_standalone_module_fx":4440,"##ense_":4441,"##unpacked":4442,"##requ":4443,"##record":4444,"##vior":4445,"##_detailed":4446,"##_desc":4447,"is_cuda":4448,"is_sparse":4449,"##enter":4450,"##_shard":4451,"##_supported":4452,"##_svd":4453,"##_suffix":4454,"##_solve":4455,"##_serialization":4456,"force":4457,"##ottom":4458,"input_shape":4459,"input_record":4460,"mod_to":4461,"ast_":4462,"async":4463,"trial":4464,"##_ms":4465,"##_mult":4466,"##_mode_":4467,"device_count":4468,"tensor_n":4469,"tensorcore":4470,"##_inspect":4471,"stack":4472,"store":4473,"storage":4474,"##urn_code":4475,"classmethod":4476,"##_port":4477,"##amegraph":4478,"testf":4479,"testtorch":4480,"testnom":4481,"))),":4482,"rece":4483,"report":4484,"recomp":4485,"reference":4486,"##quant_":4487,"arxiv":4488,"cons":4489,"to_dense":4490,"('.":4491,"##is_test":4492,"non_train":4493,"non_contiguous":4494,"##_cwrap":4495,"##term":4496,"extern":4497,"exist_":4498,"external":4499,"out_of":4500,"##ifies":4501,"dtype_test_":4502,"##optim":4503,"##_fill":4504,"##_fuser":4505,"##_fp32":4506,"strip":4507,"##_total":4508,"##verlap":4509,"from_float":4510,"test_h":4511,"test_al":4512,"test_int_":4513,"test_mult":4514,"##ff_h":4515,"##_base":4516,"dim_desc":4517,"##ants":4518,"##antics":4519,"(\"@/":4520,"##ctionary":4521,"atol":4522,"changed":4523,"##argin":4524,"float_types":4525,"float_model":4526,"modellayer":4527,"getc":4528,"get_default_":4529,"getenv":4530,"##ivari":4531,"gradgrad":4532,"grad_input":4533,"##able_params":4534,"defaultquantizehandler":4535,"beha":4536,"begin":4537,"within":4538,"check_inputs":4539,"check_tol":4540,"param_info":4541,"always":4542,"alloc":4543,"unknown":4544,"##lobal":4545,"##aints":4546,"\").":4547,"nni":4548,"nn_module":4549,"type_ex":4550,"randblobs":4551,"num_workers":4552,"adds":4553,"add_spec":4554,"cuda_lib":4555,"##ideab":4556,"runs":4557,"##_relu":4558,"##_rendezv":4559,"##_rng":4560,"attr_names":4561,"end":4562,"entr":4563,"padding_mode":4564,"')],":4565,"##testfixture":4566,"weighted":4567,"seen":4568,"##aves":4569,"conv_packed_params":4570,"convrelu2d":4571,"convbn":4572,"npt":4573,"_calc":4574,"functionoption":4575,"function_qconfig":4576,"datainput":4577,"dataworker":4578,"sizeaverage":4579,"prim":4580,"sets":4581,"sett":4582,"##_op_supported":4583,"this_node_":4584,"iterdatapipe":4585,"iter_mutex":4586,"sampled":4587,"##ate_s":4588,"log_input":4589,"sharding":4590,"shardplacement":4591,"##umentation":4592,"##_init_fn":4593,"layout":4594,"=('":4595,"##_coordinator":4596,"##_read":4597,"##_reason":4598,"layer_norm":4599,"layernorm":4600,"system":4601,"##atedense":4602,"##_inputs_per":4603,"bucket_map":4604,"bucket_size_":4605,"maxun":4606,"##_type_promotion":4607,"##_overlap":4608,"no_python":4609,"trainer":4610,"train_net":4611,"##setensor":4612,"{}),":4613,"kwargs_":4614,"loader":4615,"load_tests":4616,"hidden_dim":4617,"rank_on":4618,"##uffle":4619,"datal":4620,"appro":4621,"dictionary":4622,"expr":4623,"exp_v":4624,"export_":4625,"commit":4626,"##fake_quant":4627,"##obj":4628,"compare_":4629,"random_shape":4630,"scalartype":4631,"initops":4632,"##stride":4633,"anystr":4634,"only_zero_dim":4635,"fc3":4636,"operator_s":4637,"##_after":4638,"##_activation":4639,"decorate":4640,"##_default":4641,"linearrelu":4642,"linear_packed_params":4643,"copy_":4644,"copycput":4645,"flamegraph":4646,"has_gpu":4647,"##----":4648,"##ationship":4649,"blob2":4650,"blob3":4651,"blob1":4652,"default_col":4653,"left":4654,"leak":4655,"rpcagent":4656,"][\"":4657,"method_tests":4658,"##paths":4659,"long_tensor":4660,"longtensor":4661,"numpy_res":4662,"averaging":4663,"utf":4664,"registered":4665,"build_optimizer":4666,"init_net":4667,"init_fn":4668,"init_params":4669,"prepare":4670,"weight_fake_quant":4671,"##_vari":4672,"lr_min":4673,"relu6":4674,"sigterm":4675,"##_file_name":4676,"master_port":4677,"common_with":4678,"constants":4679,"w_unpacked":4680,"##_pytest":4681,":]):":4682,"total_length":4683,"##_normal":4684,"seq_length":4685,"##compress":4686,"##compression":4687,"broadcasting":4688,"includes":4689,"##sert_quant_":4690,"##_test_order":4691,"##arguments":4692,"_test_net":4693,"_test_dist_":4694,"denot":4695,"eval_net":4696,"rnn_test_order":4697,"##_unpack":4698,"index_queue":4699,"orig_method":4700,"sourcecontext":4701,"create_graph":4702,"##ypothesis_test":4703,"evt":4704,"fx_module":4705,"}})":4706,"}}{":4707,"##variable":4708,"cls_to":4709,"axes":4710,"benchmarks":4711,"ops_list":4712,"synced":4713,"synchron":4714,"broadcast_tensors":4715,"broadcast_coalesced":4716,"nccl_control":4717,"bn_input":4718,"bn_fold_scripted_module":4719,"codegen":4720,"queue_":4721,"sparse":4722,"sparsetensor":4723,"node_name":4724,"##undanc":4725,"extend":4726,"get_qconfig":4727,"broken_reason":4728,"field_names":4729,"field_blobs":4730,"uint8_tensor":4731,"##_build":4732,"({\"":4733,"correctly":4734,"##_engine":4735,"##_seed":4736,"worker_name":4737,"worker_init_fn":4738,"_createdense":4739,"avgpool2d":4740,"avgpool3d":4741,"axis_i":4742,"-->":4743,"label_queue":4744,"##linearmodel":4745,"##_the_node":4746,"##_link_flags":4747,"##sert_observers":4748,"packaging_error":4749,"based":4750,"##are_avg":4751,"produ":4752,"documentation":4753,"__getattr":4754,"'':":4755,"dst_name":4756,"configur":4757,"zero_dim_only":4758,"global_coordinator":4759,",)))":4760,"_check_trace":4761,"about":4762,"absp":4763,"above":4764,"sorted":4765,"allows":4766,"quant_max":4767,"loaded_res":4768,"loaded_mod":4769,"files_to_clean":4770,"maskeds":4771,"_create_c10d":4772,"tmpdir":4773,"##_keys":4774,"interns":4775,"##transformations":4776,"accumulate_pred":4777,"manager_pid":4778,"test_reference_numerics_hard":4779,"_rff_h":4780,"_convnd":4781,"linspace":4782,"square":4783,"square_avg":4784,"users":4785,"##_no_hook":4786,"##_fold_bn":4787,"##_runtime_":4788,"conv_transpose3d":4789,"_prepare_standalone_module_fx":4790,"dist_backend":4791,"dist_init":4792,"##_ev":4793,"##return_code":4794,"show_detailed":4795,"children":4796,"myscriptclass":4797,"##list_no_fold_bn":4798,"wrapped":4799,"##numtensors":4800,"##numoperators":4801,"##static":4802,"test_flag":4803,"event_shape":4804,"maybe_unexpand_or":4805,"_last_":4806,"boolean":4807,"equival":4808,"fbgemm":4809,"last_return_code":4810,"moved":4811,"powersgd":4812,"swap":4813,"##ogpu":4814,"through":4815,"records2":4816,"contrib":4817,"logspace":4818,"test_promot":4819,"packed_module_name":4820,"_functions":4821,"_functionaladam":4822,"##_zipfile_serialization":4823,"tracerbase":4824,"target_g_norm_avg":4825,"brew":4826,"good":4827,"jitr":4828,"input_blob_names":4829,"##ayerlinearmodel":4830,"='{}',":4831,"act_type":4832,"act_compare_dict":4833,"normalized":4834,"binary_op_supported":4835,"_a_size":4836,"category":4837,"categorical":4838,"##initializer":4839,"defined":4840,"##_comm":4841,"check_not":4842,"check_next":4843,"adaptive":4844,"subgraphs":4845,"calculation":4846,"calculated":4847,"deserialized":4848,"optimization_blocklist_no_prepack":4849,"library_dirs":4850,"##entropyloss":4851,"poss":4852,"##oredundanc":4853,"##iltin":4854,"type_start_b":4855,"##factor":4856,"cur_subgraph_b":4857,"##stats_report":4858,"_use_new":4859,"_log_inputs_per":4860,"gru":4861,"next_stats_report":4862,"semantics":4863,"tensobj":4864,"##nigraphtransformations":4865,"##warning":4866,"##bedding":4867,"deepcopy":4868,"thnvrtc_link_flags":4869,"assume":4870,"tensoroptionsarguments":4871,"test_cuda_ip":4872,"androideab":4873,"model1_res":4874,"_backend":4875,"split_queue":4876,"optimization_blacklist_no_prepack":4877,"chunkshardingspec":4878,"##_place_only":4879,"test_nllloss_2d_mean":4880,"microbenchmarks":4881,".]],":4882,"dst1":4883,"determin":4884,"doubletensor":4885,"embedding":4886,"future":4887,"pooling":4888,"silu":4889,"vector":4890,"indicating":4891,"assignment":4892,"retriev":4893,"assertions":4894,"##_reducer":4895,"machin":4896,"data_ptr":4897,"all_reduce_engine":4898,"minimum":4899,"summary":4900,"reflect":4901,"identity":4902,"_allreducegradients":4903,"fbcollective":4904,"grep_cmd":4905,"##latten_tensors":4906,"explicitly":4907,"test_variant_consistency_jit":4908,"'|'":4909,">/<":4910,"__len__":4911,"__class__":4912,"__call__":4913,"__repr__":4914,"b_unpacked":4915,"cmakelist":4916,"deriv":4917,"ft3":4918,"nelement":4919,"penalty":4920,"rtol":4921,"x_new_load":4922,"zeroredundanc":4923,"##lelayerlinearmodel":4924,"##library":4925,"##pctest":4926,"##holder":4927,"##fold_prepack_ops":4928,"##arison":4929,"insert_fold_prepack_ops":4930,"##astream":4931,"##requency":4932,"mod_to_inspect":4933,"tensor_nd":4934,"testnomnigraphtransformations":4935,"recompile":4936,"non_trainable_params":4937,"exist_ok":4938,"out_of_place_only":4939,"dtype_test_name":4940,"##optim_base":4941,"behavior":4942,"check_tolerance":4943,"type_expr":4944,"randblobsfloat32":4945,"##_rendezvous":4946,"datainputcoordinator":4947,"dataworkerstest":4948,"this_node_qconfig":4949,"bucket_size_mul":4950,"rank_ones_tensor":4951,"initopslibrary":4952,"only_zero_dim_check":4953,"copycputogpu":4954,"has_gpu_support":4955,"default_collate":4956,"rpcagenttestfixture":4957,"common_with_cwrap":4958,"##sert_quant_dequant":4959,"_test_dist_optim_base":4960,"synchronize":4961,"nccl_control_blob":4962,"queue_name":4963,"_create_c10d_handler":4964,"_rff_hypothesis_test":4965,"maybe_unexpand_or_view":4966,"binary_op_supported_dtypes":4967,"_use_new_zipfile_serialization":4968,"test_cuda_ipc":4969,"androideabi":4970,"cmakelists":4971,"zeroredundancyoptimizer":4972,"\"\"":4973,"\"\\":4974,"\"{":4975,"\"{}":4976,"'-":4977,"'')":4978,"(#":4979,"(${":4980,"(...":4981,"*'":4982,"-----":4983,".)":4984,".')":4985,"2d":4986,"24":4987,"29":4988,"28":4989,"37":4990,"33":4991,"49":4992,"51":4993,"90":4994,"<<":4995,"=\\":4996,">(":4997,"[(":4998,"];":4999,"_st":5000,"_add":5001,"_inst":5002,"_instance":5003,"__set":5004,"__iter":5005,"_num":5006,"__torch":5007,"_left":5008,"_device":5009,"_stride":5010,"_variable":5011,"a_is_txt":5012,"b_":5013,"bc":5014,"b2":5015,"b4":5016,"b3":5017,"b_is_txt":5018,"box":5019,"ca":5020,"cs":5021,"c2":5022,"cat":5023,"cmp":5024,"c_n":5025,"col":5026,"catch":5027,"cattr":5028,"close":5029,"deta":5030,"dirs":5031,"dynamic":5032,"eig":5033,"e_to":5034,"einsum":5035,"fact":5036,"front":5037,"gum":5038,"g_de":5039,"hy":5040,"hack":5041,"hess":5042,"hold":5043,"headers":5044,"im":5045,"ij":5046,"i_param":5047,"jacobian":5048,"kl":5049,"k2":5050,"kv_handler":5051,"lint":5052,"leg":5053,"mk":5054,"mb":5055,"mv":5056,"mant":5057,"more":5058,"mix":5059,"margin":5060,"nd":5061,"nb":5062,"nom":5063,"nchw":5064,"pur":5065,"pus":5066,"pform":5067,"point":5068,"qlinear":5069,"q_per_channel":5070,"rs":5071,"rule":5072,"rest":5073,"roo":5074,"s3":5075,"slo":5076,"sout":5077,"slicing":5078,"slstm":5079,"sleep":5080,"tp":5081,"tx":5082,"ten":5083,"tun":5084,"vs":5085,"w_h":5086,"were":5087,"would":5088,"wrt":5089,"written":5090,"x_old":5091,"xslice":5092,"yslice":5093,"}/":5094,"##lg":5095,"##last_":5096,"##layers":5097,"##ddp_logging_data":5098,"##dflags":5099,"##dynamic":5100,"##_1":5101,"##_ab":5102,"##_quant":5103,"##_queues":5104,"##_etcd_handler":5105,"##mat":5106,"##otr":5107,"##oard":5108,"##oved":5109,"##o_set":5110,"##uation":5111,"##uces":5112,"##aut":5113,"##agrad":5114,"##airs":5115,"##pon":5116,"##pol":5117,"##promot":5118,"##pose":5119,"##p_names":5120,"##pick":5121,"##p_flags":5122,"##sa":5123,"##sq":5124,"##scope":5125,"##s_outputs":5126,"##ih":5127,"##rt_":5128,"##ram":5129,"##redu":5130,"##riter":5131,"##right":5132,"##tum":5133,"##tuple":5134,"##zip":5135,"##cs":5136,"##cach":5137,"##clean":5138,"##coperator":5139,"##kl":5140,"##ge":5141,"##gate":5142,"##group":5143,"##gether":5144,"##gree":5145,"##gacy":5146,"##gram":5147,"##nam":5148,"##none":5149,"##wd":5150,"##wc":5151,"##wer":5152,"##wargs":5153,"##world":5154,"##watchdog":5155,"##writer":5156,"##09":5157,"##by":5158,"##ber":5159,"##bel":5160,"##bmm":5161,"##brid":5162,"##board":5163,"##hared":5164,"##hwc":5165,"##from":5166,"##face":5167,"##f_lo":5168,"##fors":5169,"##()":5170,"##ves":5171,"##v_w":5172,"##yz":5173,"##yth":5174,"##y_relu":5175,"##ybrid":5176,"##``":5177,"##``.":5178,"##.[":5179,"##.{}":5180,"##xx":5181,"##xim":5182,"##xis":5183,"##750":5184,"##65":5185,"##]):":5186,"##\\.[":5187,"##}\"":5188,"##},":5189,"##>(":5190,"##84":5191,"##orar":5192,"##or_reload":5193,"##orlater":5194,"##er_id":5195,"##erbuilder":5196,"##aten":5197,"##atle":5198,"##atapipe":5199,"##atenorm":5200,"##only":5201,"##in_w":5202,"##enied":5203,"##el__":5204,"##chor":5205,"##changed":5206,"##utor":5207,"##arch":5208,"##arro":5209,"##are_s":5210,"##array":5211,"##arri":5212,"##alink":5213,"inp":5214,"inv":5215,"dec":5216,"dequeue":5217,"degree":5218,"##any":5219,"##anes":5220,"self_dtype":5221,"self_match":5222,"##ed_p":5223,"##ed_re":5224,"##ed_tensors":5225,"##ed_cast":5226,"##oduces":5227,"##asic":5228,"thtensor":5229,"thread":5230,"##t_ext":5231,"##t_sec":5232,"##t_valid":5233,"##t_promot":5234,"##amma":5235,"##adagrad":5236,"##roken":5237,"##stit":5238,"##stub":5239,"##stsq":5240,"##izing":5241,"##e_le":5242,"##e_type":5243,"##e_grad":5244,"##e_name":5245,"##e_cast":5246,"##e_or_reload":5247,"##trl":5248,"##trem":5249,"##imil":5250,"##ime_t":5251,"##itialized":5252,"##vices":5253,"##_det":5254,"##_disc":5255,"##_dict_":5256,"##_dynamic":5257,"##_domain":5258,"##_dense_":5259,"##_datapipe":5260,"##_denied":5261,"is_s":5262,"isnot":5263,"isdir":5264,"is_al":5265,"is_valid":5266,"is_observed":5267,"##_slo":5268,"##_sort":5269,"##_script_":5270,"##_src":5271,"##_sparse_":5272,"##iprecision":5273,"##ily":5274,"input_arg":5275,"##igpu":5276,"##ument_":5277,"',\\":5278,"##_mask":5279,"##and_num":5280,"device_name":5281,"devicecount":5282,"tensordescriptor":5283,"tensor_1d":5284,"tensorboard":5285,"##_n_r":5286,"##_neg":5287,"##_nelem":5288,"##_include_":5289,"##_invert":5290,"##_inverse":5291,"##_inp_names":5292,"##_int_sec":5293,"stable":5294,"stability":5295,"returncode":5296,"##ider":5297,"##_pos":5298,"##_potr":5299,"##_pp_flags":5300,"##upd":5301,"importerror":5302,"importlib":5303,"testx":5304,"testff":5305,"testco":5306,"testserialization":5307,"testlayers":5308,")).":5309,"real":5310,"repl":5311,"),),":5312,"const":5313,"conver":5314,"configs":5315,"together":5316,"##issa":5317,"non_differentiable":5318,"anal":5319,"anchor":5320,"##ome_in":5321,"##ominator":5322,"exc":5323,"exclud":5324,"lock":5325,"dtype2":5326,"dtype1":5327,"##_fir":5328,"##_fact":5329,"##_frequency":5330,"##ic_methods":5331,"strateg":5332,"##_top":5333,"##_time_t":5334,"notion":5335,"test_ser":5336,"test_name":5337,"test_res":5338,"test_with":5339,"test_transpose":5340,"test_cre":5341,"test_quantized":5342,"test_mat":5343,"##kip_list":5344,"##kip_gpu":5345,"##ffic":5346,"##agest":5347,"##agic_methods":5348,"##_bs":5349,"##_bad":5350,"##_broken":5351,"##alseed":5352,"(\"-":5353,"change":5354,"##estorage":5355,"``).":5356,"float64":5357,"args_":5358,"argsort":5359,"getpp":5360,"get_args":5361,"getlog":5362,"get_lr":5363,"get_n_r":5364,"output_elem":5365,"grad_var":5366,"val_model":5367,"##ablehandle":5368,"##ired":5369,"defaultdict":5370,"defaultnode":5371,"##_list_":5372,"##_lambda":5373,"##_ldflags":5374,"beh":5375,"##out_filename":5376,"with_stateless":5377,"builder":5378,"built":5379,"check_un":5380,"check_count":5381,"check_optimizer":5382,"check_dynamic":5383,"param_name":5384,"param_types":5385,"param_shape":5386,"along":5387,"alread":5388,"unchanged":5389,"\"\"\".":5390,"##ile_args":5391,"##ematically":5392,"##emtum":5393,"##_hparams":5394,"##_host":5395,"##_home_in":5396,"\")[":5397,"##ending":5398,"##endency":5399,"nnlinear":5400,"batch2":5401,"batch1":5402,"batches":5403,"batch_norm":5404,"batchiterabledataset":5405,"batch_fir":5406,"what":5407,"randper":5408,"elastic":5409,"num_reduce":5410,"##_grads":5411,"add_ops":5412,"add_node":5413,"add_eval":5414,"add_hparams":5415,"##eros":5416,"cuda_home_in":5417,"resizing":5418,"run_lambda":5419,"').":5420,"')}\"":5421,"])[":5422,"weightnorm":5423,"seem":5424,"search":5425,"convention":5426,"convpackedparams":5427,"_com":5428,"##ialize_":5429,"shapeprop":5430,"##vals":5431,"##ill_padding":5432,"##_outer":5433,"progress":5434,"program":5435,"mathbb":5436,"mathematically":5437,"##aries":5438,"kernels":5439,"data_type":5440,"dataclass":5441,"##lying":5442,"pre_grad":5443,"##perparameters":5444,"optionally":5445,"##rocesses":5446,"##_optimiz":5447,"quantizing":5448,"iterate":5449,"all_types":5450,"allredu":5451,"all_inp_names":5452,"argparse":5453,"argument_":5454,"log_sum":5455,"log_int_sec":5456,"shardingspec":5457,"dtypes2":5458,"formul":5459,"##_tensor_out":5460,"##_tensor_only":5461,"pathname":5462,"byref":5463,"require":5464,"caffe2_res":5465,"caffe2_yellowfin":5466,"##derived":5467,"qconfigany":5468,"##aces":5469,"##_output_dim":5470,"##_register":5471,"##_stderr":5472,"##ated_pp_flags":5473,"usr":5474,"bucket_param":5475,"bucketbatch":5476,"bucket_idx":5477,"bucket_cap":5478,"bucket_elems":5479,"max_un":5480,"max_uses":5481,"sour":5482,"##_type_env":5483,"calls":5484,"callmethod":5485,"##ory_fn":5486,"no_grad":5487,"no_a":5488,"no_bn":5489,"'][":5490,"bool_tensor":5491,"trainable":5492,"train_loop":5493,"planes":5494,"##queue_":5495,"loads":5496,"creates":5497,"skipcudaifnocusolver":5498,"expecttest":5499,"##dict_valid":5500,"##_logging_frequency":5501,"_skip_gpu":5502,"dataparallel":5503,"##use_d":5504,"##usagest":5505,"sample_inputs_std":5506,"direct":5507,"exp_i":5508,"expression":5509,"scripted":5510,"new_size":5511,"new_state":5512,"commun":5513,"placeholder":5514,"##object":5515,"compat":5516,"compilation":5517,"##iterdatapipe":5518,"]])":5519,"]]):":5520,"usec10d":5521,"randomly":5522,"127":5523,"123":5524,"overlap":5525,"overrid":5526,"overflow":5527,"##fileclean":5528,"optimizer_iteration":5529,"##stract":5530,"##_mapping":5531,"keyword":5532,"only_stateless":5533,"'),)":5534,"fc2":5535,"fc_fp32":5536,"##ingleobject":5537,"##_models":5538,"curv_w":5539,"substit":5540,"##_actuals":5541,"##_axis":5542,"##ttoc":5543,"local_script_module":5544,"local_bs":5545,"inplacefunction":5546,"pads":5547,"padleft":5548,"padright":5549,"##)))":5550,"linearpackedparams":5551,"##ooks":5552,"has_pytest":5553,"values_shape":5554,"training_script_":5555,"blobreference":5556,"})'":5557,")`,":5558,"_fetch":5559,"_fuse_fx":5560,"_fill_padding":5561,"##ies_per":5562,"remain":5563,"removed":5564,"##_compress":5565,"##_compile_args":5566,"timeout":5567,"_get_cach":5568,"_get_height":5569,"default_tensor":5570,"default_observer":5571,"default_per_channel":5572,"autom":5573,"auto_set":5574,"generates":5575,"generating":5576,"##rossentropyloss":5577,"numpy_yellowfin":5578,"attn":5579,"averages":5580,"matchresult":5581,"builds":5582,"build_adam":5583,"momemtum":5584,"temporary":5585,"temporar":5586,"weight_ih":5587,"##_for_host":5588,"##_result":5589,"##claration":5590,"sigint":5591,"sig_names":5592,"##e_shape":5593,"##e_simil":5594,"traces":5595,"common_quant":5596,"feature":5597,"first_":5598,"multiprocessing":5599,"multivari":5600,"cudart":5601,"cudastream":5602,"total_count":5603,"total_iters":5604,"##gdet":5605,"extra_include_":5606,"extra_ldflags":5607,"##convnet":5608,"##convolution":5609,"sequences":5610,"very":5611,"verifies":5612,"##_once":5613,"##_onnx":5614,"##_exec":5615,"##_extrem":5616,"##_iter_blob":5617,"include_d":5618,"openprocess":5619,"##_test_generator":5620,"backward_link":5621,"##upported_backward":5622,"apis":5623,"deny":5624,"denominator":5625,"evaluation":5626,"##_unhandled":5627,"create_model":5628,"create_handler":5629,"create_proxy":5630,"create_derived":5631,"##_zeros":5632,"differentgenerator":5633,"globals":5634,"slowtest":5635,"zipfile":5636,"##_functions":5637,"createcommon":5638,"var_mean":5639,"iteration_float":5640,"iteration_mutex":5641,"benchmark_c":5642,"benchmark_test_generator":5643,"assert_equal":5644,"assert_ns":5645,"test_supported_backward":5646,"attribute_name":5647,"ncclreduce":5648,"_initialized":5649,"debug_file":5650,"debug_files":5651,"second_":5652,"namedtuple":5653,"##backward":5654,"##_scripted_model":5655,"quantize_linear":5656,"cudnncre":5657,"cudnn_enable":5658,"##')[":5659,"location":5660,"##_builder":5661,"##_builtin":5662,"remote_":5663,"##_cuda_version":5664,"validate_":5665,"##_status":5666,"##ordinators":5667,"splitext":5668,"cuh":5669,"labels":5670,"implements":5671,"##ict__":5672,"optimization_iter_blob":5673,"symbolically":5674,"basic":5675,"finish":5676,"##verride_":5677,"grad_tensor1":5678,"##_with_zero":5679,"proxy_fact":5680,"static_graph":5681,"backend_type_env":5682,"__getstate__":5683,"fills":5684,"##proto":5685,"##fter_fork":5686,"##logging":5687,"zero_dim_tensor_only":5688,"zero_dim_actuals":5689,"global_qconfig":5690,"global_src":5691,"255":5692,"abstract":5693,"sorting":5694,"##_prob":5695,"##_profil":5696,"test_indexing":5697,"covariant":5698,"contextman":5699,"loaded2":5700,"supports_tensor_out":5701,"signum":5702,"_create_expr":5703,"estimated":5704,"}\\;":5705,"}\\{":5706,"}\\},":5707,"value_shape":5708,"]]])":5709,"...]":5710,"remove_z":5711,"removablehandle":5712,"current_scope":5713,"manager_handle":5714,"managerwatchdog":5715,"maybe_view":5716,"_right":5717,"cdot":5718,"dont_promot":5719,"relative":5720,"sqrt_":5721,"square_s":5722,"##_kwargs":5723,"interval":5724,"interpr":5725,"##_no_prepack":5726,"encoding":5727,"conv_transpose1d":5728,"pretrained":5729,"expand_as":5730,"frame":5731,"handle_copy":5732,"##rete_type":5733,"##ignor":5734,"##_pool2d":5735,"constraints":5736,"##ispatcher":5737,"get_forward_graph":5738,"script_module":5739,"script_path":5740,"script_qconfig":5741,"ensures":5742,"directory_path":5743,"attributeerror":5744,"_weight_":5745,"_report_":5746,"detach":5747,"wraps":5748,"##yellowfin_models":5749,"int_types":5750,"traceback":5751,"##_warnings":5752,"conv3dbenchmark":5753,"generatedfileclean":5754,"libraries":5755,"find_cuda_version":5756,"greater":5757,"hparam_domain":5758,"piper":5759,"reasons":5760,"records3":5761,"records1":5762,"##_backend":5763,"created_script_module":5764,"packageexport":5765,"##_idx_with_zero":5766,"mat2_dtype":5767,"mat1_dtype":5768,"matrix_exp":5769,"specifying":5770,"encoder_output_dim":5771,"_input_source_name":5772,"cached":5773,"failed":5774,"fake_quant":5775,"##oader":5776,"##_parser":5777,"numeric":5778,"convtranspose2d":5779,"convtranspose3d":5780,"convtranspose1d":5781,"sample_inputs_linalg_invert":5782,"err_ms":5783,"serialized_graph":5784,"manualseed":5785,"filtered_denied":5786,"filtered_broken":5787,"filtered_unhandled":5788,"readerbuilder":5789,"recurrent_":5790,"conv_3d_configs_long":5791,"_after_fork":5792,"failure":5793,"position":5794,"suite":5795,"safe":5796,"safe_cast":5797,"defining":5798,"test_serialization_zipfile":5799,"_counter":5800,"_coordinators":5801,"propagate":5802,"propagated_pp_flags":5803,"statistic":5804,"deserialize":5805,"avg_pool2d":5806,"avg_pool3d":5807,"cosine_simil":5808,"c_0":5809,"dumps":5810,"pois":5811,"rng_extension":5812,"}),),":5813,"##unterops":5814,"aliases":5815,"aliasinfo":5816,"type_start_a":5817,"##affe2proto":5818,"instancenorm2d":5819,"instancenorm3d":5820,"##factory":5821,"cur_subgraph_a":5822,"_jit_pass_insert_observers":5823,"_jit_pass_insert_quant_dequant":5824,"owner_type":5825,"param_buckets_tuple":5826,"set_warn_always_context":5827,"__enter":5828,"__del__":5829,"__dict__":5830,"fp16_dtypes":5831,"##_legacy":5832,"##ide_length":5833,"testmultiprecision":5834,"##_weight_observer":5835,"convolutiondescriptor":5836,"requests_available":5837,"optimized_scripted_model":5838,"##_stdout_filename":5839,"_batch_potr":5840,"broadcasts_arg":5841,"api_name":5842,"msnpu_extension":5843,"node_local_rank_stderr":5844,"node_local_rank_stdout_filename":5845,"hooks_dict":5846,"hooks_dict_":5847,"_lazy_new":5848,"_lazy_init":5849,"waitfors":5850,"\\\"]":5851,"]+\\.[":5852,"diff_nelem":5853,"fewer":5854,"leading":5855,"win32":5856,"triu":5857,"##_cross_entropy":5858,"int16_tensor":5859,"test_complex":5860,"skip_override":5861,"underlying":5862,"uniform_":5863,"adamax":5864,"iters_once":5865,"default_skip_list":5866,"attempted":5867,"total_numel":5868,"##_unittest_args":5869,"_jit_set_profil":5870,"test_inplace_grad":5871,"##filterdescriptor":5872,"compression_stats_logging_frequency":5873,"preserves":5874,"padded_total":5875,"##randomsampler":5876,"_thnn":5877,"_constant_":5878,"dirname":5879,"hub_dir":5880,"pipe":5881,"schemalink":5882,"##_affine":5883,"##pytorch":5884,"introduces":5885,"force_reload":5886,"async_op":5887,"##_multi":5888,"testfcoperator":5889,"consider":5890,"('.')[":5891,"test_multigpu":5892,"getcwd":5893,"cuda_lib_path":5894,"entries_per":5895,"weightedrandomsampler":5896,"settings":5897,"sampled_from":5898,"##ate_support":5899,"compare_yellowfin_models":5900,"##_activation_post_process":5901,"decorateinfo":5902,"leaky_relu":5903,"##compression_stats":5904,"produced":5905,"__getattr__":5906,"abspath":5907,"##_events":5908,"_last_warning":5909,"equivalent":5910,"jitrpctest":5911,"normalized_shape":5912,"##_comm_hook":5913,"possible":5914,"retrieve":5915,"machinery":5916,"summarywriter":5917,"_allreducegradientsdistributed":5918,"derivative":5919,"##arison_ops":5920,"##_rendezvous_backend":5921,"491":5922,"=\\\"":5923,"_instancenorm":5924,"__setstate__":5925,"__iter__":5926,"_variablebase":5927,"catch_warnings":5928,"cattransform":5929,"details":5930,"dirs_to_clean":5931,"e_tok":5932,"factor":5933,"gumbel":5934,"g_deb":5935,"hyperparameters":5936,"hessian":5937,"legacy":5938,"mkdir":5939,"mvlg":5940,"mantissa":5941,"mixed":5942,"push":5943,"pformat":5944,"root_":5945,"txt_ext":5946,"x_old_load":5947,"##cache":5948,"##noneand":5949,"##f_lower":5950,"##ything":5951,"##ximation":5952,"##er_id_seq":5953,"##atleast":5954,"##atenormal":5955,"##in_width":5956,"##arrow":5957,"##arrier":5958,"##ed_processes":5959,"##_discrete":5960,"isnotnoneand":5961,"is_alive":5962,"is_valid_device":5963,"##and_nums":5964,"devicecountatleast":5965,"testfft":5966,"testcounterops":5967,"converttoc":5968,"strategies":5969,"##_time_total":5970,"test_quantized_op":5971,"test_matmul":5972,"getppid":5973,"get_args_parser":5974,"getlogger":5975,"get_lr_mu":5976,"get_n_rand_nums":5977,"check_unique":5978,"check_dynamic_indexing":5979,"already":5980,"batch_first":5981,"randperm":5982,"elastic_launch":5983,"num_reduce_dim":5984,"add_eval_ops":5985,"cuda_home_include":5986,"conventional":5987,"argument_type":5988,"log_sum_exp":5989,"log_int_secs":5990,"bucket_param_type":5991,"bucketbatchiterabledataset":5992,"no_action":5993,"no_bn_fold_scripted_module":5994,"sample_inputs_std_var":5995,"usec10dispatcher":5996,"fc_fp32_for_host":5997,"curv_win_width":5998,"substitute":5999,"training_script_args":6000,"_fetcher_id_seq":6001,"_fill_padding_idx_with_zero":6002,"_get_cache_or_reload":6003,"default_per_channel_weight_observer":6004,"temporarily":6005,"common_quantization":6006,"multivariatenormal":6007,"extra_include_paths":6008,"##convolutiondescriptor":6009,"include_dirs":6010,"createcommonworld":6011,"finished_processes":6012,"proxy_factory_fn":6013,"global_src_rank":6014,"contextmanager":6015,"_create_expr_etcd_handler":6016,"remove_zeros":6017,"dont_promote":6018,"square_side_length":6019,"handle_copy_nodes":6020,"##rete_type_builder":6021,"_report_compression_stats":6022,"generatedfilecleaner":6023,"hparam_domain_discrete":6024,"packageexporter":6025,"fake_quantize_":6026,"sample_inputs_linalg_invertible":6027,"err_msg":6028,"safe_casts_outputs":6029,"cosine_similarity":6030,"__enter__":6031,"testmultiprecisionsgd":6032,"optimized_scripted_model_no_prepack":6033,"_batch_potrf_lower":6034,"node_local_rank_stderr_filename":6035,"hooks_dict_ref":6036,"waitforsingleobject":6037,"_jit_set_profiling":6038,"padded_total_length":6039,"_constant_types":6040,"entries_per_iter":6041,"mvlgamma":6042,"converttocaffe2proto":6043,"\"(":6044,"\"-":6045,"\"*":6046,"\"<":6047,"#################################":6048,"&',":6049,"'*":6050,"'<":6051,"'#":6052,"(.":6053,"(``":6054,")\"":6055,")'":6056,")[":6057,"*,":6058,"++":6059,",$":6060,",@":6061,",--":6062,".\\":6063,".<":6064,".\",":6065,"/')":6066,"01":6067,"033":6068,"1b":6069,"1st":6070,"2e":6071,"22":6072,"27":6073,"26":6074,"200":6075,"34":6076,"39":6077,"38":6078,"45":6079,"4000":6080,"55":6081,"56":6082,"62":6083,"7e":6084,"76":6085,"82":6086,"8750":6087,"95":6088,"945":6089,":'":6090,":<":6091,":=":6092,":\")":6093,"<${":6094,"=<":6095,"=\"\"":6096,">'":6097,">`":6098,"\\/":6099,"_d":6100,"_t":6101,"_or":6102,"_type":6103,"_is":6104,"_nn":6105,"_tensor":6106,"_net":6107,"_quant":6108,"__ex":6109,"_observer":6110,"_optimizer":6111,"_top":6112,"_packed":6113,"_list_":6114,"_mult":6115,"_worker":6116,"_local_rank":6117,"_dist_":6118,"_parse_":6119,"__slo":6120,"`-":6121,"`<":6122,"`=":6123,"`),":6124,"a1":6125,"able":6126,"a_cl":6127,"bad":6128,"bit_":6129,"bise":6130,"baset":6131,"bcd":6132,"ci":6133,"clo":6134,"cum":6135,"code_":6136,"cmax":6137,"cmin":6138,"cxx":6139,"dq":6140,"dens":6141,"due":6142,"dest":6143,"differ":6144,"domain":6145,"ed":6146,"ey":6147,"eager":6148,"fre":6149,"fig":6150,"fold":6151,"fft":6152,"fak":6153,"fake":6154,"floor":6155,"fusion":6156,"ga":6157,"git":6158,"gated":6159,"g_avg":6160,"ht":6161,"hh":6162,"had":6163,"hparams":6164,"host":6165,"i_dtypes":6166,"kill":6167,"ler":6168,"lag":6169,"lfloor":6170,"lstsq":6171,"mut":6172,"ming":6173,"meth":6174,"m32":6175,"mov":6176,"most":6177,"magic_methods":6178,"ng":6179,"nes":6180,"nest":6181,"n_i":6182,"nested":6183,"nhwc":6184,"narrow":6185,"ok":6186,"our":6187,"own":6188,"ps":6189,"pf":6190,"put":6191,"pot":6192,"pstr":6193,"post_":6194,"qm":6195,"qa":6196,"qt":6197,"q_input":6198,"qint":6199,"qparams":6200,"qbatch":6201,"rely":6202,"rather":6203,"rfloor":6204,"ss":6205,"sut":6206,"slic":6207,"squeez":6208,"sense":6209,"select":6210,"sides":6211,"ta":6212,"ts":6213,"t2":6214,"tre":6215,"tak":6216,"tree":6217,"ups":6218,"void":6219,"wr":6220,"w_i":6221,"word":6222,"watchdog":6223,"xf":6224,"x8":6225,"xent":6226,"x_i":6227,"x_scale":6228,"x_zero_point":6229,"y_":6230,"yellowfin":6231,"y_scale":6232,"y_zero_point":6233,"yields":6234,"{\"":6235,"{(":6236,"}:":6237,"}'":6238,"}-":6239,"}=":6240,"}\",":6241,"}')":6242,"}{\\":6243,"}>(":6244,"##ler":6245,"##lt_":6246,"##late_":6247,"##lits":6248,"##link":6249,"##lash":6250,"##dz":6251,"##dn":6252,"##db":6253,"##dext":6254,"##double":6255,"##_4":6256,"##_ur":6257,"##_ag":6258,"##_em":6259,"##_rocm":6260,"##_api":6261,"##_64":6262,"##_attr":6263,"##_user":6264,"##_encoder":6265,"##_attention":6266,"##_adagrad":6267,"##_ignor":6268,"##ml":6269,"##mf":6270,"##my":6271,"##meta":6272,"##mean":6273,"##most":6274,"##mutex":6275,"##of":6276,"##och":6277,"##oss":6278,"##oftmax":6279,"##oked":6280,"##ually":6281,"##u_suffix":6282,"##ection":6283,"##eved":6284,"##e09":6285,"##effic":6286,"##a_fork":6287,"##actuals":6288,"##ajor":6289,"##ph":6290,"##px":6291,"##pos":6292,"##prepack":6293,"##pb2":6294,"##\"${":6295,"##sue":6296,"##sig":6297,"##s_n":6298,"##scal":6299,"##ske":6300,"##sure":6301,"##s_directory":6302,"##sives":6303,"##scop":6304,"##s_det":6305,"##ier":6306,"##ice":6307,"##iop":6308,"##ru":6309,"##rup":6310,"##ratch":6311,"##rans":6312,"##tan":6313,"##ting":6314,"##tir":6315,"##tained":6316,"##zh":6317,"##cm":6318,"##ci":6319,"##cc":6320,"##c_g":6321,"##cmul":6322,"##c10":6323,"##crossentropyloss":6324,"##cu_suffix":6325,"##ky":6326,"##kely":6327,"##k_rng":6328,"##gg":6329,"##gor":6330,"##get":6331,"##global":6332,"##nal":6333,"##neg":6334,"##nection":6335,"##win":6336,"##wis":6337,"##weight_":6338,"##write":6339,"##wrapper":6340,"##world_size":6341,"##03":6342,"##bit":6343,"##bool":6344,"##byn":6345,"##bytes":6346,"##broadc":6347,"##bottom":6348,"##basic":6349,"##hen":6350,"##hot":6351,"##hidden":6352,"##headers":6353,"##hooks":6354,"##fx":6355,"##fed":6356,"##ful":6357,"##field":6358,"##front":6359,"##flatten_tensors":6360,"##ve":6361,"##v7":6362,"##van":6363,"##v_transpose":6364,"##v_seconds":6365,"##[^":6366,"##y_promotion":6367,"##2n":6368,"##23":6369,"##21":6370,"##2_handler":6371,"##ja":6372,"##jit":6373,"##ject_":6374,"##)'),":6375,"##74":6376,"##76":6377,"##47":6378,"##15":6379,"##11":6380,"##1loss":6381,"##-\")":6382,"##69":6383,"##6_64":6384,"##]+":6385,"##}{":6386,"##}}":6387,"##/{}":6388,"##orward":6389,"##eric":6390,"##at_nodes":6391,"##esky":6392,"##onal":6393,"##onot":6394,"##on_p":6395,"##ont_in":6396,"##inv":6397,"##index":6398,"##inja":6399,"##eneric":6400,"##elow":6401,"##elationship":6402,"##eloss":6403,"##char":6404,"##chain":6405,"##utograd":6406,"##etod":6407,"##ars":6408,"##ares":6409,"##artensor":6410,"##arwin":6411,"##alibration":6412,"incomp":6413,"insert_observer":6414,"incre":6415,"insert_observer_for_output_of":6416,"in_record":6417,"inconsist":6418,"inspect":6419,"in_stream":6420,"inlin":6421,"indext":6422,"dead":6423,"deps":6424,"demon":6425,"dequantized":6426,"decompress":6427,"##level":6428,"##anging":6429,"##an_cast":6430,"self_cpu":6431,"##ed_type":6432,"##ed_context":6433,"##edread":6434,"##edict_":6435,"##edrecord":6436,"##odiff":6437,"##asked":6438,"##pears":6439,"things":6440,"##t_dtype":6441,"##t_a_fork":6442,")::":6443,"##ame_size":6444,"##adoubl":6445,"##roll":6446,"##rove":6447,"define":6448,"##stand":6449,"##stack":6450,"##ingex":6451,"##ing_ops":6452,"##ing_net":6453,"##ing_rate":6454,"##ing_subgraph":6455,"##ing_le":6456,"##typer":6457,"##e_extension":6458,"##e_ever":6459,"##e_view":6460,"##e_factor":6461,"##e_last_":6462,"##train":6463,"##trac":6464,"##iment":6465,"##itch":6466,"##itable":6467,"##mp_d":6468,"##mpilation":6469,"##seconds":6470,"##unit":6471,"##under":6472,"##unsing":6473,"##unge":6474,"##repo":6475,"()}":6476,"##_dp":6477,"##_ds":6478,"##_dunder":6479,"##ure_s":6480,"is_":6481,"is_m":6482,"is_a":6483,"is_test":6484,"is_extension":6485,"is_th":6486,"is_gpu":6487,"is_pack":6488,"is_contiguous":6489,"op_de":6490,"op_list":6491,"##_sm":6492,"##_self":6493,"##_skip":6494,"##_sample":6495,"##_schema":6496,"##_single":6497,"##_sort_":6498,"##_samples":6499,"##serror":6500,"fork_rng":6501,"##iper":6502,"##ip_file":6503,"##type_qconfig":6504,"input_f":6505,"input_dim":6506,"as_tuple":6507,"aspx":6508,"trip":6509,"track":6510,"trunc":6511,"##ummy":6512,"',),":6513,"##_mismatch":6514,"##_major":6515,"##_masked":6516,"tensor1":6517,"tensordict":6518,"tensorserialization":6519,"tensorlist":6520,"tensor_list_":6521,"clip":6522,"retained":6523,"##_nn":6524,"##istance":6525,"stub":6526,"stoch":6527,"impl":6528,"improve":6529,"class_function":6530,"##gslice":6531,"##exp":6532,"##expect":6533,"##_pip":6534,"##_pow":6535,"##_pair":6536,"##_precision":6537,"##_pairs":6538,"##_pkl":6539,"##_pmf":6540,"##_pinv":6541,"##up_fn":6542,"testold":6543,"testcuda":6544,"testoptimizer":6545,"testadam":6546,"testquantized":6547,"testconvnet":6548,"testdb":6549,"testjit":6550,"))``.":6551,"rever":6552,"reject":6553,"repeat":6554,"refactor":6555,"##olesky":6556,"),)":6557,"),))":6558,"##rom_is":6559,"cond":6560,"conf":6561,"conversion":6562,"consist":6563,"connection":6564,"to_check":6565,"to_sparse":6566,"(',":6567,"('/":6568,"('',":6569,"('--":6570,"('${":6571,"##isinstance":6572,"##is_match":6573,"##isele":6574,"##_cpp":6575,"##_cat_nodes":6576,"##_calibration":6577,"##terov":6578,"##terpol":6579,"##omic":6580,"exper":6581,"exac":6582,"outs":6583,"out_j":6584,"out_scale":6585,"out_zero_point":6586,"out_stream":6587,"loop":6588,"##opt":6589,"##_fa":6590,"##_form":6591,"##_fusion":6592,"##_ftrl":6593,"##ultdouble":6594,"##ic_graph":6595,"shares":6596,"strict":6597,"str_or":6598,"##_time":6599,"##_texpr":6600,"inttensor":6601,"##veral":6602,"##ithm":6603,"test_ad":6604,"test_tr":6605,"test_module":6606,"test_torch":6607,"test_float":6608,"test_to":6609,"test_cont":6610,"test_unsupported":6611,"test_mix":6612,"test_spadd":6613,"test_man":6614,"test_stats":6615,"test_only":6616,"test_lt_":6617,"test_unsing":6618,"##ffect":6619,"##ages":6620,"##agonal":6621,"assertis":6622,"assertnot":6623,"assertgre":6624,"skiptest":6625,"skipping":6626,"skip_th":6627,"skipped":6628,"##_by":6629,"##_barrier":6630,"dim_size":6631,"dimmodel":6632,"dim_i":6633,"dim_1d":6634,"(\"\\":6635,"(\"{}":6636,"##ctionfunction":6637,"atomic":6638,"chartensor":6639,"changing":6640,"``'":6641,"get_h":6642,"get_module":6643,"get_device":6644,"getargument":6645,"get_pr":6646,"get_quant_":6647,"get_match":6648,"get_train":6649,"getnon":6650,"get_obj":6651,"getheaders":6652,"##rapped":6653,"outputde":6654,"output_ref":6655,"##ivem":6656,"grad_fn":6657,"gradbucket":6658,"scratch":6659,"vals":6660,"##able_func":6661,"##ableparams":6662,"##addbmm":6663,"##_larg":6664,"module_names":6665,"module_qual":6666,"module_obj":6667,"module_attr":6668,"##spoo":6669,"##splits":6670,"with_cuda":6671,"with_python":6672,"##ply":6673,"##play":6674,"##plus":6675,"##allreduce":6676,"##all_zeros":6677,"##extend":6678,"param_grads":6679,"altern":6680,"alph":6681,"algor":6682,"unre":6683,"unsupported":6684,"unique":6685,"uncompress":6686,"##found":6687,"##_hidden":6688,"##_hybrid":6689,"adopt":6690,"##end_is":6691,"nnodes":6692,"why":6693,"whose":6694,"##ription":6695,"##_input_grad":6696,"##_input_ops":6697,"ell":6698,"elman":6699,"num_flags":6700,"num_threads":6701,"num_shard":6702,"num_em":6703,"num_samples":6704,"quad":6705,"query":6706,"##it__":6707,"##it_utils":6708,"##it_global":6709,"##_grad_hooks":6710,"adding":6711,"address":6712,"add_constant":6713,"add_weight_":6714,"add_vari":6715,"addcmul":6716,"add_calibration":6717,"add_input_ops":6718,"obtained":6719,"##_when":6720,"##_wrapped":6721,"====":6722,"#####":6723,"cuda_version":6724,"cuda_dir":6725,"cuda_available":6726,"cuda_cflags":6727,"cuda_fuser":6728,"restype":6729,"rescal":6730,"resized":6731,"resolution":6732,"res_mu":6733,"res_lr":6734,"res_add":6735,"respon":6736,"run_and":6737,"runwith":6738,"##_rate_":6739,"enqueue_":6740,"entir":6741,"padding_idx":6742,"##ough":6743,"=[]):":6744,"major":6745,"'))),":6746,"')):":6747,"')()":6748,"coeffic":6749,"]).":6750,"])]":6751,"##testcase":6752,"quanttype":6753,"sei":6754,"separ":6755,"several":6756,"work_handle":6757,"convnet":6758,"convmodel":6759,"conv_bn":6760,"##_global":6761,"##valsh":6762,"##ubclass":6763,"profile":6764,"project_":6765,"bias_scale":6766,"necess":6767,"negslice":6768,"##agement":6769,"combination":6770,"data2":6771,"data_queue":6772,"dataitem":6773,"dataclasses":6774,"prs":6775,"##perty":6776,"set_module":6777,"set_weight":6778,"setlevel":6779,"##_module_classes":6780,"grouped":6781,"group_id":6782,"group_argument":6783,"groupby":6784,"group_by":6785,"##ward_output":6786,"##ward_hooks":6787,"all_input":6788,"all_dtypes":6789,"allclose":6790,"##_look":6791,"sample0":6792,"sample1":6793,"sample_func":6794,"##part":6795,"##parator":6796,"argtypes":6797,"argdict":6798,"arg_pos":6799,"##ate_dict":6800,"##ate_qconfig":6801,"##ate_device":6802,"##ate_result":6803,"##ate_bool":6804,"distin":6805,"logcum":6806,"log_so":6807,"logger":6808,"log_ab":6809,"log_prob":6810,"log_pmf":6811,"shard2":6812,"shard1":6813,"shard_id":6814,"dtypes1":6815,"tuple_type":6816,"##cale_factor":6817,"formal":6818,"##ternate_result":6819,"pathlib":6820,"##checked_cast":6821,"graphmatch":6822,"##_data_shape":6823,"##arname":6824,"##arn_always":6825,"##arning_rate":6826,"##aced":6827,"func1":6828,"func_name":6829,"minor":6830,"min_sizes":6831,"content":6832,"contiguous":6833,"##ooleans":6834,"##oofed":6835,"##ize_script":6836,"##_stack":6837,"##_standalone":6838,"109":6839,"formats":6840,"usage":6841,"##criptmodule":6842,"bucket_size":6843,"bucket_ds":6844,"##_config":6845,"##_conv_transpose":6846,"maxpool2d":6847,"maxpool3d":6848,"max_pool2d":6849,"soft":6850,"##_type_to":6851,"##_type_tests":6852,"callback":6853,"##_overr":6854,"not_":6855,"no_dunder":6856,"##_dim_zero":6857,"']:":6858,"']),":6859,"##ved_methods":6860,"##tra_schema":6861,"train_output":6862,"train_ref":6863,"{}...":6864,"##tensordescriptor":6865,"instru":6866,"objects":6867,"raw":6868,"loading":6869,"creation":6870,"createn":6871,"can_cast":6872,"variant":6873,"variant_":6874,"variables":6875,"variants":6876,"python_version":6877,"_size_":6878,"_supported":6879,"_sleep":6880,"status":6881,"##use_":6882,"sample_inputs_b":6883,"sample_inputs_matrix":6884,"sample_inputs_max":6885,"sample_inputs_cross":6886,"sample_inputs_top":6887,"sample_inputs_legacy":6888,"sample_inputs_masked":6889,"sample_inputs_conv_transpose":6890,"size_bytes":6891,"exp_reducer":6892,"expunge":6893,"scriptmodules":6894,"scripted_model":6895,"new_val":6896,"new_node":6897,"new_record":6898,"new_read":6899,"new_time":6900,"comm_size":6901,"comm_rank":6902,"cpu_device_opt":6903,"##faultdouble":6904,"##romoting_ops":6905,"##_child":6906,"##angefactory":6907,"gen_standalone":6908,"##_tracing":6909,"##ob_user":6910,"ones_":6911,"compos":6912,"compress":6913,"complet":6914,"]]:":6915,"across":6916,"accre":6917,"account":6918,"##_graph_module":6919,"overr":6920,"overall":6921,"overload":6922,"schema_obj":6923,"scalar_tensor":6924,"scalar_type_to":6925,"optimizer_no_hook":6926,"initialization":6927,"##string":6928,"anyway":6929,"##onger":6930,"reduceback":6931,"fc5":6932,"fc_spec":6933,"packed_params":6934,"specs":6935,"special":6936,"##modeltest":6937,"]),),":6938,"},`":6939,"},\"${":6940,"##ynchron":6941,"##_model_helper":6942,"cur_dtype":6943,"sub_":6944,"sub_data_shape":6945,"##_autograd":6946,"##parameter":6947,"local_value":6948,"feedrecord":6949,"##devices":6950,"##defaultdouble":6951,"##atterninfo":6952,"forward_only":6953,"##avgpool2d":6954,"ref_b":6955,"should_run":6956,"should_bucket":6957,"padw":6958,"padh":6959,"padtop":6960,"padbottom":6961,"std_mean":6962,"=\"{}":6963,"##ast_coalesced":6964,"copy_weights":6965,"copyfrom":6966,"hash":6967,"hasblob":6968,"('[:":6969,"mask_not_":6970,"file_size":6971,"issubclass":6972,"training_script":6973,"activation_dtype":6974,"blob_names":6975,"gpu_device_opt":6976,"halfto":6977,"});":6978,"})'),":6979,")`;":6980,"_flatten_tensors":6981,"##to_float":6982,"##not_a_fork":6983,"##ropout":6984,"##_compression":6985,"##_compiled":6986,"##ception":6987,"##_to_pro":6988,"##_to_logits":6989,"##_to_all":6990,"##_to_report":6991,"##_to_ac":6992,"default_group":6993,"default_weight_":6994,"##extensions_directory":6995,"[]))":6996,"leq":6997,"leaf":6998,"leaves":6999,"##test_name":7000,"methods":7001,"longstorage":7002,"numpy_dtype":7003,"##_device_type":7004,"##_device_params":7005,"keepdim_i":7006,"serstorage":7007,"serialize":7008,"serialize_":7009,"serstring":7010,"utilities":7011,"##riting":7012,"##rite_":7013,"indices_dict":7014,"register_datapipe":7015,"register_comm_hook":7016,"build_yellowfin":7017,"build_sgd":7018,"build_multi":7019,"build_adagrad":7020,"build_ftrl":7021,"perf":7022,"perform":7023,"preparation":7024,"weight_compare_dict":7025,"##_vs_n":7026,"##_v2_handler":7027,"##apiusagest":7028,"##_cls":7029,"##_result_":7030,"functional_adam":7031,"quantizationtestcase":7032,"divides":7033,"version_str":7034,"sigmoid":7035,"##oin_cuda":7036,"##e_self":7037,"##e_shared":7038,"##_file_not_":7039,"contains":7040,"common_device_type":7041,"_broadcast":7042,"_bottom":7043,"##ort_data_fn":7044,"##alsgd":7045,"##_ops_shape":7046,"##_ops_list":7047,"empty_i":7048,"##_py3":7049,"make_module":7050,"make_tuple":7051,"_pad":7052,"_piper":7053,"_patterninfo":7054,"cudadoubl":7055,"total_size":7056,"extra_cuda":7057,"extra_files":7058,"extra_cflags":7059,"extra_compile_args":7060,"extra_unittest_args":7061,"##convmodel":7062,"broadcastable":7063,"starting":7064,"##_expand":7065,"##_extra_schema":7066,"##works":7067,"including":7068,"##imple_re":7069,"##sert_prepack":7070,"##_test_util":7071,"sys_version":7072,"parameterproxy":7073,"linalg_svd":7074,"linalg_outer":7075,"management":7076,"splits":7077,"##pha_mismatch":7078,"##_min_avg":7079,"##_minute":7080,"##keyiterdatapipe":7081,"filterdescriptor":7082,"_test_serialization":7083,"_test_new":7084,"_test_ddp_logging_data":7085,"_test_basic":7086,"appears":7087,"eval_output":7088,"eval_ref":7089,"rnn_test":7090,"rnn_cell":7091,"rnncell":7092,"index_queues":7093,"origin":7094,"orignal":7095,"printed":7096,"source_dp":7097,"source_file_not_":7098,"create_node":7099,"##_zero_grad":7100,"rootview":7101,"differentgenerated":7102,"##refix":7103,"alpha_f":7104,"##_weighted_context":7105,"createmutex":7106,"named_child":7107,"desired":7108,"var_look":7109,"}}(":7110,"##7376":7111,"is_warn_always":7112,"testtypepromotioncuda":7113,"testtypepromotiondefaultdouble":7114,"conv2d_input":7115,"conv2d_forward":7116,"iteration_tensor":7117,"##with_type_promotion":7118,"##with_default":7119,"assert_aut":7120,"test_slice":7121,"test_simple_re":7122,"broadcast_all":7123,"##cumulate_pred":7124,"ncclallreduce":7125,"_in_bad":7126,"_init_global":7127,"ms6":7128,"msdn":7129,"##method_from":7130,"##functional":7131,"debug_mode_":7132,"debug_pkl":7133,"discrete":7134,"##ussian":7135,"##pad2d":7136,"##oder_hidden":7137,"step_op":7138,"get_attr":7139,"get_queue":7140,"get_ign":7141,"##sparse_":7142,"quantize_handler":7143,"quantize_per_channel":7144,"##_of_elems":7145,"cudnnerror":7146,"cudnn_home":7147,"(*(":7148,"better":7149,"nll_loss":7150,"##_ddp_runtime_":7151,"##_max_avg":7152,"testscalar":7153,"locally":7154,"##abels":7155,"remote_for":7156,"_join_cuda":7157,"corrup":7158,"mean_expand":7159,"##_separator":7160,"##normbenchmark":7161,"worker_id":7162,"zeros_":7163,"zeros_fill":7164,"##_static_graph":7165,"avgpool1d":7166,"[::":7167,"cmd_args":7168,"label2":7169,"{{\\":7170,"##linear_com":7171,"##_as_function":7172,"num_labels":7173,"##_params_module":7174,"##*********":7175,"ddp_model_with":7176,"symbolic_tracing":7177,"basename":7178,"base_le":7179,"##eful":7180,"replicate":7181,"once_differentiable":7182,"##_with_type_promotion":7183,"##_configs_short":7184,"##_configs_long":7185,"softmax2d":7186,"softmaxbenchmark":7187,"softmax_configs":7188,"softmax_ops_list":7189,"complex_types":7190,"_jit_tre":7191,"memory_optimiz":7192,"spoofed":7193,"##ucell":7194,"##sumexp":7195,"##127":7196,"##logical":7197,"stderr_name":7198,"stderr_file_name":7199,"enumerate_support":7200,"##per_tensor_affine":7201,"##_only_zero_dim":7202,"extension_suffix":7203,"elem_size":7204,"2550":7205,"_unflatten_tensors":7206,"_check_is":7207,"_check_shard":7208,"casts":7209,"castable":7210,"mapping":7211,"sm53":7212,"s1_good":7213,"operations":7214,"##_sharing":7215,"##_shuffle":7216,"##_number":7217,"##_property":7218,"test_index":7219,"allowed":7220,"probs_to_logits":7221,"computed":7222,"print_ir":7223,"supports_autograd":7224,"stdout_name":7225,"stdout_file_name":7226,"masked_select":7227,"masked_copy":7228,"currentnamescope":7229,"currentdevices":7230,"signbit":7231,"_prev_seconds":7232,"_create_etcd":7233,"_create_etcd_handler":7234,"_create_method_from":7235,"'.'":7236,",).":7237,"main_link_args":7238,"tw_j":7239,"tmp_dir":7240,"##_isinstance":7241,"value_t":7242,"properly":7243,"##_observer":7244,"]]]):":7245,"accumulated":7246,"skipifunsupportedopsetversion":7247,"initial_seed":7248,"...],":7249,"current_seconds":7250,"manager_status":7251,"applies":7252,"sparse_size":7253,"##_files_iter":7254,"test_reference_numerics_normal":7255,"test_reference_numerics_extrem":7256,"check_batched_grad":7257,"_conv_forward":7258,"relpath":7259,"sinh":7260,"squared":7261,"##_jacobian":7262,"##aterequal":7263,"intermediates":7264,"interface":7265,"trans_b":7266,"trans_a":7267,"##_fold_prepack":7268,"##ive_max":7269,"aggre":7270,"actually":7271,"dist_rank":7272,"dist_world_size":7273,"gloo_ops":7274,"handle_cat_nodes":7275,"handle_only_zero_dim":7276,"likely":7277,"old_val":7278,"old_module_map":7279,"old_seq":7280,"old_zero_grad":7281,"##_check_interval":7282,"test_non_p":7283,"child_height":7284,"script_output":7285,"provide":7286,"min_value":7287,"min_val_neg":7288,"##ect_type_qconfig":7289,"descent":7290,"descending":7291,"description":7292,"instantiate_device":7293,"wrap_cpp":7294,"}.\")":7295,"recursives":7296,"test_fc":7297,"test_forward":7298,"test_from_is":7299,"conv3d_input":7300,"_cuda_empty":7301,"controls":7302,"use_c10":7303,"partition":7304,"generate_configs":7305,"accepts":7306,"accepting":7307,")},":7308,")}),":7309,")}}{":7310,"5074":7311,"_grad_ac":7312,"div_":7313,"greped":7314,"hardtan":7315,"last_time":7316,"last_state":7317,"last_hidden":7318,"pipedread":7319,"pow_reducer":7320,"switch":7321,"##localsgd":7322,"logsoftmax":7323,"test_pow":7324,"logits_to_pro":7325,"##bucket_to_all":7326,"mat2_rank":7327,"mat1_rank":7328,"})`;":7329,"_functionalsgd":7330,"viewbackward":7331,"predict_ref":7332,"predict_output":7333,"pretransformout":7334,"pretransformc3":7335,"pretransformc1":7336,"pretransformnumtensors":7337,"pretransformnumoperators":7338,"posttransformout":7339,"posttransformc3":7340,"posttransformc1":7341,"posttransformnumtensors":7342,"posttransformnumoperators":7343,"_accum":7344,"delet":7345,"fails":7346,"going":7347,"gatherbenchmark":7348,"lstmcell":7349,"nextscop":7350,"}^{":7351,"##p16initializer":7352,"##soft":7353,"replace_all":7354,"recorded":7355,"(\"\"\"\\":7356,"##_relationship":7357,"conv1d_input":7358,"##_outputs_sum":7359,"max_value":7360,"statregistryupd":7361,"sample_inputs_linalg_":7362,"sample_inputs_linalg_solve":7363,"##parametersync":7364,"serialized_dict":7365,"cross_product":7366,"normalize":7367,"_jit_pass_fold_prepack":7368,"binary_cross_entropy":7369,"maybe_insert_observer_for_output_of_the_node":7370,"c3f":7371,"rref_isinstance":7372,"such":7373,"suitable":7374,"sgdoptimizer":7375,"simplequeue":7376,"simplefilter":7377,"safetod":7378,"##dependency":7379,"##eature_s":7380,"##storageview":7381,"##_platform":7382,"##_compute_":7383,"exporter":7384,"shorttensor":7385,"stringio":7386,"##estedname":7387,"scatter_":7388,"scatteradd":7389,"scatter_add":7390,"adaptivem":7391,"adaptive_max":7392,"batchnorm2d":7393,"batchnorm3d":7394,"batchnorm_configs_short":7395,"_compilation":7396,"propagate_qconfig":7397,"##_optim_mapping":7398,"##coalesce":7399,"reductionparameter":7400,"weak_self":7401,"subgraphtyper":7402,"subgraph_relationship":7403,"init_ops_list":7404,"prepare_static":7405,"##compare_dict_valid":7406,"eventually":7407,"avg_pool1d":7408,"##********************************":7409,"learning_rate_":7410,"optimization_blocklist":7411,"optimization_blocklist_no_fold_bn":7412,"_validate_non":7413,"_validate_not_a_fork":7414,"bmmbenchmark":7415,"bmm_configs":7416,"memonger":7417,"s2_good":7418,"##acos":7419,"##qat_qconfig":7420,"##ored_functions":7421,"##_dispatcher":7422,"standalone_module_name":7423,"standalone_module_names":7424,"standalone_module_classes":7425,"##_calls":7426,"##_libs":7427,"distance_avg":7428,"caffe_pb2":7429,"uses_grad":7430,"uses_single":7431,"differentiable_outputs":7432,"customtrac":7433,"custom_module_classes":7434,"predictions":7435,"constructs":7436,"inserted_observer":7437,"successors":7438,"={},":7439,"={}\".":7440,"_use_shared":7441,"c4f":7442,"fp16_compress":7443,"grucell":7444,"next_id":7445,"qatlinear":7446,"##even":7447,"##shuffle":7448,"##singlelayerlinearmodel":7449,"##ts__":7450,"##cerangefactory":7451,"##beddings":7452,"##ordered":7453,"deepcop":7454,"##ization_barrier":7455,"forked_value":7456,"testmultiprocessing":7457,"))]:":7458,"converts":7459,"test_caffe2":7460,"test_can_cast":7461,"android":7462,"##output_activation_post_process":7463,"')])":7464,"all_files_set":7465,"prev_k":7466,"previous_keys":7467,"instance_norm":7468,"overwrite":7469,"overwritten":7470,"overwriting":7471,"specifications":7472,"matched_files_iter":7473,"functional_optim_map":7474,"functional_optim_cls":7475,"_batch_inverse":7476,"seq_lengths2":7477,"##########################################":7478,"optimization_blacklist_no_fold_bn":7479,"transpose_a":7480,"transpose_b":7481,"transpose_network":7482,"manual_seed":7483,"recurrentnetwork":7484,"({})\".":7485,"g_norm2_avg":7486,"g_norm2_min_avg":7487,"g_norm2_max_avg":7488,"microsoft":7489,"make_relative_rpath_args":7490,"cudnndestroyfilterdescriptor":7491,"cudnndestroyconvolutiondescriptor":7492,"cudnndestroytensordescriptor":7493,"'\\.":7494,"4352":7495,"4369":7496,"={'":7497,"]+')":7498,"capability":7499,"cap_major":7500,"lets":7501,"leads":7502,"lazy_property":7503,"pixels":7504,"pixelshuffle":7505,"save_":7506,"saved_tensors":7507,"svdvals":7508,"}(${":7509,"}()'),":7510,"()[-":7511,"()[:-":7512,"stopgradient":7513,"armv7":7514,"concat":7515,"concrete_type_builder":7516,"##_cache":7517,"##ified_name":7518,"test_booleans":7519,"test_add_wrapped":7520,"test_comparison_ops":7521,"skip_override_":7522,"uniformfill":7523,"_cw_op":7524,"iters_to_report":7525,"integral_types_and":7526,"needs_input_grad":7527,"1000000":7528,"default_sort_data_fn":7529,"keepdim_dim_1d":7530,"total_num_of_elems":7531,"seq2seqmodelhelper":7532,"seq2seq_model_helper":7533,"##_iteration_name":7534,"_jit_set_texpr":7535,"zero_dim_dispatch_when":7536,"([[[[":7537,"##_eval_fn":7538,"_register_grad_hooks":7539,"(\"[::-":7540,"executes":7541,"preserved_methods":7542,"##_uses_with":7543,"##distributedparametersync":7544,"annotatedconvmodel":7545,"annotatedsinglelayerlinearmodel":7546,"_perfect_model":7547,"_per_device_params":7548,"_set_static_graph":7549,"_namescope_separator":7550,"careful":7551,"c10d_rendezvous_backend":7552,"jobs":7553,"odd":7554,"odds":7555,"pin_memory":7556,"popen":7557,"re_cu_suffix":7558,"singular":7559,"singlelayerlinearmodel":7560,"##line_ever":7561,"##moidcrossentropyloss":7562,"##085":7563,"##pute_linear_com":7564,"ast_2":7565,"ast_1":7566,"trials":7567,"##_mode_ad":7568,"stacks":7569,"receives":7570,"received":7571,"external_input":7572,"##_fuser_enabled":7573,"test_half":7574,"test_alternate_result":7575,"test_alpha_mismatch":7576,"test_int_promotion":7577,"test_int_to_float":7578,"get_default_qat_qconfig":7579,"get_default_output_activation_post_process":7580,"nniq":7581,"##_rng_state":7582,"convbn2d":7583,"convbnrelu2d":7584,"_calc_attention":7585,"_calc_weighted_context":7586,"##_read_all":7587,"maxunpool3d":7588,"##_overlapping":7589,"trainer0":7590,"trainer_extra_schema":7591,"loader_path":7592,"datalist":7593,"dataloader":7594,"approach":7595,"approximation":7596,"export_stack":7597,"##_after_compression":7598,"denote":7599,"denotes":7600,"rnn_test_order_val":7601,"}}{{\\":7602,"cls_to_check":7603,"cls_to_register":7604,"get_qconfig_dtypes":7605,"configure_extension":7606,"maskedselect":7607,"maskedscatter":7608,"##_runtime_version":7609,"wrapped_fn":7610,"movedim":7611,"test_promote_types":7612,"test_promote_self":7613,"_functionaladamw":7614,"act_type_start_":7615,"act_type_end":7616,"adaptiveavgpool2d":7617,"deserializedgenerated":7618,"_log_inputs_per_interval":7619,"_log_inputs_per_minute":7620,"test_nllloss_2d_mean_ignor":7621,"determined":7622,"determinist":7623,"embedding_dim":7624,"(...)":7625,"*')))":7626,"------\")":7627,"29500":7628,"3799":7629,"51127":7630,"[('":7631,"_adddistributedparametersync":7632,"_num_events":7633,"__torch__":7634,"csrc":7635,"cmp_fn":7636,"collate_":7637,"einsummodel":7638,"image":7639,"klong":7640,"lintcode":7641,"ndarray":7642,"nomnigraph":7643,"purpose":7644,"rsub":7645,"slogdet":7646,"tune":7647,"}/{":7648,"##pickler":7649,"##yze":7650,"invoked":7651,"decoder_hidden":7652,"dequeueblobs":7653,"##ed_repo":7654,"is_same_size":7655,"replaced":7656,"exc_value":7657,"excluded":7658,"lockfile":7659,"test_serialize":7660,"test_result_type":7661,"test_with_rocm":7662,"test_create_bool":7663,"##estoragebase":7664,"behind":7665,"add_ops_to_ac":7666,"_compute_linear_com":7667,"allreduced":7668,"formulation":7669,"max_unpool2d":7670,"sourcerangefactory":7671,"dataparallelmodeltest":7672,"##use_dont_in":7673,"communication":7674,"compilationunit":7675,"overridable_func":7676,"pads_i":7677,"remainder":7678,"automatically":7679,"attn_mask":7680,"##_executor":7681,"benchmark_core":7682,"cudnncreate":7683,"remote_end_is":7684,"validate_args":7685,"##logging_sample":7686,"interpreter":7687,"pretrained_blobs":7688,"frameworks":7689,"_weight_bias":7690,"cached_file":7691,"convtranspose3dbenchmark":7692,"recurrent_net":7693,"safecoalesce":7694,"poisson":7695,"\\\"]\")":7696,"test_complex_grad":7697,"total_numel_after_compression":7698,"##pytorchapiusagest":7699,"4917":7700,"root_extensions_directory":7701,"test_matmul_py3":7702,"fake_quantize_per_tensor_affine":7703,"_jit_set_profiling_executor":7704,"#########################################################################":7705,"2265":7706,"6250":7707,"767376":7708,"8221":7709,"9456":7710,"_tmp_d":7711,"_orig":7712,"_is_zipfile":7713,"_tensorbase":7714,"_quantize_script":7715,"__exit__":7716,"_optimizer_iteration_name":7717,"_packed_params_module":7718,"_list_with_default":7719,"_multisele":7720,"_worker_loop":7721,"_local_rank_":7722,"_dist_broadc":7723,"_parse_repo":7724,"__slots__":7725,"`='":7726,"a_clone":7727,"bit_length":7728,"bisect":7729,"basetrans":7730,"closure":7731,"cumsum":7732,"code_str":7733,"dqm":7734,"dense_size":7735,"destination":7736,"figure":7737,"folding":7738,"gaussian":7739,"g_avg_blob":7740,"html":7741,"lerp":7742,"lagging":7743,"mingzh":7744,"nesterov":7745,"nesting_le":7746,"pfp16initializer":7747,"potent":7748,"pstrf":7749,"post_localsgd":7750,"qactivation":7751,"q_input_one":7752,"qint32":7753,"qparams_dict":7754,"qbatchnormbenchmark":7755,"ssi":7756,"sutske":7757,"slices":7758,"squeezed":7759,"selected":7760,"taken":7761,"takes":7762,"upscale_factor":7763,"wrong":7764,"x86_64":7765,"}\",${":7766,"}>(${":7767,"##_4d":7768,"##_url":7769,"##_encoder_outputs_sum":7770,"##e0908":7771,"##sigmoidcrossentropyloss":7772,"##s_det_jacobian":7773,"##c_generic":7774,"##bynestedname":7775,"##fieldbynestedname":7776,"##vanced":7777,"##y_promotions":7778,"##]+)":7779,"##onotuse_dont_in":7780,"increase":7781,"insert_observer_for_output_of_the_node":7782,"inconsistent":7783,"inlined":7784,"indextensor":7785,"demonstr":7786,"self_cpu_time_total":7787,"##ed_type_backward":7788,"##edict_net":7789,"##odiffed":7790,"##rolling":7791,"##ingexception":7792,"##ing_nets":7793,"##ing_subgraph_pairs":7794,"##e_views":7795,"##e_last_bucket_to_all":7796,"##trainableparams":7797,"##imental":7798,"is_macos":7799,"is_active":7800,"is_extension_module":7801,"is_the_last_bucket_to_all":7802,"is_package":7803,"op_dev":7804,"##ip_file_path":7805,"input_feature_s":7806,"tensorserializationspoo":7807,"tensor_list_checked_cast":7808,"stochastic":7809,"##expected":7810,"##_pair_overlap":7811,"##_precision_sgd":7812,"testoldserialization":7813,"testconvnetbenchmarks":7814,"consistent":7815,"##terpolate_":7816,"experimental":7817,"exact_dtype":7818,"##_format":7819,"str_or_bytes":7820,"test_float_promotion":7821,"test_contig":7822,"test_unsupported_dtypes":7823,"test_mixed_type_backward":7824,"test_many_promotions":7825,"test_stats_ops":7826,"test_only_eval_fn":7827,"test_lt_with_type_promotion":7828,"test_unsinged":7829,"assertnotequal":7830,"assertgreaterequal":7831,"skip_this_match":7832,"atomiciter":7833,"get_hip_file_path":7834,"get_module_method":7835,"getargumentparser":7836,"get_predict_net":7837,"get_quant_type":7838,"get_matching_subgraph_pairs":7839,"get_training_nets":7840,"getnontrainableparams":7841,"get_object_type_qconfig":7842,"outputdeclaration":7843,"module_qualified_name":7844,"module_attrs":7845,"algorithm":7846,"unsupported_calls":7847,"num_shards":7848,"num_embeddings":7849,"add_weight_decay":7850,"add_variants":7851,"addcmul_":7852,"add_calibration_ops":7853,"=====":7854,"cuda_version_str":7855,"cuda_available_str":7856,"rescaling":7857,"response":7858,"run_and_read_all":7859,"runwithpytorchapiusagest":7860,"enqueue_splits":7861,"entirely":7862,"separate":7863,"conv_bn_fusion":7864,"project_directory":7865,"necessary":7866,"set_module_name":7867,"group_arguments":7868,"groupbykeyiterdatapipe":7869,"logcumsumexp":7870,"log_softmax":7871,"log_abs_det_jacobian":7872,"graphmatchingexception":7873,"softplus":7874,"no_dunder_file":7875,"{}...'.":7876,"createnet":7877,"variant_test_name":7878,"_supported_optim_mapping":7879,"sample_inputs_matrix_exp":7880,"sample_inputs_max_min":7881,"sample_inputs_topk":7882,"sample_inputs_legacy_solve":7883,"sample_inputs_masked_select":7884,"sample_inputs_conv_transpose2d":7885,"new_reader":7886,"completely":7887,"accreal":7888,"initialization_op":7889,"packed_params_module":7890,"##ynchronization_barrier":7891,"should_run_set":7892,"should_bucket_param":7893,"mask_not_all_zeros":7894,"halftofloat":7895,"##_compiled_version":7896,"default_group_key_fn":7897,"default_weight_observer":7898,"serialize_module":7899,"register_datapipe_as_function":7900,"build_multi_precision_sgd":7901,"##_vs_numpy":7902,"cudadoublestoragebase":7903,"extra_cuda_cflags":7904,"##sert_prepack_unpack":7905,"_test_new_device":7906,"_test_basic_ops_shape":7907,"source_file_not_found":7908,"named_children":7909,"var_lookup_fn":7910,"is_warn_always_enabled":7911,"assert_autodiffed":7912,"_in_bad_fork":7913,"_init_global_test":7914,"debug_mode_str":7915,"get_ignored_functions":7916,"##_ddp_runtime_logging_sample":7917,"remote_forward_output":7918,"_join_cuda_home":7919,"corruption":7920,"mean_expanded":7921,"zeros_fillin":7922,"ddp_model_with_no_hook":7923,"base_learning_rate":7924,"_jit_tree_views":7925,"memory_optimization":7926,"extension_suffixes":7927,"_check_is_graph_module":7928,"_check_shard_pair_overlap":7929,"sm53orlater":7930,"currentdevicescope":7931,"_create_etcd_v2_handler":7932,"_create_method_from_trace":7933,"tw_job_user":7934,"manager_status_check_interval":7935,"test_reference_numerics_extremal":7936,"old_seq_id":7937,"test_non_promoting_ops":7938,"child_heights":7939,"instantiate_device_type_tests":7940,"wrap_cpp_module":7941,"recursivescriptmodule":7942,"test_forward_mode_ad":7943,"test_from_issue":7944,"_cuda_emptycache":7945,"use_c10_dispatcher":7946,"50743":7947,"_grad_accs":7948,"hardtanh":7949,"pipedreaderbuilder":7950,"logits_to_probs":7951,"nextscopedblob":7952,"replace_all_uses_with":7953,"statregistryupdate":7954,"safetodense":7955,"##_compute_time":7956,"adaptivemax":7957,"_compilation_unit":7958,"subgraphtyperelationship":7959,"prepare_static_fx":7960,"##*****************************************":7961,"learning_rate_blob":7962,"_validate_non_overlapping":7963,"_validate_not_a_forked_repo":7964,"uses_single_grad":7965,"customtracer":7966,"_use_shared_memory":7967,"fp16_compress_hook":7968,"deepcopied":7969,"test_comparison_ops_with_type_promotion":7970,"skip_override_set":7971,"_jit_set_texpr_fuser_enabled":7972,"zero_dim_dispatch_when_scalar":7973,"##line_everything":7974,"get_default_output_activation_post_process_map":7975,"export_stacks":7976,"configure_extension_build":7977,"test_nllloss_2d_mean_ignore_index":7978,"collate_fn":7979,"decoder_hidden_encoder_outputs_sum":7980,"test_create_bool_tensors":7981,"add_ops_to_accumulate_pred":7982,"_compute_linear_combination":7983,"overridable_funcs":7984,"remote_end_is_script":7985,"767376085":7986,"_tmp_donotuse_dont_in":7987,"_multiselectionfunction":7988,"_dist_broadcast_coalesced":7989,"_parse_repo_info":7990,"basetranslate":7991,"gaussianfill":7992,"mingzhe0908":7993,"nesting_level":7994,"post_localsgd_optimizer":7995,"sutskever":7996,"##c_generic_file":7997,"is_the_last_bucket_to_allreduce":7998,"input_feature_schema":7999,"tensorserializationspoofer":8000,"runwithpytorchapiusagestderr":8001,"##_ddp_runtime_logging_sample_rate":8002,"_tmp_donotuse_dont_inline_everything":8003,"!\"":8004,"!\")":8005,"\"}":8006,"\"*****************************************":8007,"##":8008,"'}":8009,"'\",":8010,"'${":8011,"(\\":8012,")-":8013,")],":8014,")',":8015,")\")":8016,")'.":8017,")'),":8018,"*[":8019,"*)":8020,"*>(":8021,",\\":8022,",...":8023,".:":8024,"./":8025,".*":8026,".%":8027,".)),":8028,".\".":8029,"/<":8030,"/%":8031,"0s":8032,"00":8033,"0x":8034,"07":8035,"03":8036,"1m":8037,"13":8038,"18":8039,"2000":8040,"3d":8041,"31":8042,"352":8043,"345":8044,"4m":8045,"40":8046,"48":8047,"5d":8048,"5e":8049,"57":8050,"53":8051,"547":8052,"60":8053,"65":8054,"66":8055,"69":8056,"6000":8057,"78":8058,"800":8059,"899":8060,"973":8061,":\"":8062,":(":8063,"<(":8064,">,":8065,">\",":8066,"?!":8067,"[{}":8068,"[...":8069,"\\:":8070,"\\'":8071,"\\{":8072,"\\}":8073,"\\|":8074,"_o":8075,"_an":8076,"_ad":8077,"_ty":8078,"_ap":8079,"_ver":8080,"_test":8081,"_val":8082,"_ma":8083,"_dim":8084,"_dat":8085,"_param":8086,"_max":8087,"_ta":8088,"_run":8089,"__dir":8090,"_lock":8091,"_empty":8092,"__qual":8093,"_nvrtc":8094,"_storage":8095,"_datapipe":8096,"_load":8097,"_float32":8098,"_down":8099,"_upd":8100,"_extend":8101,"_part":8102,"`[":8103,"`*":8104,"`).":8105,"am":8106,"az":8107,"aw":8108,"ach":8109,"at_":8110,"average":8111,"a_min":8112,"a_max":8113,"affect":8114,"bi":8115,"bar":8116,"bce":8117,"big":8118,"bold":8119,"bund":8120,"block":8121,"bcol":8122,"barrier":8123,"below":8124,"baddbmm":8125,"cc":8126,"cb":8127,"cer":8128,"cput":8129,"cop":8130,"card":8131,"cir":8132,"c_type":8133,"cast_":8134,"cflags":8135,"care":8136,"cpick":8137,"dl":8138,"dp":8139,"ds":8140,"dam":8141,"dis":8142,"dag":8143,"dos":8144,"down":8145,"dynam":8146,"doub":8147,"digraph":8148,"detailed":8149,"dense_":8150,"duse_d":8151,"darwin":8152,"duse_":8153,"eg":8154,"e7":8155,"eas":8156,"eul":8157,"ever":8158,"effic":8159,"effect":8160,"fo":8161,"ff":8162,"f7":8163,"fur":8164,"fid":8165,"fif":8166,"fab":8167,"free":8168,"four":8169,"frequency":8170,"gu":8171,"gt":8172,"gh":8173,"glow":8174,"gemm":8175,"gzip":8176,"hi":8177,"hel":8178,"han":8179,"hand":8180,"hap":8181,"hpp":8182,"handl":8183,"hermitian":8184,"ip":8185,"ii":8186,"ide":8187,"ipc":8188,"js":8189,"jit_utils":8190,"kt":8191,"kth":8192,"kld":8193,"known":8194,"lu":8195,"la":8196,"lt":8197,"ln":8198,"lh":8199,"lens":8200,"lim":8201,"lex":8202,"lic":8203,"lack":8204,"larg":8205,"ldex":8206,"lang":8207,"l_1":8208,"l1loss":8209,"mm":8210,"mp":8211,"mer":8212,"mig":8213,"mis":8214,"misc":8215,"more_":8216,"move":8217,"miop":8218,"na":8219,"ny":8220,"nx":8221,"nan":8222,"nargs":8223,"nbatch":8224,"ninja":8225,"ou":8226,"oc":8227,"oss":8228,"pd":8229,"pt_":8230,"port":8231,"pid":8232,"pol":8233,"patch":8234,"piv":8235,"proc":8236,"pairs":8237,"qw":8238,"qtensor":8239,"q_scale":8240,"q_zero_point":8241,"qfunctional":8242,"rm":8243,"rb":8244,"ren":8245,"red":8246,"rad":8247,"rid":8248,"rmd":8249,"r10":8250,"rprop":8251,"rdz":8252,"sv":8253,"sch":8254,"side":8255,"suffix":8256,"sampler":8257,"solve":8258,"slash":8259,"te":8260,"tb":8261,"t1":8262,"tor":8263,"ter":8264,"tit":8265,"tol":8266,"tag":8267,"tab":8268,"tlib":8269,"tbb":8270,"tutor":8271,"ub":8272,"uint":8273,"v0":8274,"v1":8275,"vel":8276,"vis":8277,"vir":8278,"wo":8279,"ww":8280,"won":8281,"war":8282,"w_g":8283,"wind":8284,"world":8285,"w12":8286,"w_mu":8287,"w_lr":8288,"w_scalar":8289,"write_":8290,"xp":8291,"xen":8292,"xyz":8293,"xxx":8294,"{\"\"":8295,"}\"":8296,"}[":8297,"}\"\"":8298,"}],":8299,"}'.":8300,"##lr":8301,"##ling":8302,"##less":8303,"##lator":8304,"##l2d":8305,"##long":8306,"##l1loss":8307,"##di":8308,"##dout":8309,"##ddp":8310,"##dispatch":8311,"##_u":8312,"##_2":8313,"##_ar":8314,"##_an":8315,"##_put":8316,"##_ro":8317,"##_ap":8318,"##_if":8319,"##_equ":8320,"##_32":8321,"##_ke":8322,"##_ell":8323,"##_one_":8324,"##_ufunc":8325,"##_queue_":8326,"##me":8327,"##mer":8328,"##ming":8329,"##mot":8330,"##mode":8331,"##mend":8332,"##mine":8333,"##mull":8334,"##mov":8335,"##m_files":8336,"##mart_":8337,"##mismatch":8338,"##mart":8339,"##oun":8340,"##ooth":8341,"##ograph":8342,"##override_":8343,"##oice":8344,"##ological":8345,"##ual":8346,"##uard":8347,"##uage":8348,"##ugin":8349,"##ee":8350,"##ee_":8351,"##eval":8352,"##epp":8353,"##efin":8354,"##eases":8355,"##einsum":8356,"##aw":8357,"##pi":8358,"##por":8359,"##pid":8360,"##pend":8361,"##pow":8362,"##ptensor":8363,"##pings":8364,"##pawn":8365,"##pendency":8366,"##prefix":8367,"##\"')":8368,"##\"]+)":8369,"##:\",":8370,"##ses":8371,"##sal":8372,"##sed":8373,"##sis":8374,"##sic":8375,"##sample":8376,"##single":8377,"##sive":8378,"##s_a":8379,"##s_from":8380,"##script_":8381,"##soc":8382,"##scalar":8383,"##s_not_":8384,"##slash":8385,"##iq":8386,"##ior":8387,"##itr":8388,"##iqu":8389,"##iated":8390,"##ially":8391,"##ieved":8392,"##rod":8393,"##ric":8394,"##rate":8395,"##range":8396,"##rent_":8397,"##rink":8398,"##ranch":8399,"##rdz":8400,"##raw":8401,"##tue":8402,"##tain":8403,"##tly":8404,"##teg":8405,"##tchain":8406,"##zol":8407,"##cet":8408,"##cle":8409,"##can":8410,"##ct_":8411,"##cro":8412,"##cip":8413,"##cation":8414,"##cud":8415,"##c_with":8416,"##caffe2":8417,"##coding":8418,"##cending":8419,"##crete_type_builder":8420,"##kes":8421,"##ktop":8422,"##ged":8423,"##gated":8424,"##gather":8425,"##nv":8426,"##ned":8427,"##nist":8428,"##nec":8429,"##never":8430,"##nect_":8431,"##nmatch":8432,"##nested":8433,"##nllloss":8434,"##ninja":8435,"##want":8436,"##wire":8437,"##07":8438,"##06":8439,"##032":8440,"##bind":8441,"##both":8442,"##binomial":8443,"##box":8444,"##body":8445,"##bitr":8446,"##branch":8447,"##hh":8448,"##her":8449,"##height":8450,"##hint":8451,"##how":8452,"##handl":8453,"##head":8454,"##hould":8455,"##host":8456,"##hapes":8457,"##hash":8458,"##hybrid":8459,"##qr":8460,"##qnn":8461,"##qparams":8462,"##for":8463,"##f_trace":8464,"##flatten":8465,"##faces":8466,"##56":8467,"##')))":8468,"##v_indexing":8469,"##v_id":8470,"##void":8471,"##vcc":8472,"##ython":8473,"##y_wrapper":8474,"##ystem":8475,"##yme":8476,"##ysis":8477,"##2backend":8478,"##233":8479,"##253":8480,"##2_config":8481,"##j_key":8482,"##just":8483,"##jit_utils":8484,"##./":8485,"##.\".":8486,"##xp":8487,"##x2":8488,"##7032":8489,"##48":8490,"##30":8491,"##34":8492,"##36":8493,"##1_t":8494,"##100":8495,"##150":8496,"##133":8497,"##])":8498,"##]',":8499,"##\\\\":8500,"##{{":8501,"##^\\":8502,"##^{{":8503,"##>')":8504,"##>${":8505,"##>]+)":8506,"##98":8507,"##907":8508,"##948":8509,"##89":8510,"##824":8511,"##880":8512,"##8233":8513,"##87032":8514,"##*',":8515,"##ores":8516,"##ories":8517,"##er_n":8518,"##er_promotion":8519,"##er_constant":8520,"##er_threads":8521,"##erstate":8522,"##er_cmd":8523,"##er_ab":8524,"##ats":8525,"##atic":8526,"##ativ":8527,"##atial":8528,"##atures":8529,"##atetensor":8530,"##ately":8531,"##atible":8532,"##atively":8533,"##atives":8534,"##esserror":8535,"##onto":8536,"##on_gpu":8537,"##onically":8538,"##oncpu":8539,"##ini":8540,"##ines":8541,"##ine_":8542,"##inter":8543,"##inary":8544,"##invalid":8545,"##insic":8546,"##inc_with":8547,"##enot":8548,"##en_interval":8549,"##en_runtime_version":8550,"##elity":8551,"##elerated":8552,"##elines":8553,"##chrom":8554,"##utable":8555,"##utdown":8556,"##ut_u":8557,"##etty":8558,"##etic":8559,"##etest":8560,"##etost":8561,"##etestcase":8562,"##arant":8563,"##arang":8564,"##arpctest":8565,"##alize":8566,"##alias":8567,"##alec":8568,"##alloc":8569,"##aloader":8570,"##alyze":8571,"incor":8572,"infer":8573,"inspec":8574,"incom":8575,"inline":8576,"indep":8577,"insert_observers":8578,"inher":8579,"dequant":8580,"decode":8581,"degre":8582,"dealloc":8583,"##le_h":8584,"##ledp":8585,"##leaf":8586,"##leaves":8587,"##an_e":8588,"self_cuda":8589,"##edul":8590,"##ed_in":8591,"##ed_l":8592,"##ed_grad":8593,"##edparams":8594,"##ed_tuple":8595,"##ed_blobs":8596,"##ed_vari":8597,"##edtuple":8598,"##edqparams":8599,"##edinter":8600,"##asur":8601,"##async":8602,"##ase_node":8603,"##ased_re":8604,"##peagent":8605,"thc":8606,"thform":8607,"think":8608,"threads":8609,"thstride":8610,"thc_generic_file":8611,"thlong":8612,"thptensor":8613,"##t_dim":8614,"##t_fn":8615,"##t_function":8616,"##t_utils":8617,"##t_fx":8618,"##t_char":8619,"##t_compare_dict_valid":8620,"torchscript":8621,"torch_version":8622,"##amed":8623,"##amine":8624,"##pute_tr":8625,"##putedparams":8626,"##adropout":8627,"##rough":8628,"##stop":8629,"##stly":8630,"##store":8631,"##stance":8632,"##stestcase":8633,"##stepp":8634,"##ingly":8635,"##ing_point":8636,"##ing_wrapper":8637,"##ing_after":8638,"##ing_overr":8639,"##ty_m":8640,"##tyellowfin":8641,"their":8642,"##e_a":8643,"##e_and":8644,"##e_32":8645,"##e_blob":8646,"##e_dtype":8647,"##e_ops":8648,"##e_params":8649,"##e_once":8650,"##e_network":8651,"##e_paths":8652,"##e_neg":8653,"##e_hooks":8654,"##e_prefix":8655,"##ensi":8656,"##ensively":8657,"##cted":8658,"##ctically":8659,"##trnn":8660,"##import":8661,"##loy":8662,"##lope":8663,"##loop":8664,"##located":8665,"##iting":8666,"##itated":8667,"##itally":8668,"##seen":8669,"##sequ":8670,"##seholder":8671,"##unpool":8672,"##unpickler":8673,"##uniqu":8674,"##rep":8675,"##repl":8676,"##rective":8677,"##reverse":8678,"##repeat":8679,"##regg":8680,"testyellowfin":8681,"testrnn":8682,"##ulate":8683,"##ulelist":8684,"##vis":8685,"##vial":8686,"##vigate":8687,"()`":8688,"()]":8689,"()],":8690,"()',":8691,"##_do":8692,"##_div":8693,"##_due_":8694,"##_darwin":8695,"##_dropout":8696,"##urse":8697,"isn":8698,"is_de":8699,"is_tensor":8700,"is_complex":8701,"is_match":8702,"is_float":8703,"is_linalg":8704,"is_zipfile":8705,"is_le":8706,"is_activation_post_process":8707,"isalias":8708,"is_darwin":8709,"op_name":8710,"opname":8711,"op_gpu":8712,"##_sz":8713,"##_som":8714,"##_scope":8715,"##_sign":8716,"##_synchronization_barrier":8717,"##_spawn":8718,"##_syme":8719,"##_sinc_with":8720,"##sertraises":8721,"forget":8722,"##ipli":8723,"##ipses":8724,"##typeas":8725,"##type_type":8726,"##otest":8727,"##iling":8728,"##il_c":8729,"##ilures":8730,"input3":8731,"input_t":8732,"input_data":8733,"input_sizes":8734,"modu":8735,"modstr":8736,"modify":8737,"modified":8738,"modifies":8739,"modulelist":8740,"##igate":8741,"##igger":8742,"##igvalsh":8743,"devicet":8744,"ask":8745,"asan":8746,"as_method":8747,"as_function":8748,"assoc":8749,"ascending":8750,"tru":8751,"transp":8752,"trick":8753,"triple":8754,"trigger":8755,"##um_r":8756,"##umemory":8757,"##umns":8758,"','.":8759,"##_mb":8760,"##_mess":8761,"##_mark":8762,"##_metadata":8763,"##_margin":8764,"##_magic_methods":8765,"##ands":8766,"##andcuda":8767,"deviceplacement":8768,"device_str":8769,"tensordataset":8770,"tensorpi":8771,"retval":8772,"retry":8773,"##_none":8774,"##_nll":8775,"##_nvcc":8776,"##_inference":8777,"##_internal":8778,"##_include":8779,"##_integ":8780,"##ists":8781,"##istserror":8782,"stir":8783,"stall":8784,"standl":8785,"stored":8786,"state_dict":8787,"stores":8788,"impele":8789,"returning":8790,"##idx":8791,"##idable":8792,"##ided_grad":8793,"##external":8794,"##existserror":8795,"##_pol":8796,"##_proc":8797,"##_pattern":8798,"##_pick":8799,"##_parallel":8800,"##_parity":8801,"##_prefix":8802,"##up_bucket":8803,"imported":8804,"importers":8805,"tested":8806,"testadd":8807,"teststr":8808,"testone":8809,"testcomp":8810,"testfunction":8811,"testdecay":8812,"testdataparallel":8813,"testbatch":8814,"testnon":8815,"testwarn":8816,"testcontain":8817,"testpy":8818,"testnam":8819,"testget":8820,"testhooks":8821,"testisinstance":8822,"testdependency":8823,"testboth":8824,"testhash":8825,"testqnn":8826,"testimport":8827,"recom":8828,"regex":8829,"revert":8830,"reverse":8831,"repos":8832,"rewrite":8833,"##quired":8834,"##olved":8835,"),)),":8836,"arang":8837,"arbitr":8838,"##udastream":8839,"const_":8840,"consum":8841,"constant_":8842,"to_h":8843,"topo":8844,"(':":8845,"(''":8846,"('-":8847,"('\\":8848,"('{":8849,"('')":8850,"##isdefined":8851,"anoth":8852,"##_cp":8853,"##_clob":8854,"##_cump":8855,"##_center":8856,"##_c2_config":8857,"examine":8858,"outer":8859,"out_dtype":8860,"out_record":8861,"loat":8862,"##if_tensor":8863,"##optest":8864,"##opnames":8865,"##opquantizehandler":8866,"##_firs":8867,"##_fp16":8868,"##_fuse_":8869,"##icator":8870,"##icular":8871,"##icograph":8872,"shm":8873,"sha":8874,"short_":8875,"shutil":8876,"sharing":8877,"shrink":8878,"strides":8879,"##_ts":8880,"##_tmp":8881,"##_tile":8882,"##_tuples":8883,"##veread":8884,"##verse_":8885,"##versal":8886,"##vert_fx":8887,"##loats":8888,"##grade":8889,"##grads":8890,"test_ff":8891,"test_tim":8892,"test_case":8893,"test_co":8894,"test_low":8895,"test_de":8896,"test_pr":8897,"test_no":8898,"test_path":8899,"test_key":8900,"test_method":8901,"test_mul":8902,"test_norm":8903,"test_cd":8904,"test_pattern":8905,"test_batch":8906,"test_cpp_extension":8907,"test_copy":8908,"test_warn":8909,"test_load":8910,"test_time_":8911,"test_random":8912,"test_directory":8913,"test_static":8914,"test_ddp_logging_data":8915,"test_logging":8916,"test_factory":8917,"test_isinstance":8918,"test_sparse_":8919,"test_storageview":8920,"test_einsum":8921,"test_gather":8922,"test_jit_utils":8923,"test_arang":8924,"test_leaf":8925,"test_stepp":8926,"test_loop":8927,"##age_once":8928,"assertdevice":8929,"assertexpected":8930,"##though":8931,"##thc_generic_file":8932,"##through":8933,"skip_list":8934,"skipmeta":8935,"##_br":8936,"##_bef":8937,"##_block":8938,"##_broadcast":8939,"##_boun":8940,"##_binary":8941,"##_but_u":8942,"##_based_re":8943,"dim_scalar":8944,"dimensi":8945,"dim_sz":8946,"##ardless":8947,"##),\"":8948,"##),),":8949,"(\"{":8950,"(\"${":8951,"(\"*****************************************":8952,"##ction_no":8953,"##ctionpad2d":8954,"atm":8955,"chain":8956,"chang":8957,"choo":8958,"chained":8959,"ch_axis":8960,"cholesky":8961,"choice":8962,"defaut":8963,"##estamp":8964,"##estigate":8965,"``--":8966,"floatfunctional":8967,"args_to":8968,"##ayout":8969,"##\"\"\"":8970,"modeling":8971,"model_dir":8972,"##ibly":8973,"##ibility":8974,"gets":8975,"get_l":8976,"getall":8977,"get_w":8978,"get_test":8979,"get_rank":8980,"get_cont":8981,"getcom":8982,"get_fn":8983,"get_function":8984,"getparams":8985,"get_context":8986,"get_index":8987,"getvalue":8988,"get_state":8989,"getnamescope":8990,"get_python":8991,"getgp":8992,"get_size_":8993,"get_exec":8994,"getting":8995,"get_pip":8996,"get_overr":8997,"get_rng_state":8998,"getpid":8999,"get_som":9000,"onnx":9001,"output_count":9002,"outputvalue":9003,"output_stream":9004,"output_1":9005,"##ivloss":9006,"grad_map":9007,"grad_indices":9008,"##able_sharing":9009,"##able_magic_methods":9010,"##irm":9011,"##addition":9012,"##_lu":9013,"##_lstsq":9014,"##_layout":9015,"module_name_":9016,"module_qconfig":9017,"##sprop":9018,"##spaces":9019,"##00100":9020,"with_g":9021,"with_args":9022,"with_code":9023,"with_cache":9024,"##pler":9025,"##essary":9026,"ord":9027,"##all_tensors":9028,"##allayer":9029,"##allthrough":9030,"bug":9031,"checking":9032,"checkgraph":9033,"check_al":9034,"checked_":9035,"check_env":9036,"checked_cast":9037,"check_onnx":9038,"although":9039,"unable":9040,"unary":9041,"unspec":9042,"univari":9043,"unlink":9044,"uneven":9045,"unexpected":9046,"uniq":9047,"unnec":9048,"unwant":9049,"unflatten":9050,"##ssingle":9051,"##raph_op":9052,"##emodel":9053,"##aint":9054,"##ain_synchronization_barrier":9055,"##_hou":9056,"\")],":9057,"advanced":9058,"adjust":9059,"##endent":9060,"##endang":9061,"listing":9062,"nnmodule":9063,"##ias_an":9064,"batchdataset":9065,"batch_indices":9066,"batch_of":9067,"batchwise":9068,"batchsigmoidcrossentropyloss":9069,"batchlr":9070,"##rocesserror":9071,"##_input_shape":9072,"##_input_arg":9073,"##_input_reduce":9074,"##_input_observed":9075,"type_a":9076,"typeextend":9077,"type2backend":9078,"randblob":9079,"numerator":9080,"num_node_":9081,"num_work":9082,"pyi":9083,"py2":9084,"py3":9085,"pybind":9086,"##it_body":9087,"##_gradient":9088,"([-":9089,"addparam":9090,"addargument":9091,"addmm":9092,"addgradient":9093,"add_torch":9094,"add_scalar":9095,"add_train":9096,"addbmm":9097,"add_axis":9098,"addlink":9099,"addexternal":9100,"##ample_inputs":9101,").\")":9102,"obj_key":9103,"##_writ":9104,"target_value":9105,"==``":9106,"cuda_g":9107,"cuda_gpu":9108,"cuda11":9109,"cuda_compiled_version":9110,"##idefin":9111,"result_":9112,"resolved":9113,"run_cuda":9114,"run_with":9115,"run_node":9116,"run_parallel":9117,"##_range":9118,"##_rref":9119,"enables":9120,"enough":9121,"=[-":9122,"=[],":9123,"macro":9124,"makes":9125,"')(":9126,"')'":9127,"')`":9128,"')))":9129,"coverage":9130,"coales":9131,"costly":9132,"course":9133,"])(":9134,"])))":9135,"])``.":9136,"##tests":9137,"weightinitializer":9138,"quantstub":9139,"sec":9140,"seper":9141,"workflow":9142,"conv_1d":9143,"conv_2d":9144,"np_un":9145,"np_sinc_with":9146,"_core":9147,"_cudastream":9148,"##error_str":9149,"##_gloo":9150,"##_gzip":9151,"##_guard":9152,"##achable":9153,"##ials":9154,"':'":9155,"(((":9156,"((),),":9157,"zero_center":9158,"##eduction":9159,"##ported":9160,"##_outs":9161,"##_out_of":9162,"##_outstand":9163,"##timizers":9164,"biasinitializer":9165,"neither":9166,"kernel_st":9167,"kernel_shape":9168,"kernel_launch":9169,"kernel_end":9170,"coming":9171,"data_load":9172,"##ething":9173,"##_deps":9174,"##_declar":9175,"##_devices":9176,"##_declaration":9177,"##_dependency":9178,"prone":9179,"prior":9180,"setattr":9181,"set_state":9182,"set_global":9183,"set_rng_state":9184,"set_ddp_runtime_logging_sample_rate":9185,"settypeas":9186,"set_declaration":9187,"##module_map":9188,"##moduledynamic":9189,"##module_mapping":9190,"##_module_to":9191,"grouping":9192,"##_operator":9193,"##_open_interval":9194,"quantizes":9195,"quantize_fx":9196,"##ward_pr":9197,"['.":9198,"['-":9199,"iterated":9200,"iter_val":9201,"iterations":9202,"iterating":9203,"##torchmixin":9204,"##cogn":9205,"all_inputs":9206,"all_args":9207,"all_outputs":9208,"##_location":9209,"##ibute__":9210,"sample_input":9211,"sample_re":9212,"sample_kwargs":9213,"sample_inference":9214,"##parallel":9215,"scalarname":9216,"prefer":9217,"preced":9218,"prepend":9219,"argv":9220,"arg_con":9221,"arg_a":9222,"arg_match":9223,"arg_scope":9224,"##ate_arg":9225,"##ate_param":9226,"##ate_options":9227,"##ected":9228,"distoptimizer":9229,"##odelink":9230,"log_":9231,"logit":9232,"log_dir":9233,"logged":9234,"sharded":9235,"tuple_call":9236,"caffe":9237,"())),":9238,"())))":9239,"())`.":9240,"##_tensor_rank":9241,"::-":9242,"network":9243,"##16_tensor":9244,"graph_mod":9245,"graph_pr":9246,"requested":9247,"=())":9248,"=(\".":9249,"caffe2benchmarkbase":9250,"suppose":9251,"##epdim":9252,"##epcopy":9253,"##_counter":9254,"='')":9255,"qconfig_utils":9256,"qconfig_par":9257,"qconfigdynamic":9258,"##ary_ufunc":9259,"statement":9260,"##_output_size":9261,"##_output_observed":9262,"##_recur":9263,"##_replay":9264,"##_remot":9265,"##_required":9266,"layer1":9267,"layered_l":9268,"layerstestcase":9269,"number_scalar":9270,"mini":9271,"min_f":9272,"min_dim":9273,"reduces":9274,"reductions":9275,"##angular":9276,"##angle_h":9277,"controlling":9278,"##iently":9279,"##ize_as":9280,"##_store":9281,"##_states":9282,"##_state_dict":9283,"##ated_test":9284,"##ated_to":9285,"104":9286,"101":9287,"##_logger":9288,"requiring":9289,"use_s":9290,"kwarg":9291,"##2deg":9292,"bucket_max":9293,"bucket_index":9294,"bucket_events":9295,"##_cond":9296,"##_concrete_type_builder":9297,"##_connect_":9298,"max_f":9299,"max_dim":9300,"max_ex":9301,"max_sizes":9302,"max_total":9303,"##jective":9304,"##ializers":9305,"##ializetost":9306,"no_cuda":9307,"no_mult":9308,"##_dims":9309,"']`":9310,"']]":9311,"']()":9312,"##traction":9313,"##travis":9314,"##traversal":9315,"train_data":9316,"##thonbu":9317,"requires_gloo":9318,"do_test":9319,")),)),":9320,"#########":9321,"plugin":9322,"{})":9323,"{}\\":9324,"{}/{}":9325,"{}.\".":9326,"##fer_size":9327,"##tensor_helper":9328,"parse":9329,"parsing":9330,"##net_equ":9331,"load_url":9332,"distribute":9333,"creating":9334,"hidden_init":9335,"ranks":9336,"requires_grad_":9337,"canonically":9338,"dicts":9339,"expects":9340,"##est_path":9341,"##ctive_ops":9342,"python2":9343,"python3":9344,"python_platform":9345,"##_and_ops":9346,"##_and_replay":9347,"_six":9348,"_sort_":9349,"_slice":9350,"_should":9351,"_sum_r":9352,"_sample_inputs":9353,"))))":9354,"expected_node":9355,"##uses":9356,"sample_inputs_hard":9357,"sample_inputs_normal":9358,"sample_inputs_outer":9359,"sample_inputs_nn":9360,"sample_inputs_syme":9361,"sample_inputs_pol":9362,"sample_inputs_cump":9363,"sample_inputs_lu":9364,"sample_inputs_hou":9365,"diagonal":9366,"directive":9367,"##abetic":9368,"scripting":9369,"scriptmethod":9370,"newer":9371,"newax":9372,"newrecord":9373,"command":9374,"cpus":9375,"cpuinfo":9376,"cpu_interval":9377,"cpu_do":9378,"##markdown":9379,"##failures":9380,"opinfos":9381,"##_cholesky":9382,"##old_shape":9383,"##_transform":9384,"##_traces":9385,"compared":9386,"comparing":9387,"comparison":9388,"comparison_ops":9389,"compiling":9390,"##eader":9391,"##iteration":9392,"observed_nodes":9393,"accord":9394,"access":9395,"timestamp":9396,"usecase":9397,"useoptimizer":9398,"useful":9399,"##eze":9400,"##formnist":9401,"randomize":9402,"##_graph_api":9403,"120":9404,"124":9405,"1200":9406,"1212":9407,"1203":9408,"when_sparse_":9409,"scalars":9410,"scalar_name":9411,"scalar_types":9412,"scalar_to":9413,"scalar_zero":9414,"scalar_dim_zero":9415,"scalar_ke":9416,"optimizer_context":9417,"optimizer_test_util":9418,"initializers":9419,"##straints":9420,"backslash":9421,"backported":9422,"eps_f":9423,"reducemax":9424,"reducemin":9425,"reduce_add":9426,"reducefront":9427,"##inality":9428,"##inal_pid":9429,"##e_floats":9430,"key2":9431,"key1":9432,"key_a":9433,"key_padding":9434,"only_register":9435,"onlyoncpu":9436,"argumenttype_type":9437,"../":9438,"fc_op":9439,"},\\\\":9440,"##packops":9441,"##{}}}":9442,"##_param_names":9443,"subbackward":9444,"subtly":9445,"subtraction":9446,"##dates":9447,"##_actu":9448,"##ist_empty":9449,"local_to":9450,"local_qconfig":9451,"local_metadata":9452,"##_blob_names":9453,"distributedsampler":9454,"##encode":9455,"decorated":9456,"forward_compute_time":9457,"_graph_op":9458,"erase":9459,"erase_node":9460,"should_mark":9461,"http":9462,"pading":9463,"padback":9464,"padfront":9465,"##pcasync":9466,"##txas":9467,"stdin":9468,"##_context_":9469,"=\".":9470,"=\"<":9471,"linear_prepack":9472,"linear_unpack":9473,"##ast_error":9474,"copying":9475,"copynode":9476,"copysign":9477,"flake":9478,"has_en":9479,"has_cuda":9480,"has_sh":9481,"##prelu":9482,"returns_type":9483,"fileexistserror":9484,"##ke_serialization":9485,"##ke_tensors":9486,"##ke_zip":9487,"##ke_range":9488,"##ke_tensor_helper":9489,"##_default_handl":9490,"blobs":9491,"blob_name":9492,"blobisdefined":9493,"halftensor":9494,"half_open_interval":9495,"}):":9496,"})\"\"\"":9497,"##ously":9498,"specifically":9499,"_fields":9500,"_front":9501,"_fp32":9502,"_fnmatch":9503,"_fallthrough":9504,"##se_ordered":9505,"##tospace":9506,"##to_default":9507,"##to_sparse_":9508,"##no_shape":9509,"##no_prepack":9510,"##inputs":9511,"##ent_test_":9512,"##ent_char":9513,"##_compat":9514,"##_compare_":9515,"_get_check":9516,"_get_build":9517,"_get_sort":9518,"_getreverse":9519,"_get_tensor_rank":9520,"much":9521,"##uctnested":9522,"##cept_dim":9523,"##_to_file":9524,"##_to_key":9525,"##_to_float":9526,"##_to_onnx":9527,"default_expr":9528,"default_dynamic":9529,"default_module_mapping":9530,"quantized_input":9531,"quantized_graph":9532,"[])":9533,"[]}":9534,"[]),":9535,"leave":9536,"level":9537,"rpc_as":9538,"rpc_ag":9539,"##test_stats":9540,"fetched":9541,"fetchers":9542,"##nomkl":9543,",),),":9544,"long_config":9545,"##verages":9546,"attach":9547,"##_device_count":9548,"##_device_warn":9549,"avx2":9550,"matchable":9551,"serializetost":9552,"util":9553,"utilit":9554,"##ograd_sharing":9555,"indices_list":9556,"indices_list_":9557,"register_function":9558,"register_sh":9559,"register_parameter":9560,"assertraisescontext":9561,"aten_declar":9562,"build_deps":9563,"error_ms":9564,"perm":9565,"single_matrix":9566,"##pool_output_size":9567,"init_sh":9568,"##_infos":9569,"fetchblobs":9570,"gcc":9571,"temp_dir":9572,"weight_comp":9573,"weight_only":9574,"weight_hh":9575,"weight_stop":9576,"##_viz":9577,"##_clamp":9578,"##_for_model":9579,"##_for_legacy":9580,"##ally_jit":9581,"##_resolution":9582,"functional_sgd":9583,"functional_datapipe":9584,"skipcpuifnomkl":9585,"versions":9586,"version_counter":9587,"employ":9588,"h_k":9589,"##e_slope":9590,"container_ab":9591,"\"]))":9592,"lib64":9593,"lib_include":9594,"processor":9595,"processing":9596,"process_group":9597,"##ort_configs":9598,"##umerate_support":9599,"constantvalue":9600,"constantpad2d":9601,"##_offset":9602,"empty_input":9603,"empty_v":9604,"emptymatch":9605,"empty_nn":9606,"empty_cache":9607,"emptybranch":9608,"joined":9609,"join_un":9610,"multipli":9611,"w_ir":9612,"##cuda_device_count":9613,"##641":9614,"##its_":9615,"##itsloss":9616,"make_non":9617,"make_stub":9618,"make_raw":9619,"make_uniqu":9620,":])":9621,"[\"-":9622,"[\":\",":9623,"totals":9624,"upper":9625,"upgrade":9626,"updates":9627,"declare":9628,"optimal":9629,"extra_repr":9630,"seqlength":9631,"broadcasted":9632,"round":9633,"rocm":9634,"verify":9635,"verified":9636,"##_on_remot":9637,"##_on_connect_":9638,"##_external":9639,"##_exists":9640,"##_except_dim":9641,"##tesian":9642,"##graphmodule":9643,"##envtest":9644,"##env_info":9645,"included":9646,"include_paths":9647,"backward_args":9648,"backward_compute_time":9649,"##_complex_extrem":9650,"averagedloss":9651,"cross_entropy":9652,"crossentropyloss":9653,"fn_name":9654,"linalg_matrix":9655,"linalg_e":9656,"linalg_det":9657,"linalg_slo":9658,"linalg_pinv":9659,"linalg_lstsq":9660,"linalg_cond":9661,"many":9662,"manner":9663,"namelist":9664,"name_prefix":9665,"##axation":9666,"##ypetest":9667,"##_matmul":9668,"##_matric":9669,"##_minor":9670,"prototype":9671,"\"...":9672,"\"../":9673,"_test_sh":9674,"_test_aut":9675,"_test_neg":9676,"_test_ddp":9677,"applic":9678,"##_unrolling":9679,"##_unbox":9680,"##respon":9681,"indexes":9682,"index_select":9683,"index_put":9684,"create_arg":9685,"create_variable":9686,"create_rdz":9687,"events":9688,"evolv":9689,"globgroup":9690,"zip_file":9691,"##minated":9692,"##tactically":9693,"##997":9694,"##_function__":9695,"alpha_dropout":9696,"maybe":9697,"named_mod":9698,"calibr":9699,"calledp":9700,"descriptor":9701,"desktop":9702,"passes":9703,"passing":9704,"}}{\\":9705,"}}}}":9706,"}}^{{":9707,"is_write":9708,"##_scales":9709,"test_fn_grad":9710,"floating_types":9711,"conv2d_prepack":9712,"conv2d_unpack":9713,"iteration_cpu":9714,"benchmark_pytorch":9715,"benchmarkrun":9716,"benchmark_utils":9717,"beta1":9718,"beta_f":9719,"##lateprelu":9720,"##withlog":9721,"##t_in_place":9722,"assert_never":9723,"test_scalar":9724,"test_shared":9725,"test_synchronization_barrier":9726,"test_scip":9727,"test_shapes":9728,"##_hook_parity":9729,"##_workspaces":9730,"syntactically":9731,"broadcast_actuals":9732,"broadcast_index":9733,"##bug_build":9734,"nccl_ops":9735,"_indices":9736,"_interpolate_":9737,"_infer_size":9738,"hip_runtime_version":9739,"hip_compiled_version":9740,"mseloss":9741,"mulmul":9742,"##functions_not_":9743,"debugging":9744,"structures":9745,"ordered":9746,"cpp_builtin":9747,"ddp_net":9748,"messages":9749,"node_copy":9750,"node_rep":9751,"##ickle":9752,"##notation":9753,"##_new_format":9754,"step_net":9755,"step_workspaces":9756,"repo_info":9757,"repo_dir":9758,"extensively":9759,"get_eval":9760,"get_error_str":9761,"get_env_info":9762,"nnqat":9763,"##_of_option":9764,"##_of_observed":9765,"packages":9766,"packagetestcase":9767,"package_a":9768,"cudnnlstm":9769,"cudnn_enabled":9770,"rendezvousenvtest":9771,")]',":9772,"foo2":9773,"field_type":9774,"field_1":9775,"field_2":9776,"##473150":9777,"testsmart":9778,"remotely":9779,"dependency_resolution":9780,"correspon":9781,"normally":9782,"norm_except_dim":9783,"namespace":9784,"nodespec":9785,"rhs":9786,"##_seed_":9787,"##10948":9788,"##ared_libs":9789,"##arallel_model":9790,"arrays":9791,"##_cuda_lib":9792,"##_from_args":9793,"##_from_method":9794,"##_from_sum":9795,"##_from_input_observed":9796,"##_from_state_dict":9797,"##ical_top":9798,"validate":9799,"worker_result_":9800,"worker_queue_":9801,"supported_dtypes":9802,"supported_sm":9803,"avg_loss":9804,"[:-":9805,"[:]":9806,"[::-":9807,"{{{}}}":9808,"##_asan":9809,"##_assert":9810,"##_as_fp32":9811,"##itional":9812,"##ition_parameters":9813,"##untu":9814,"implementations":9815,"##_cpu_only":9816,"##_cpu_vs_numpy":9817,"##_than_e":9818,"predict":9819,"##anspose_network":9820,"##decayadam":9821,"base_types":9822,"##ocity":9823,"replicated":9824,"##verrides":9825,"##_with_logits":9826,"##_with_pick":9827,"])):":9828,"parse_nv":9829,"_shards":9830,"static_quant_":9831,"static_cast":9832,"generators":9833,"backends":9834,"##_pytorch_type":9835,"_jit_override_":9836,"''.":9837,"''),":9838,"1609":9839,"brendang":9840,"cleanup":9841,"cleanly":9842,"mymodel":9843,"myconvnet":9844,"my_proc":9845,"mymoduledynamic":9846,"memory_al":9847,"spatial":9848,"sort_by":9849,"##proximation":9850,"##prof_trace":9851,"##log_prob":9852,"##iple_optimiz":9853,"config_from_args":9854,"get_tensor_meta":9855,"enumerates":9856,"enumerating":9857,"enumerate_options":9858,"makefile":9859,"makeargument":9860,"zero_dim_check":9861,"##_strateg":9862,"globalcoordinator":9863,"elem_type":9864,",))))":9865,",)))),":9866,"_unpickler":9867,"_unpool_output_size":9868,"_check_inputs":9869,"_check_operator":9870,"b_hi":9871,"b_hr":9872,"collection":9873,"collected":9874,"mapiterdatapipe":9875,"map_ag":9876,"map_c2_config":9877,"map_location":9878,"picklet":9879,"smash":9880,"sm_32":9881,"smooth":9882,"##_old_format":9883,"##e_trace":9884,"##e_train_synchronization_barrier":9885,"operands":9886,"##_short_configs":9887,"top_k":9888,"top_env":9889,"test_inf":9890,"test_in_place":9891,"test_insert_quant_dequant":9892,"test_interpolate_":9893,"test_insert_prepack_unpack":9894,"allow_list":9895,"allow_pytest":9896,"quant_type":9897,"running_var":9898,"running_mean":9899,"##_gpu_vs_numpy":9900,"computes":9901,"computing":9902,"computation":9903,"compute_32":9904,"print_test_stats":9905,"contexts":9906,"filesystem":9907,"masked_fill":9908,"signed":9909,"exceptionwrapper":9910,"_create_static":9911,"_create_caffe2":9912,"'.\")":9913,"]``.":9914,"b_ii":9915,"main_compile_args":9916,"twice":9917,"##cured":9918,"##cursive":9919,"interned":9920,"interning":9921,"##_cell_inputs":9922,"##ightmost":9923,"valued":9924,"value_for":9925,"value_z":9926,"value_dtype":9927,"preprocessing":9928,"##_logits_from_sum":9929,"]]]\"":9930,"]]]],":9931,"]]]])":9932,"accumulates":9933,"initial_result":9934,"initial_states":9935,"initial_cell_inputs":9936,"...\")":9937,"removing":9938,"applied":9939,"syncing":9940,"sparse_check":9941,"sparse_actuals":9942,"##cript_module_on_remot":9943,"320":9944,"3200":9945,"_red":9946,"linecache":9947,"relies":9948,"releases":9949,"relaxation":9950,"sinc":9951,"userwarning":9952,"##like_serialization":9953,"##_kb":9954,"##_json":9955,"##related":9956,"interpol":9957,"interfaces":9958,"transfer":9959,"translater":9960,"translator":9961,"translateprelu":9962,"added_names":9963,"instantitated":9964,"expanddims":9965,"_prepare_d":9966,"unicode_litera":9967,"'{}:":9968,"'{}.{}":9969,"folder":9970,"handle_zero_dim":9971,"lie":9972,"oldest":9973,"##_eager":9974,"##af_module":9975,"()),)":9976,"()),)),":9977,"##_pool1d":9978,"constrast":9979,"constraint":9980,"##ispatch_dtypes":9981,"test_new":9982,"test_numpy":9983,"test_narrow":9984,"script_method":9985,"provides":9986,"##dims_shape":9987,"tracedmodule":9988,"traced_fn":9989,"##sert_observer_for_input_arg":9990,"branches":9991,"instantiating":9992,"instantiated_test":9993,")(*":9994,".\"\"\")":9995,".\"\"\",":9996,"_write_":9997,"_remov":9998,"_reverse_":9999,"_recursive":10000,"detected":10001,"metrics":10002,"wrapping":10003,"yielding":10004,"##create":10005,"int_classes":10006,"inserting_after":10007,"##e_if_exists":10008,"trace_module":10009,"##_matched":10010,"##_packages":10011,"test_fold_prepack":10012,"(\"[-":10013,"reset_parameters":10014,"negativ":10015,"use_cuda":10016,"use_last_":10017,"particular":10018,"generate_data":10019,"multihead":10020,"apply_recur":10021,"followed":10022,")}`":10023,"_assertraises":10024,"binomial":10025,"dill_available":10026,"etc":10027,"fbcode":10028,"findstr":10029,"find_nvcc":10030,"hardcoding":10031,"launched":10032,"launchconfig":10033,"launcher_cmd":10034,"pipelines":10035,"somehow":10036,"##_item":10037,"##ogously":10038,"##batched":10039,"##batchdi":10040,"##ed_leaves":10041,"thrown":10042,"##tree_le":10043,"##gradientssingle":10044,"test_pdist_":10045,"test_pixel":10046,"test_python":10047,"test_pickle":10048,"(\"------":10049,"couldn":10050,"##_groups":10051,"##_grouped_blobs":10052,"functionschema":10053,"observerbase":10054,"[[[]":10055,"matrix_rank":10056,"matrix_ap":10057,"maybe_insert_observer_for_input_arg":10058,"hypothesis_test_util":10059,"##_product":10060,"sparse_dims_shape":10061,"encoder_lengths":10062,"encoder_outputs":10063,"19253":10064,"_input_blob_names":10065,"_placements":10066,"cache":10067,"cell_init":10068,"fake_range":10069,"lstm1":10070,"##pened":10071,"##pening":10072,"##502":10073,"##e_dynamic":10074,"##e_distance":10075,"##e_import_":10076,"input_blob_shape":10077,"record_ev":10078,"record_stack":10079,"arch_list":10080,"execute":10081,"execwrapper":10082,"##ify_devices":10083,"##_benchmarks":10084,"typeddict":10085,"typically":10086,"numerically":10087,"(['',":10088,"##_related_to":10089,"=['-":10090,"='{}.{}":10091,"max_val_pos":10092,"statregistrycreate":10093,"sample_inputs_linalg_pinv":10094,"sample_inputs_linalg_cholesky":10095,"act_scal":10096,"depthtospace":10097,"errno":10098,"gcs_cpu_only":10099,"##mediately":10100,"##_scalar_backward":10101,"normal_":10102,"binaryop":10103,"binaryio":10104,"({}-":10105,"({}),\"":10106,"0552":10107,"0515":10108,"_active":10109,"dots":10110,"failures":10111,"fail_mess":10112,"handles_larg":10113,"handles_complex_extrem":10114,"measur":10115,"promote":10116,"promoted":10117,"promoting":10118,"sugg":10119,"simply":10120,"simpler":10121,"simple_fill":10122,"simple_multi":10123,"was_matched":10124,"ways":10125,"##copy_":10126,"##ore_compression":10127,"defines":10128,"tooling":10129,"toolchain":10130,"exited":10131,"exiting":10132,"exporting":10133,"string_classes":10134,"test_tensor_item":10135,"test_serialization_sparse":10136,"test_serialization_sparse_":10137,"test_serialization_fa":10138,"test_serialization_gzip":10139,"test_serialization_new_format":10140,"##ested_tuples":10141,"formals_list":10142,"reduction_param":10143,"weak_script":10144,"accscal":10145,"accelerated":10146,"_forward_hooks":10147,"_forward_pr":10148,"prepare_standalone_module_fx":10149,"##_zero_points":10150,"deserialization":10151,"get_all_dtypes":10152,"'''))":10153,"smaller":10154,"urlparse":10155,"negativebinomial":10156,"_validate_args":10157,"_validate_dependency":10158,"_validate_sample":10159,"_validate_log_prob":10160,"generate_pt_tests_from":10161,"\"'\",":10162,"'/',":10163,"'/'.":10164,"duration":10165,"dumpunpickler":10166,"fixedqparams":10167,"rightmost":10168,"}),)),":10169,"##ycles":10170,"debian":10171,"##led_input":10172,"##led_rref":10173,"##eddistribut":10174,"##_script_module_with_pick":10175,"standalone_tchain":10176,"offset":10177,"test_strided_grad":10178,"test_str_to_float":10179,"alias_infos":10180,"coordinator1":10181,"present":10182,"presence":10183,"'])):":10184,"instancenorm1d":10185,"countname":10186,"environmental":10187,"constructor":10188,"constructing":10189,"etcd_rendezvous":10190,"etcd_rendezvous_backend":10191,"etcdstore":10192,"etcd_store":10193,"additional_unittest_args":10194,"_jit_pass_insert_prepack_unpack":10195,"successive":10196,"successful":10197,"attention_weighted_encoder_context_":10198,"/'),":10199,"1412":10200,"14997":10201,"={}'.":10202,"__array":10203,"_logging":10204,"_log_api":10205,"nvcc":10206,"semi":10207,"semidefin":10208,"sandcastle_skip":10209,"##_usage_once":10210,"##ught":10211,"##sing_keys":10212,"##gregate":10213,"dev_idx":10214,"##loaded":10215,"##load_url":10216,"assumed":10217,"assuming":10218,"transforms":10219,"transformations":10220,"transformeddistribut":10221,"testmultiop":10222,"))])":10223,"regular":10224,"regardless":10225,"converted":10226,"test_cat":10227,"test_crossentropyloss":10228,"test_cuda_sm":10229,"##ersgd_iter":10230,"##ersgd_hook":10231,"##_longest_path":10232,"batched_idx":10233,"batched_pow":10234,"##_weight_compare_dict_valid":10235,"convolutions":10236,"##per_channel_affine":10237,"prev_v":10238,"prev_ts":10239,"optimized_result":10240,"optimized_result_":10241,"raising":10242,"packedsequ":10243,"##avgpool1d":10244,"start_pow":10245,"matched_nodes":10246,"functional_optim_args":10247,"functional_optim_kwargs":10248,"_batch_size":10249,"_backward_hooks":10250,"split_info":10251,"split_nam":10252,"equality":10253,"equal_but_u":10254,"manual_seed_":10255,"manual_cuda_lib":10256,"test_nllloss_2d_sum":10257,"test_nllloss_2d_none":10258,"##iprocessing_spawn":10259,"test_top_k_5":10260,"test_top_k_2":10261,"test_top_k_4":10262,"test_top_k_3":10263,"test_top_k_1":10264,"test_top_k_6":10265,".])":10266,"1d_4d":10267,"1706":10268,"__module__":10269,"bernoulli_scalar":10270,"cap_minor":10271,"determine":10272,"differs":10273,"diff_outs":10274,"doublestorage":10275,"emit_body":10276,"futures":10277,"marker":10278,"marked":10279,"markers":10280,"markdown":10281,"pairwise":10282,"pairwis":10283,"pixel_shuffle":10284,"s0_good":10285,"s0_bad":10286,"silences":10287,"saved_vari":10288,"terms":10289,"vectors":10290,"wintypes":10291,"winerror":10292,"}(\\":10293,"##lete":10294,"##let_margin":10295,"##_act_compare_dict_valid":10296,"##oxmull":10297,"##irect_":10298,"##52750":10299,"indicates":10300,"input_tensor_cp":10301,"trivial":10302,"triangular":10303,"retrieved":10304,"stopiteration":10305,"concaten":10306,"test_bernoulli":10307,"test_basic":10308,"test_boxmull":10309,"test_add_dense_":10310,"test_add_zeros":10311,"assertionerror":10312,"##ivalence":10313,"##equantize":10314,"underline":10315,"understand":10316,"adamw":10317,"##_reduction_no":10318,"machine":10319,"data_parallel_model":10320,"minimal":10321,"parallelized":10322,"summation":10323,"reflectionpad2d":10324,"attempting":10325,"counterpart":10326,"identical":10327,"##generated_unbox":10328,"cpp_extensions":10329,"nllloss2d":10330,"spawns":10331,"spawned":10332,"masked_scatter_":10333,"_allreducegradientssingle":10334,"_register_after":10335,"_register_builtin":10336,"_register_default_handl":10337,"(\"[::":10338,"multi_dim_input":10339,"fbcollective_ops":10340,"breakage":10341,"executed":10342,"executing":10343,"executable":10344,"similarly":10345,"test_variant_consistency_eager":10346,"4d_1d":10347,"4d_4d":10348,"]},":10349,"]})":10350,"_th_normal":10351,"_convert_fx":10352,"_set_ddp_runtime_logging_sample_rate":10353,"_setup_bucket":10354,"bitwise":10355,"bitwis":10356,"carry":10357,"cartesian":10358,"gm_b":10359,"gm_a":10360,"higher":10361,"pinv":10362,"pinned":10363,"popleft":10364,"populate":10365,"re_thc_generic_file":10366,"re_angle_h":10367,"scheme":10368,"}\").":10369,"##_end_out_of":10370,"##_affine_":10371,"##535":10372,"##4589":10373,"##8061":10374,"intrinsic":10375,"##peat_tile":10376,"is_cuda_available":10377,"testftrl":10378,"))),),":10379,"reporting":10380,"consult":10381,"test_hash":10382,"test_hooks":10383,"test_multiple_optimiz":10384,"dim_desc_scalar":10385,"dim_desc_sort":10386,"dim_desc_sort_":10387,"getcodelink":10388,"gradgradcheck":10389,"begins":10390,"beginning":10391,"allocation":10392,"allocate":10393,"allocating":10394,"allocate_arg":10395,"cuda_lib_dirs":10396,"entry":10397,"weighted_cross_entropy":10398,"primary":10399,"setting":10400,"##ate_script_module_on_remot":10401,"layouts":10402,"=('*',":10403,"systemenv":10404,"maxunpool2d":10405,"maxunpool1d":10406,"export_chrom":10407,"export_opnames":10408,"compare_op":10409,"##_activation_relu":10410,"##_defaults":10411,"leaks":10412,"##_variable_sharing":10413,"axes_i":10414,"produce":10415,"__getattribute__":10416,"configuration":10417,"configurations":10418,"absps":10419,"_last_seen":10420,"equivalents":10421,"powersgd_hook":10422,"powersgdstate":10423,"jitrpcasync":10424,"normalized_br":10425,"##_command":10426,"adaptiveavgpool1d":10427,"possibly":10428,"##iltinop":10429,"test_nllloss_2d_mean_weights":10430,"retrieving":10431,"machines":10432,"reflectable_magic_methods":10433,"derivatives":10434,"\"\":":10435,"\"\"),":10436,"(...),":10437,"*':":10438,"28502":10439,"378233":10440,"3356":10441,"5130":10442,"_stderr":10443,"_start":10444,"_stdout":10445,"_add_module_to":10446,"_num_writ":10447,"__torch_function__":10448,"_device_option":10449,"_device_grouped_blobs":10450,"b_ir":10451,"bceloss":10452,"causes":10453,"caught":10454,"cmp_to_key":10455,"columns":10456,"eigvalsh":10457,"frontend":10458,"hacky_wrapper":10459,"holds":10460,"immediately":10461,"kl_div":10462,"ndk":10463,"nominal":10464,"nchw2n":10465,"purpos":10466,"q_per_channel_axis":10467,"q_per_channel_scales":10468,"q_per_channel_zero_points":10469,"slope":10470,"tuner":10471,"w_hi":10472,"w_hr":10473,"w_hh":10474,"##_queues_and_ops":10475,"##name__":10476,"##bered":10477,"##fromstorage":10478,"##65133":10479,"##84880":10480,"investigate":10481,"decide":10482,"thtensorrandom":10483,"threading":10484,"##_dense_dim":10485,"##_dense_hybrid":10486,"is_sandcastle":10487,"##_neg_larg":10488,"replacing":10489,"analyze":10490,"analysis":10491,"analogously":10492,"exc_type":10493,"excluding":10494,"test_serialize_":10495,"test_resize_as":10496,"test_with_asan":10497,"test_create_script_module_on_remot":10498,"behave":10499,"batches_outstand":10500,"seems":10501,"_compute_tr":10502,"programmer":10503,"allreduces":10504,"formula":10505,"bucket_cap_bytes":10506,"bucket_cap_mb":10507,"bucket_cap_kb":10508,"max_unpool1d":10509,"sources":10510,"']['":10511,"##usagestats":10512,"directories":10513,"expressions":10514,"communicator":10515,"compatibility":10516,"overrides":10517,"overflowerror":10518,"remains":10519,"timeout_guard":10520,"automatic":10521,"attn_output":10522,"temporarydirectory":10523,"cudastreambase":10524,"backward_link_internal":10525,"backward_link_offset":10526,"backward_link_external":10527,"benchmark_caffe2":10528,"assert_ns_logger":10529,"assert_ns_compare_":10530,"assert_ns_weight_compare_dict_valid":10531,"cudnncreatetensor":10532,"cudnn_enable_i":10533,"##_builtins":10534,"remote_ref":10535,"validate_net_equ":10536,"test_indexing_end_out_of":10537,"...]:":10538,"...]`.":10539,"...]]):":10540,"interpret":10541,"##ignorenot":10542,"_weight_norm":10543,"greater_than_e":10544,"serialized_graph_json":10545,"recurrent_inputs":10546,"positional":10547,"test_serialization_zipfile_utils":10548,"test_serialization_zipfile_actu":10549,"deserializefromstorage":10550,"\\\"]\",":10551,"total_numel_bef":10552,"##pytorch_to_onnx":10553,"considering":10554,"normalized_shape_i":10555,"49133":10556,"root_path":10557,"fake_quantize_per_channel_affine":10558,"_jit_set_profiling_mode":10559,"\"([^":10560,"'<%":10561,")[:,":10562,"++',":10563,"++')))":10564,"27824":10565,"2603":10566,"3973":10567,"55907":10568,"7ehint":10569,"9515":10570,"=\"\",":10571,"=\"\")":10572,">':":10573,"_dummy":10574,"_dispatch_dtypes":10575,"_observer_":10576,"_observerbase":10577,"`-`":10578,"edu":10579,"editing":10580,"eye":10581,"eye_":10582,"eager_result":10583,"frexp":10584,"freeze":10585,"fakelow":10586,"fakequantize":10587,"fusion_pattern":10588,"hosts":10589,"hostname":10590,"killing":10591,"mutable":10592,"mutated":10593,"moves":10594,"moving":10595,"nhwc2n":10596,"putting":10597,"treat":10598,"treated":10599,"w_ii":10600,"w_ih":10601,"yellowfinoptimizer":10602,"##of_node":10603,"##hotops":10604,"##fxop":10605,"##[^>]+)":10606,"##234589":10607,"##471":10608,"##/{}:":10609,"incompatible":10610,"incomplete":10611,"inspecting":10612,"is_quantized":10613,"is_travis":10614,"##_sort_traversal":10615,"triply":10616,"triplet_margin":10617,"tracking":10618,"##ummy_data":10619,"tensor1_size":10620,"stubs":10621,"implies":10622,"testquantizedops":10623,"testquantizedlinear":10624,"testjitutils":10625,"reversed":10626,"reverse_ordered":10627,"rejected":10628,"rejecting":10629,"conditional":10630,"confusion":10631,"confirm":10632,"('/')":10633,"##_failed":10634,"test_advanced":10635,"test_adv_indexing":10636,"test_triple":10637,"test_transpose_network":10638,"test_torch_pow":10639,"test_torchscript_":10640,"test_to_dense":10641,"test_to_dense_hybrid":10642,"test_spadd_hybrid":10643,"(\"{}.{}":10644,"(\"{}/{}:":10645,"get_device_name":10646,"##played":10647,"alternate":10648,"alternatively":10649,"alphadropout":10650,"alphabetic":10651,"unreachable":10652,"unrecogn":10653,"uncompressed":10654,"uncompressed_tensors":10655,"coefficient":10656,"coefficients":10657,"convnet_benchmarks":10658,"profile_and_replay":10659,"group_by_stack":10660,"group_by_input_shape":10661,"distinct":10662,"distinction":10663,"10984":10664,"not_implemented":10665,"not_related":10666,"instruction":10667,"instructions":10668,"raw_args":10669,"_size_helper":10670,"_size_1_t":10671,"sample_inputs_bmm":10672,"sample_inputs_baddbmm":10673,"composed":10674,"composite":10675,"compressed":10676,"compress_test":10677,"override":10678,"overridden":10679,"overloads":10680,"overloaded":10681,"scalar_type_to_onnx":10682,"scalar_type_to_pytorch_type":10683,"reducebacksum":10684,"reducebackmean":10685,"hashlib":10686,"hash_prefix":10687,"('[:]',":10688,"perf_viz":10689,"performs":10690,"performance":10691,"functional_adamw":10692,"linalg_svdvals":10693,"_test_serialization_data":10694,"_test_serialization_assert":10695,"test_slice_neg_larg":10696,"test_simple_replace":10697,"test_simple_rewire":10698,"ms687032":10699,"ms684880":10700,"##sparse_mismatch":10701,"testscalarshape":10702,"testscalarfor":10703,"##logical_sort_traversal":10704,"##_number_of_option":10705,"test_index_ell":10706,"squaredl2d":10707,"aggregate":10708,"aggregated":10709,"gloo_ops_gpu":10710,"partitioned":10711,"test_pow_scalar_backward":10712,"delete":10713,"deleted":10714,"sample_inputs_linalg_eigh":10715,"sample_inputs_linalg_qr":10716,"binary_cross_entropy_with_logits":10717,"scatter_add_":10718,"adaptive_max_pool2d":10719,"adaptive_max_pool1d":10720,"propagate_qconfig_helper":10721,"memongertest":10722,"##even_inputs":10723,"##orderedgrads":10724,"test_caffe2_cpu_vs_numpy":10725,"test_caffe2_gpu_vs_numpy":10726,"save_module":10727,"save_state":10728,"odd_number":10729,"_calc_attention_weights":10730,"_calc_attention_logits_from_sum":10731,"maskedselectmodel":10732,"act_type_start_a":10733,"act_type_start_b":10734,"act_type_end_b":10735,"act_type_end_a":10736,"deterministic":10737,"deterministically":10738,"einsummodeltranspose":10739,"einsummodelbatchdi":10740,"nomnigraph_transform":10741,"test_serializegenerator":10742,"cudnncreatefilterdescriptor":10743,"cudnncreateconvolutiondescriptor":10744,"poissonnllloss":10745,"poisson_nll":10746,"############################################################################":10747,"################################################################################":10748,"_orig_class":10749,"_original_pid":10750,"cumsum_j":10751,"potentially":10752,"potentitally":10753,"qactivation_ops":10754,"qactivation_short_configs":10755,"demonstrated":10756,"demonstrates":10757,"test_contig_hybrid":10758,"algorithms":10759,"sample_inputs_max_min_binary":10760,"sample_inputs_max_min_reduction_no":10761,"initialization_op_name":10762,"initialization_op_kwargs":10763,"adaptivemaxpool2d":10764,"adaptivemaxpool1d":10765,"test_nllloss_2d_mean_ignore_index_weights":10766,"decoder_hidden_encoder_outputs_sum_tmp":10767,"mingzhe09088":10768,"\"*****************************************\".":10769,"'})":10770,")->${":10771,"*)`":10772,",...)":10773,".)),),":10774,"005":10775,"0x00100":10776,"0780":10777,"03471":10778,"3136":10779,"35284":10780,"3457":10781,"48641":10782,"5701":10783,"5472":10784,"65535":10785,"6980":10786,"89952750":10787,"9730":10788,"<([^>]+)":10789,"[{}]":10790,"[...,":10791,"\\}^\\":10792,"_overrides":10793,"_analyze":10794,"_adadelta":10795,"_typing":10796,"_apply":10797,"_verify_devices":10798,"_testtorchmixin":10799,"_values":10800,"_make_tensor_helper":10801,"_dim_ar":10802,"_dataloader":10803,"_param_rank":10804,"_maxunpool":10805,"_take_tensors":10806,"__dir__":10807,"_empty_affine_":10808,"__qualname__":10809,"_storagebase":10810,"_datapipemeta":10811,"_load_from_state_dict":10812,"_download_url":10813,"_update_param":10814,"_extendops":10815,"_partition_parameters":10816,"`[[":10817,"`*`":10818,"among":10819,"azzol":10820,"aware":10821,"achieved":10822,"at_error":10823,"averagepool":10824,"bijective":10825,"bcewithlog":10826,"bundled_input":10827,"bcolors":10828,"certain":10829,"cputype":10830,"copied":10831,"cardinality":10832,"circle":10833,"cast_pytorch_to_onnx":10834,"cpickle":10835,"dlcm":10836,"dpm":10837,"dampening":10838,"displayed":10839,"dosn":10840,"downloaded":10841,"dynamically":10842,"doubly":10843,"dense_dims_shape":10844,"duse_direct_":10845,"duse_cuda":10846,"e712":10847,"easier":10848,"euler_constant":10849,"everything":10850,"efficiently":10851,"footest":10852,"fft_fn":10853,"f723":10854,"further":10855,"fidelity":10856,"fifty_m":10857,"fabs":10858,"fourier":10859,"guarant":10860,"ghmarkdown":10861,"hiveread":10862,"hello":10863,"hangs":10864,"happened":10865,"handling":10866,"idea":10867,"jsn":10868,"kthvalue":10869,"kldivloss":10870,"lu_backward":10871,"laid":10872,"lhs":10873,"limits_":10874,"lexicograph":10875,"license":10876,"larger":10877,"ldexp":10878,"language":10879,"merge":10880,"migrate":10881,"missing_keys":10882,"more_batched":10883,"miopen_runtime_version":10884,"navigate":10885,"nyi":10886,"ninja_required":10887,"ouble":10888,"occured":10889,"ossci":10890,"pdf":10891,"pt_repl":10892,"poll":10893,"pivot":10894,"qweight":10895,"rmsprop":10896,"renamed":10897,"redefin":10898,"rad2deg":10899,"rmdir":10900,"r10e":10901,"rdzv_id":10902,"svg":10903,"schedul":10904,"toronto":10905,"terminated":10906,"title":10907,"tolist":10908,"tabular":10909,"tutorials":10910,"ubuntu":10911,"uint16_tensor":10912,"velocity":10913,"visual":10914,"virtue":10915,"www":10916,"warming":10917,"w_g_avg":10918,"windll":10919,"w_mu_avg":10920,"w_lr_avg":10921,"w_scalars_memory":10922,"write_record":10923,"xptxas":10924,"xenial":10925,"{\"\":":10926,"}\"\"\")":10927,"##_root":10928,"##_one_hot":10929,"##modefxop":10930,"##mended":10931,"##mart_decay":10932,"##ological_sort":10933,"##ee_height":10934,"##porate":10935,"##\"]+)\"')":10936,"##s_aot":10937,"##rent_attention":10938,"##can_fuse_":10939,"##cudarpctest":10940,"##ninja_file":10941,"##voidtype":10942,"##9810948":10943,"##er_nested_tuples":10944,"##er_promotion_wrapper":10945,"##utable_command":10946,"##utdown_handler":10947,"##etty_str":10948,"##alecce":10949,"incorporate":10950,"infer_concrete_type_builder":10951,"inspect_utils":10952,"incoming":10953,"independent":10954,"insert_observers_for_model":10955,"inherit":10956,"dequantstub":10957,"degrees":10958,"deallocations":10959,"self_cuda_time_total":10960,"##ed_instance":10961,"##ed_tuple_slicing":10962,"##edtupleapi":10963,"##edinterface":10964,"##peagentcudarpctest":10965,"thformal":10966,"thlongstorageview":10967,"thptensor_":10968,"##t_function_clob":10969,"##ing_overrides":10970,"##e_blob_name":10971,"##e_negone":10972,"##seholder_product":10973,"##repeat_tuple":10974,"testrnninput":10975,"##_due_to_default":10976,"is_debug_build":10977,"is_floating_point":10978,"is_linalg_svd":10979,"is_leaf_module":10980,"is_activation_post_process_node":10981,"isaliasof":10982,"##_signatures":10983,"##il_cycles":10984,"modifying":10985,"devicetypetest":10986,"associated":10987,"transpilation":10988,"triggered":10989,"##umemoryusagestats":10990,"deviceplacementspec":10991,"tensorpipeagentcudarpctest":10992,"retry_on_connect_":10993,"##_integer_promotion_wrapper":10994,"stirling":10995,"stalling":10996,"standlone":10997,"impelemented":10998,"##idable_functions":10999,"testaddfieldbynestedname":11000,"teststructnested":11001,"testonehotops":11002,"testcomplex":11003,"testfunctionallayer":11004,"testdecayadagrad":11005,"testbatchsigmoidcrossentropyloss":11006,"testnonparallel":11007,"testcontains":11008,"testpythonbu":11009,"testnamedtupleapi":11010,"testgetfieldbynestedname":11011,"testdependencyapi":11012,"testbothserialization":11013,"testqnnpackops":11014,"testimporttime":11015,"recommended":11016,"arangemodel":11017,"arbitrary":11018,"const_if_tensor":11019,"consume":11020,"to_here":11021,"topological_sort_traversal":11022,"another":11023,"##_first_char":11024,"##_fp16_as_fp32":11025,"short_config":11026,"strides_i":11027,"test_fft_function_clob":11028,"test_time_import_":11029,"test_coalecce":11030,"test_lower_nested_tuples":11031,"test_deepcopy":11032,"test_pre_train_synchronization_barrier":11033,"test_not_in_place":11034,"test_pathlike_serialization":11035,"test_keyword":11036,"test_method_grad":11037,"test_normalize":11038,"test_cdist_empty":11039,"test_pattern_based_re":11040,"test_batch_one_hot":11041,"test_cpp_extensions_aot":11042,"test_load_script_module_with_pick":11043,"test_time_cuda_device_count":11044,"test_static_graph_api":11045,"test_ddp_logging_data_gpu":11046,"test_logging_init":11047,"test_factory_dense_dim":11048,"test_sparse_to_sparse_":11049,"test_arange_dynamic":11050,"test_leaf_variable_sharing":11051,"test_stepped_tuple_slicing":11052,"test_loop_unrolling":11053,"assertdevicechecks":11054,"##_blocklist":11055,"##_bounds":11056,"(\"*****************************************\\":11057,"changes":11058,"choose":11059,"cholesky_inverse":11060,"args_to_skip":11061,"get_last_error":11062,"getallparams":11063,"get_world_size":11064,"get_testing_overrides":11065,"get_content_char":11066,"getcomputedparams":11067,"get_function_qconfig":11068,"get_python_platform":11069,"getgpumemoryusagestats":11070,"get_size_of_node":11071,"get_executable_command":11072,"get_pip_packages":11073,"get_overridable_functions":11074,"get_something":11075,"module_name_qconfig":11076,"with_gil":11077,"with_codegenerated_unbox":11078,"checkgraphmodefxop":11079,"check_alias_an":11080,"checked_use":11081,"check_env_flag":11082,"check_onnx_broadcast":11083,"unspecified":11084,"univariate":11085,"unexpected_keys":11086,"uniq_param_names":11087,"unnecessary":11088,"unwanted":11089,"batch_of_matric":11090,"batchlrloss":11091,"##_input_reduce_tests":11092,"type_a_related_to":11093,"typeextendedinterface":11094,"randblobfloat32":11095,"num_node_args":11096,"num_worker_threads":11097,"pybind11":11098,"addgradientoperators":11099,"add_torch_libs":11100,"add_train_ops":11101,"addexternalinput":11102,").\");":11103,"cuda_gencode":11104,"cuda_gpu_id":11105,"cuda11orlater":11106,"result_node":11107,"run_with_pip":11108,"run_parallel_blocklist":11109,"macros":11110,"coalesce":11111,"seperate":11112,"workflows":11113,"conv_1d_configs_long":11114,"conv_2d_configs_long":11115,"np_unary_ufunc":11116,"np_sinc_with_fp16_as_fp32":11117,"_cudastreambase":11118,"zero_centered":11119,"kernel_start":11120,"kernel_shape_i":11121,"kernel_launches":11122,"data_loader":11123,"##_dependency_graph":11124,"set_global_threads":11125,"set_declaration_defaults":11126,"##module_mappings":11127,"sample_repeat_tile":11128,"sample_kwargs_clamp":11129,"sample_inference_data":11130,"precedence":11131,"arg_constraints":11132,"arg_matches":11133,"distoptimizertest":11134,"graph_modul":11135,"graph_pretty_str":11136,"##epdim_dim_zero":11137,"=''):":11138,"qconfig_parent":11139,"##_output_observed_from_input_observed":11140,"layered_lstm":11141,"use_smart_decay":11142,"bucket_max_size":11143,"max_examples":11144,"no_multiprocessing_spawn":11145,"{}/{}\".":11146,"_sort_tree_le":11147,"_slice_helper":11148,"_should_compress":11149,"_sum_rightmost":11150,"_sample_inputs_svd":11151,"sample_inputs_hardswish":11152,"sample_inputs_normalize":11153,"sample_inputs_nn_activation_relu":11154,"sample_inputs_symeig":11155,"sample_inputs_polar":11156,"sample_inputs_cumprod":11157,"sample_inputs_householder_product":11158,"newaxis":11159,"accordingly":11160,"accesses":11161,"12039810948":11162,"when_sparse_dispatch":11163,"scalar_to_dims":11164,"scalar_keepdim_dim_zero":11165,"reducefrontmean":11166,"key_averages":11167,"key_padding_mask":11168,"onlyoncpuandcuda":11169,"subbackward0":11170,"local_to_global":11171,"should_mark_output_observed_from_input_observed":11172,"copynodequantizehandler":11173,"has_enumerate_support":11174,"has_cuda_support":11175,"has_shm_files":11176,"_fallthrough_methods":11177,"##ent_test_fixture":11178,"_get_checked_instance":11179,"_get_build_directory":11180,"_get_sorted_leaves":11181,"_getreverseorderedgrads":11182,"default_dynamic_qconfig":11183,"rpc_async":11184,"rpc_agent_test_fixture":11185,"serializetostorage":11186,"utilitity":11187,"indices_list_value":11188,"register_shutdown_handler":11189,"assertraisescontextignorenot":11190,"aten_declarations":11191,"error_msgs":11192,"init_shared_libs":11193,"weight_compare":11194,"weight_stop_gradient":11195,"##_for_legacy_signatures":11196,"container_abcs":11197,"emptymatcherror":11198,"empty_nnz":11199,"emptybranchmodel":11200,"join_uneven_inputs":11201,"multiplier":11202,"make_non_contiguous":11203,"make_stub_from_method":11204,"make_raw_range":11205,"make_unique_blob_name":11206,"verifieds":11207,"linalg_matrix_rank":11208,"linalg_eigvalsh":11209,"linalg_slogdet":11210,"\"...\"":11211,"_test_sharing":11212,"_test_autograd_sharing":11213,"_test_ddp_hook_parity":11214,"application":11215,"create_variable_type":11216,"create_rdzv_handler":11217,"evolves":11218,"named_modules":11219,"calibrate":11220,"calledprocesserror":11221,"descriptors":11222,"benchmarkrunner":11223,"test_scalar_cast":11224,"test_scipy":11225,"broadcast_index_shape":11226,"_interpolate_tests":11227,"##functions_not_supported":11228,"cpp_builtin_hooks":11229,"get_eval_net":11230,"get_error_string":11231,"##_of_observed_node":11232,"##4731508061":11233,"testsmartdecayadam":11234,"dependency_resolution_failed":11235,"corresponds":11236,"##ical_topological_sort":11237,"worker_result_queue":11238,"worker_queue_idx":11239,"parse_nvprof_trace":11240,"static_quant_module_mappings":11241,"_jit_override_can_fuse_":11242,"brendangregg":11243,"myconvnetformnist":11244,"memory_allocated":11245,"sort_by_number_of_option":11246,"##proximation_rank":11247,"enumerate_options_due_to_default":11248,"##_strategy":11249,"_check_operator_first_char":11250,"map_aggregate":11251,"map_c2_config_matmul":11252,"pickletools":11253,"smashed":11254,"smoothl1loss":11255,"##_old_format_compat":11256,"top_k_ref":11257,"test_interpolate_no_shape":11258,"masked_fill_":11259,"_create_static_handler":11260,"_create_caffe2_queues_and_ops":11261,"value_for_type":11262,"interpolate":11263,"translatereduction":11264,"translatorregistry":11265,"_prepare_dummy_data":11266,"'{}.{}'":11267,"_write_ninja_file":11268,"_remove_if_exists":11269,"_reverse_repeat_tuple":11270,"negative_slope":11271,"use_last_error":11272,"multiheadattention":11273,"apply_recurrent_attention":11274,"_assertraisesco":11275,"test_pdist_single":11276,"test_pixel_shuffle":11277,"test_python_builtins":11278,"matrix_approximation_rank":11279,"maybe_insert_observer_for_input_arg_of_observed_node":11280,"encoder_outputs_transposed":11281,"record_event":11282,"record_stack_traces":11283,"sample_inputs_linalg_pinv_hermitian":11284,"act_scale":11285,"05158":11286,"fail_message":11287,"handles_large_floats":11288,"handles_complex_extremals":11289,"measuring":11290,"suggested":11291,"simple_multi_input_reduce_tests":11292,"toolchains":11293,"test_serialization_sparse_invalid":11294,"test_serialization_fake_zip":11295,"test_serialization_new_format_old_format_compat":11296,"accscalarname":11297,"acceleratedgraphmodule":11298,"_forward_pre_hooks":11299,"_validate_dependency_graph":11300,"_validate_log_prob_arg":11301,"generate_pt_tests_from_list":11302,"fixedqparamsopquantizehandler":11303,"standalone_tchain_root":11304,"test_strided_grad_layout":11305,"attention_weighted_encoder_context_old_shape":11306,"__array__":11307,"_log_api_usage_once":11308,"semidefinite":11309,"sandcastle_skip_if":11310,"transformeddistribution":11311,"testmultioptimizers":11312,"test_cuda_small_tensors":11313,"batched_powersgd_hook":11314,"optimized_result_no_prepack":11315,"packedsequence":11316,"start_powersgd_iter":11317,"split_name_params":11318,"equal_but_uknown":11319,"manual_seed_all":11320,"manual_cuda_lib_dirs":11321,"pairwise_distance":11322,"saved_variables":11323,"concatenate":11324,"test_boxmullerstate":11325,"test_add_dense_sparse_mismatch":11326,"understandable":11327,"_allreducegradientssinglehost":11328,"_register_after_fork":11329,"_register_builtin_comm_hook":11330,"_register_default_handlers":11331,"_th_normal_":11332,"_setup_bucket_strategy":11333,"bitwise_and":11334,"re_angle_header":11335,"test_multiple_optimizers":11336,"dim_desc_sort_scalar":11337,"=('*',),":11338,"export_chrome_trace":11339,"jitrpcasyncoptest":11340,"3782334731508061":11341,"33567":11342,"_add_module_to_dependency_graph":11343,"_num_writers":11344,"hacky_wrapper_for_legacy_signatures":11345,"nchw2nhwc":11346,"purposes":11347,"##6513334":11348,"test_serialize_device":11349,"test_create_script_module_on_remote":11350,"batches_outstanding":11351,"_compute_tree_height":11352,"assert_ns_logger_act_compare_dict_valid":11353,"assert_ns_compare_dict_valid":11354,"cudnncreatetensordescriptor":11355,"validate_net_equivalence":11356,"test_indexing_end_out_of_bounds":11357,"greater_than_eq":11358,"test_serialization_zipfile_actually_jit":11359,"total_numel_before_compression":11360,"\"([^\"]+)\"')":11361,"7ehinton":11362,"_dummy_type":11363,"fakelowp":11364,"nhwc2nchw":11365,"incompatible_device_warn":11366,"triplet_margin_loss":11367,"reverse_ordered_grads":11368,"test_advancedindex":11369,"test_adv_indexing_list":11370,"test_torchscript_functions_not_supported":11371,"unrecognized":11372,"group_by_stack_n":11373,"test_slice_neg_large_negone":11374,"testscalarforvoidtype":11375,"test_index_ellipses":11376,"squaredl2distance":11377,"test_pow_scalar_backward_cuda":11378,"_calc_attention_logits_from_sum_match":11379,"einsummodelbatchdiagonal":11380,"nomnigraph_transformations":11381,"poisson_nll_loss":11382,"sample_inputs_max_min_reduction_no_dim":11383,"0x00100000":11384,"899527506513334":11385,"<([^>]+)>')":11386,"_analyzeoperators":11387,"_dim_arange":11388,"_dataloaderiter":11389,"_maxunpoolnd":11390,"_empty_affine_quantized":11391,"_download_url_to_file":11392,"_update_param_groups":11393,"azzolini":11394,"bcewithlogitsloss":11395,"circleci":11396,"duse_direct_nvrtc":11397,"footest3":11398,"fifty_mil_cycles":11399,"guarantee":11400,"hivereaderbuilder":11401,"lexicographical_topological_sort":11402,"ninja_required_version":11403,"redefinition":11404,"schedulers":11405,"visualization":11406,"devicetypetestbase":11407,"retry_on_connect_failures":11408,"teststructnestedaddition":11409,"testnonparallelmodel":11410,"testpythonbuiltinop":11411,"topological_sort_traversal_longest_path":11412,"test_fft_function_clobbered":11413,"test_time_import_torch":11414,"test_pattern_based_rewrite":11415,"test_load_script_module_with_pickled_rref":11416,"test_static_graph_api_cpu":11417,"test_sparse_to_sparse_copy_":11418,"get_content_charset":11419,"with_codegenerated_unboxing_wrapper":11420,"check_alias_annotation":11421,"batch_of_matrices":11422,"type_a_related_to_b":11423,"np_unary_ufunc_integer_promotion_wrapper":11424,"_sort_tree_leaves":11425,"12039810948234589":11426,"should_mark_output_observed_from_input_observed_status":11427,"assertraisescontextignorenotimplementederror":11428,"_jit_override_can_fuse_on_gpu":11429,"sort_by_number_of_options":11430}}}